{
  "version": "1.0",
  "truncation": null,
  "padding": null,
  "added_tokens": [
    {
      "id": 0,
      "content": "<pad>",
      "single_word": false,
      "lstrip": false,
      "rstrip": false,
      "normalized": false,
      "special": true
    },
    {
      "id": 1,
      "content": "<s>",
      "single_word": false,
      "lstrip": false,
      "rstrip": false,
      "normalized": false,
      "special": true
    },
    {
      "id": 2,
      "content": "</s>",
      "single_word": false,
      "lstrip": false,
      "rstrip": false,
      "normalized": false,
      "special": true
    },
    {
      "id": 3,
      "content": "<unk>",
      "single_word": false,
      "lstrip": false,
      "rstrip": false,
      "normalized": false,
      "special": true
    },
    {
      "id": 4,
      "content": "<AK_USER>",
      "single_word": false,
      "lstrip": false,
      "rstrip": false,
      "normalized": false,
      "special": true
    },
    {
      "id": 5,
      "content": "<AK_CHAT>",
      "single_word": false,
      "lstrip": false,
      "rstrip": false,
      "normalized": false,
      "special": true
    },
    {
      "id": 6,
      "content": "<AK_THINK>",
      "single_word": false,
      "lstrip": false,
      "rstrip": false,
      "normalized": false,
      "special": true
    },
    {
      "id": 7,
      "content": "<AK_DEEP_RESEARCH>",
      "single_word": false,
      "lstrip": false,
      "rstrip": false,
      "normalized": false,
      "special": true
    },
    {
      "id": 8,
      "content": "<AK_LOOP>",
      "single_word": false,
      "lstrip": false,
      "rstrip": false,
      "normalized": false,
      "special": true
    },
    {
      "id": 9,
      "content": "<AK_PLAN>",
      "single_word": false,
      "lstrip": false,
      "rstrip": false,
      "normalized": false,
      "special": true
    },
    {
      "id": 10,
      "content": "<AK_STATE>",
      "single_word": false,
      "lstrip": false,
      "rstrip": false,
      "normalized": false,
      "special": true
    },
    {
      "id": 11,
      "content": "<AK_CONTEXT>",
      "single_word": false,
      "lstrip": false,
      "rstrip": false,
      "normalized": false,
      "special": true
    },
    {
      "id": 12,
      "content": "<AK_ACTIVE_CONTEXT>",
      "single_word": false,
      "lstrip": false,
      "rstrip": false,
      "normalized": false,
      "special": true
    },
    {
      "id": 13,
      "content": "<AK_EVIDENCE>",
      "single_word": false,
      "lstrip": false,
      "rstrip": false,
      "normalized": false,
      "special": true
    },
    {
      "id": 14,
      "content": "<AK_EVIDENCE_ID>",
      "single_word": false,
      "lstrip": false,
      "rstrip": false,
      "normalized": false,
      "special": true
    },
    {
      "id": 15,
      "content": "<AK_TITLE>",
      "single_word": false,
      "lstrip": false,
      "rstrip": false,
      "normalized": false,
      "special": true
    },
    {
      "id": 16,
      "content": "<AK_PAPER_ID>",
      "single_word": false,
      "lstrip": false,
      "rstrip": false,
      "normalized": false,
      "special": true
    },
    {
      "id": 17,
      "content": "<AK_CATEGORY>",
      "single_word": false,
      "lstrip": false,
      "rstrip": false,
      "normalized": false,
      "special": true
    },
    {
      "id": 18,
      "content": "<AK_YEAR>",
      "single_word": false,
      "lstrip": false,
      "rstrip": false,
      "normalized": false,
      "special": true
    },
    {
      "id": 19,
      "content": "<AK_ABSTRACT>",
      "single_word": false,
      "lstrip": false,
      "rstrip": false,
      "normalized": false,
      "special": true
    },
    {
      "id": 20,
      "content": "<AK_CANDIDATE>",
      "single_word": false,
      "lstrip": false,
      "rstrip": false,
      "normalized": false,
      "special": true
    },
    {
      "id": 21,
      "content": "<AK_SELECTED_PAPER>",
      "single_word": false,
      "lstrip": false,
      "rstrip": false,
      "normalized": false,
      "special": true
    },
    {
      "id": 22,
      "content": "<AK_CONTEXT_ID>",
      "single_word": false,
      "lstrip": false,
      "rstrip": false,
      "normalized": false,
      "special": true
    },
    {
      "id": 23,
      "content": "<AK_TARGET_CONTEXT>",
      "single_word": false,
      "lstrip": false,
      "rstrip": false,
      "normalized": false,
      "special": true
    },
    {
      "id": 24,
      "content": "<AK_QUERY_REWRITE>",
      "single_word": false,
      "lstrip": false,
      "rstrip": false,
      "normalized": false,
      "special": true
    },
    {
      "id": 25,
      "content": "<AK_RERANK>",
      "single_word": false,
      "lstrip": false,
      "rstrip": false,
      "normalized": false,
      "special": true
    },
    {
      "id": 26,
      "content": "<AK_ABSTRACT_RETRIEVAL>",
      "single_word": false,
      "lstrip": false,
      "rstrip": false,
      "normalized": false,
      "special": true
    },
    {
      "id": 27,
      "content": "<AK_GATHER_CONTEXT>",
      "single_word": false,
      "lstrip": false,
      "rstrip": false,
      "normalized": false,
      "special": true
    },
    {
      "id": 28,
      "content": "<AK_RESPOND>",
      "single_word": false,
      "lstrip": false,
      "rstrip": false,
      "normalized": false,
      "special": true
    },
    {
      "id": 29,
      "content": "<AK_USE_CONTEXT>",
      "single_word": false,
      "lstrip": false,
      "rstrip": false,
      "normalized": false,
      "special": true
    },
    {
      "id": 30,
      "content": "<AK_FULL_TEXT>",
      "single_word": false,
      "lstrip": false,
      "rstrip": false,
      "normalized": false,
      "special": true
    },
    {
      "id": 31,
      "content": "<AK_LOAD_FULL_TEXT>",
      "single_word": false,
      "lstrip": false,
      "rstrip": false,
      "normalized": false,
      "special": true
    },
    {
      "id": 32,
      "content": "<AK_NO_RETRIEVAL>",
      "single_word": false,
      "lstrip": false,
      "rstrip": false,
      "normalized": false,
      "special": true
    },
    {
      "id": 33,
      "content": "<AK_RETRIEVE_NEW>",
      "single_word": false,
      "lstrip": false,
      "rstrip": false,
      "normalized": false,
      "special": true
    },
    {
      "id": 34,
      "content": "<AK_RETRIEVAL_PAIR>",
      "single_word": false,
      "lstrip": false,
      "rstrip": false,
      "normalized": false,
      "special": true
    },
    {
      "id": 35,
      "content": "<AK_SUFFICIENT>",
      "single_word": false,
      "lstrip": false,
      "rstrip": false,
      "normalized": false,
      "special": true
    },
    {
      "id": 36,
      "content": "<AK_INSUFFICIENT>",
      "single_word": false,
      "lstrip": false,
      "rstrip": false,
      "normalized": false,
      "special": true
    },
    {
      "id": 37,
      "content": "<AK_ANSWER>",
      "single_word": false,
      "lstrip": false,
      "rstrip": false,
      "normalized": false,
      "special": true
    },
    {
      "id": 38,
      "content": "<AK_CITE>",
      "single_word": false,
      "lstrip": false,
      "rstrip": false,
      "normalized": false,
      "special": true
    },
    {
      "id": 39,
      "content": "<AK_RENDER>",
      "single_word": false,
      "lstrip": false,
      "rstrip": false,
      "normalized": false,
      "special": true
    },
    {
      "id": 40,
      "content": "<AK_JSON>",
      "single_word": false,
      "lstrip": false,
      "rstrip": false,
      "normalized": false,
      "special": true
    },
    {
      "id": 41,
      "content": "<AK_PROFILE>",
      "single_word": false,
      "lstrip": false,
      "rstrip": false,
      "normalized": false,
      "special": true
    },
    {
      "id": 42,
      "content": "<AK_SLOT>",
      "single_word": false,
      "lstrip": false,
      "rstrip": false,
      "normalized": false,
      "special": true
    },
    {
      "id": 43,
      "content": "<AK_SLOT_NAME>",
      "single_word": false,
      "lstrip": false,
      "rstrip": false,
      "normalized": false,
      "special": true
    },
    {
      "id": 44,
      "content": "<AK_SLOT_VALUE>",
      "single_word": false,
      "lstrip": false,
      "rstrip": false,
      "normalized": false,
      "special": true
    },
    {
      "id": 45,
      "content": "<AK_PREFERENCE>",
      "single_word": false,
      "lstrip": false,
      "rstrip": false,
      "normalized": false,
      "special": true
    },
    {
      "id": 46,
      "content": "<AK_GOAL>",
      "single_word": false,
      "lstrip": false,
      "rstrip": false,
      "normalized": false,
      "special": true
    },
    {
      "id": 47,
      "content": "<AK_DOMAIN>",
      "single_word": false,
      "lstrip": false,
      "rstrip": false,
      "normalized": false,
      "special": true
    },
    {
      "id": 48,
      "content": "<AK_TONE>",
      "single_word": false,
      "lstrip": false,
      "rstrip": false,
      "normalized": false,
      "special": true
    },
    {
      "id": 49,
      "content": "<AK_CONSTRAINT>",
      "single_word": false,
      "lstrip": false,
      "rstrip": false,
      "normalized": false,
      "special": true
    },
    {
      "id": 50,
      "content": "<AK_PRIVACY>",
      "single_word": false,
      "lstrip": false,
      "rstrip": false,
      "normalized": false,
      "special": true
    },
    {
      "id": 51,
      "content": "<AK_REMEMBER>",
      "single_word": false,
      "lstrip": false,
      "rstrip": false,
      "normalized": false,
      "special": true
    },
    {
      "id": 52,
      "content": "<AK_UPDATE_SLOT>",
      "single_word": false,
      "lstrip": false,
      "rstrip": false,
      "normalized": false,
      "special": true
    },
    {
      "id": 53,
      "content": "<AK_DELETE_SLOT>",
      "single_word": false,
      "lstrip": false,
      "rstrip": false,
      "normalized": false,
      "special": true
    },
    {
      "id": 54,
      "content": "<AK_EXTENSION>",
      "single_word": false,
      "lstrip": false,
      "rstrip": false,
      "normalized": false,
      "special": true
    },
    {
      "id": 55,
      "content": "<AK_CAPABILITY>",
      "single_word": false,
      "lstrip": false,
      "rstrip": false,
      "normalized": false,
      "special": true
    },
    {
      "id": 56,
      "content": "<AK_APPROVAL>",
      "single_word": false,
      "lstrip": false,
      "rstrip": false,
      "normalized": false,
      "special": true
    },
    {
      "id": 57,
      "content": "<AK_SAVE_MEMORY>",
      "single_word": false,
      "lstrip": false,
      "rstrip": false,
      "normalized": false,
      "special": true
    },
    {
      "id": 58,
      "content": "<AK_ASK_USER>",
      "single_word": false,
      "lstrip": false,
      "rstrip": false,
      "normalized": false,
      "special": true
    },
    {
      "id": 59,
      "content": "<AK_SOURCE_TYPE>",
      "single_word": false,
      "lstrip": false,
      "rstrip": false,
      "normalized": false,
      "special": true
    },
    {
      "id": 60,
      "content": "<AK_EXTENSION_RESULT>",
      "single_word": false,
      "lstrip": false,
      "rstrip": false,
      "normalized": false,
      "special": true
    },
    {
      "id": 61,
      "content": "<AK_INSTALLED>",
      "single_word": false,
      "lstrip": false,
      "rstrip": false,
      "normalized": false,
      "special": true
    },
    {
      "id": 62,
      "content": "<AK_DECISION>",
      "single_word": false,
      "lstrip": false,
      "rstrip": false,
      "normalized": false,
      "special": true
    },
    {
      "id": 63,
      "content": "<AK_NEED_MEMORY>",
      "single_word": false,
      "lstrip": false,
      "rstrip": false,
      "normalized": false,
      "special": true
    },
    {
      "id": 64,
      "content": "<AK_MEMORY_TYPE>",
      "single_word": false,
      "lstrip": false,
      "rstrip": false,
      "normalized": false,
      "special": true
    },
    {
      "id": 65,
      "content": "<AK_MEMORY_QUERY>",
      "single_word": false,
      "lstrip": false,
      "rstrip": false,
      "normalized": false,
      "special": true
    },
    {
      "id": 66,
      "content": "<AK_MEMORY_SLOT>",
      "single_word": false,
      "lstrip": false,
      "rstrip": false,
      "normalized": false,
      "special": true
    },
    {
      "id": 67,
      "content": "<AK_MEMORY_RESULT>",
      "single_word": false,
      "lstrip": false,
      "rstrip": false,
      "normalized": false,
      "special": true
    },
    {
      "id": 68,
      "content": "<AK_USE_MEMORY>",
      "single_word": false,
      "lstrip": false,
      "rstrip": false,
      "normalized": false,
      "special": true
    },
    {
      "id": 69,
      "content": "<AK_UNCERTAIN>",
      "single_word": false,
      "lstrip": false,
      "rstrip": false,
      "normalized": false,
      "special": true
    },
    {
      "id": 70,
      "content": "<AK_SUFFICIENT_CONTEXT>",
      "single_word": false,
      "lstrip": false,
      "rstrip": false,
      "normalized": false,
      "special": true
    },
    {
      "id": 71,
      "content": "<AK_REASON>",
      "single_word": false,
      "lstrip": false,
      "rstrip": false,
      "normalized": false,
      "special": true
    },
    {
      "id": 72,
      "content": "<AK_VERIFY>",
      "single_word": false,
      "lstrip": false,
      "rstrip": false,
      "normalized": false,
      "special": true
    },
    {
      "id": 73,
      "content": "<AK_RETRIEVE>",
      "single_word": false,
      "lstrip": false,
      "rstrip": false,
      "normalized": false,
      "special": true
    },
    {
      "id": 74,
      "content": "<AK_REFLECT>",
      "single_word": false,
      "lstrip": false,
      "rstrip": false,
      "normalized": false,
      "special": true
    },
    {
      "id": 75,
      "content": "<AK_ASK>",
      "single_word": false,
      "lstrip": false,
      "rstrip": false,
      "normalized": false,
      "special": true
    },
    {
      "id": 76,
      "content": "<AK_ABSTAIN>",
      "single_word": false,
      "lstrip": false,
      "rstrip": false,
      "normalized": false,
      "special": true
    },
    {
      "id": 77,
      "content": "<AK_RET_PAPERS>",
      "single_word": false,
      "lstrip": false,
      "rstrip": false,
      "normalized": false,
      "special": true
    },
    {
      "id": 78,
      "content": "<AK_RET_MEMORY>",
      "single_word": false,
      "lstrip": false,
      "rstrip": false,
      "normalized": false,
      "special": true
    },
    {
      "id": 79,
      "content": "<AK_RET_GRAPH>",
      "single_word": false,
      "lstrip": false,
      "rstrip": false,
      "normalized": false,
      "special": true
    },
    {
      "id": 80,
      "content": "<AK_RET_EXACT>",
      "single_word": false,
      "lstrip": false,
      "rstrip": false,
      "normalized": false,
      "special": true
    },
    {
      "id": 81,
      "content": "<AK_RET_SEMANTIC>",
      "single_word": false,
      "lstrip": false,
      "rstrip": false,
      "normalized": false,
      "special": true
    },
    {
      "id": 82,
      "content": "<AK_RET_HYBRID>",
      "single_word": false,
      "lstrip": false,
      "rstrip": false,
      "normalized": false,
      "special": true
    },
    {
      "id": 83,
      "content": "<AK_CONF_HIGH>",
      "single_word": false,
      "lstrip": false,
      "rstrip": false,
      "normalized": false,
      "special": true
    },
    {
      "id": 84,
      "content": "<AK_CONF_MEDIUM>",
      "single_word": false,
      "lstrip": false,
      "rstrip": false,
      "normalized": false,
      "special": true
    },
    {
      "id": 85,
      "content": "<AK_CONF_LOW>",
      "single_word": false,
      "lstrip": false,
      "rstrip": false,
      "normalized": false,
      "special": true
    },
    {
      "id": 86,
      "content": "<AK_OOD_QUERY>",
      "single_word": false,
      "lstrip": false,
      "rstrip": false,
      "normalized": false,
      "special": true
    },
    {
      "id": 87,
      "content": "<AK_OOD_EVIDENCE>",
      "single_word": false,
      "lstrip": false,
      "rstrip": false,
      "normalized": false,
      "special": true
    },
    {
      "id": 88,
      "content": "<AK_OOD_RESPONSE>",
      "single_word": false,
      "lstrip": false,
      "rstrip": false,
      "normalized": false,
      "special": true
    },
    {
      "id": 89,
      "content": "<AK_INSUFFICIENT_EVIDENCE>",
      "single_word": false,
      "lstrip": false,
      "rstrip": false,
      "normalized": false,
      "special": true
    },
    {
      "id": 90,
      "content": "<AK_NEEDS_VERIFICATION>",
      "single_word": false,
      "lstrip": false,
      "rstrip": false,
      "normalized": false,
      "special": true
    },
    {
      "id": 91,
      "content": "<AK_MEM_READ>",
      "single_word": false,
      "lstrip": false,
      "rstrip": false,
      "normalized": false,
      "special": true
    },
    {
      "id": 92,
      "content": "<AK_MEM_WRITE>",
      "single_word": false,
      "lstrip": false,
      "rstrip": false,
      "normalized": false,
      "special": true
    },
    {
      "id": 93,
      "content": "<AK_MEM_UPDATE>",
      "single_word": false,
      "lstrip": false,
      "rstrip": false,
      "normalized": false,
      "special": true
    },
    {
      "id": 94,
      "content": "<AK_MEM_EPISODIC>",
      "single_word": false,
      "lstrip": false,
      "rstrip": false,
      "normalized": false,
      "special": true
    },
    {
      "id": 95,
      "content": "<AK_MEM_SEMANTIC>",
      "single_word": false,
      "lstrip": false,
      "rstrip": false,
      "normalized": false,
      "special": true
    },
    {
      "id": 96,
      "content": "<AK_CHECK_FACT>",
      "single_word": false,
      "lstrip": false,
      "rstrip": false,
      "normalized": false,
      "special": true
    },
    {
      "id": 97,
      "content": "<AK_CHECK_CONSISTENCY>",
      "single_word": false,
      "lstrip": false,
      "rstrip": false,
      "normalized": false,
      "special": true
    },
    {
      "id": 98,
      "content": "<AK_CHECK_EVIDENCE>",
      "single_word": false,
      "lstrip": false,
      "rstrip": false,
      "normalized": false,
      "special": true
    },
    {
      "id": 99,
      "content": "<AK_RETRIEVE_AGAIN>",
      "single_word": false,
      "lstrip": false,
      "rstrip": false,
      "normalized": false,
      "special": true
    },
    {
      "id": 100,
      "content": "<AK_ACTION_SPACE_CODE>",
      "single_word": false,
      "lstrip": false,
      "rstrip": false,
      "normalized": false,
      "special": true
    },
    {
      "id": 101,
      "content": "<AK_ACTION_SPACE_ARTIFACT>",
      "single_word": false,
      "lstrip": false,
      "rstrip": false,
      "normalized": false,
      "special": true
    },
    {
      "id": 102,
      "content": "<AK_ACTION_SPACE_RETRIEVAL>",
      "single_word": false,
      "lstrip": false,
      "rstrip": false,
      "normalized": false,
      "special": true
    },
    {
      "id": 103,
      "content": "<AK_ACTION_SPACE_RESPOND>",
      "single_word": false,
      "lstrip": false,
      "rstrip": false,
      "normalized": false,
      "special": true
    },
    {
      "id": 104,
      "content": "<AK_RET_CODE>",
      "single_word": false,
      "lstrip": false,
      "rstrip": false,
      "normalized": false,
      "special": true
    },
    {
      "id": 105,
      "content": "<AK_OOD>",
      "single_word": false,
      "lstrip": false,
      "rstrip": false,
      "normalized": false,
      "special": true
    },
    {
      "id": 106,
      "content": "<AK_ARTIFACT_REPAIR>",
      "single_word": false,
      "lstrip": false,
      "rstrip": false,
      "normalized": false,
      "special": true
    },
    {
      "id": 107,
      "content": "<AK_SOURCE_INSPECT>",
      "single_word": false,
      "lstrip": false,
      "rstrip": false,
      "normalized": false,
      "special": true
    },
    {
      "id": 108,
      "content": "<AK_PATCH_BUILD>",
      "single_word": false,
      "lstrip": false,
      "rstrip": false,
      "normalized": false,
      "special": true
    },
    {
      "id": 109,
      "content": "<AK_SAFE_STOP>",
      "single_word": false,
      "lstrip": false,
      "rstrip": false,
      "normalized": false,
      "special": true
    }
  ],
  "normalizer": null,
  "pre_tokenizer": {
    "type": "ByteLevel",
    "add_prefix_space": false,
    "trim_offsets": true,
    "use_regex": true
  },
  "post_processor": {
    "type": "TemplateProcessing",
    "single": [
      {
        "SpecialToken": {
          "id": "<s>",
          "type_id": 0
        }
      },
      {
        "Sequence": {
          "id": "A",
          "type_id": 0
        }
      },
      {
        "SpecialToken": {
          "id": "</s>",
          "type_id": 0
        }
      }
    ],
    "pair": [
      {
        "SpecialToken": {
          "id": "<s>",
          "type_id": 0
        }
      },
      {
        "Sequence": {
          "id": "A",
          "type_id": 0
        }
      },
      {
        "SpecialToken": {
          "id": "</s>",
          "type_id": 0
        }
      },
      {
        "Sequence": {
          "id": "B",
          "type_id": 1
        }
      },
      {
        "SpecialToken": {
          "id": "</s>",
          "type_id": 1
        }
      }
    ],
    "special_tokens": {
      "</s>": {
        "id": "</s>",
        "ids": [
          2
        ],
        "tokens": [
          "</s>"
        ]
      },
      "<s>": {
        "id": "<s>",
        "ids": [
          1
        ],
        "tokens": [
          "<s>"
        ]
      }
    }
  },
  "decoder": {
    "type": "ByteLevel",
    "add_prefix_space": true,
    "trim_offsets": true,
    "use_regex": true
  },
  "model": {
    "type": "BPE",
    "dropout": null,
    "unk_token": "<unk>",
    "continuing_subword_prefix": null,
    "end_of_word_suffix": null,
    "fuse_unk": false,
    "byte_fallback": false,
    "ignore_merges": false,
    "vocab": {
      "<pad>": 0,
      "<s>": 1,
      "</s>": 2,
      "<unk>": 3,
      "<AK_USER>": 4,
      "<AK_CHAT>": 5,
      "<AK_THINK>": 6,
      "<AK_DEEP_RESEARCH>": 7,
      "<AK_LOOP>": 8,
      "<AK_PLAN>": 9,
      "<AK_STATE>": 10,
      "<AK_CONTEXT>": 11,
      "<AK_ACTIVE_CONTEXT>": 12,
      "<AK_EVIDENCE>": 13,
      "<AK_EVIDENCE_ID>": 14,
      "<AK_TITLE>": 15,
      "<AK_PAPER_ID>": 16,
      "<AK_CATEGORY>": 17,
      "<AK_YEAR>": 18,
      "<AK_ABSTRACT>": 19,
      "<AK_CANDIDATE>": 20,
      "<AK_SELECTED_PAPER>": 21,
      "<AK_CONTEXT_ID>": 22,
      "<AK_TARGET_CONTEXT>": 23,
      "<AK_QUERY_REWRITE>": 24,
      "<AK_RERANK>": 25,
      "<AK_ABSTRACT_RETRIEVAL>": 26,
      "<AK_GATHER_CONTEXT>": 27,
      "<AK_RESPOND>": 28,
      "<AK_USE_CONTEXT>": 29,
      "<AK_FULL_TEXT>": 30,
      "<AK_LOAD_FULL_TEXT>": 31,
      "<AK_NO_RETRIEVAL>": 32,
      "<AK_RETRIEVE_NEW>": 33,
      "<AK_RETRIEVAL_PAIR>": 34,
      "<AK_SUFFICIENT>": 35,
      "<AK_INSUFFICIENT>": 36,
      "<AK_ANSWER>": 37,
      "<AK_CITE>": 38,
      "<AK_RENDER>": 39,
      "<AK_JSON>": 40,
      "<AK_PROFILE>": 41,
      "<AK_SLOT>": 42,
      "<AK_SLOT_NAME>": 43,
      "<AK_SLOT_VALUE>": 44,
      "<AK_PREFERENCE>": 45,
      "<AK_GOAL>": 46,
      "<AK_DOMAIN>": 47,
      "<AK_TONE>": 48,
      "<AK_CONSTRAINT>": 49,
      "<AK_PRIVACY>": 50,
      "<AK_REMEMBER>": 51,
      "<AK_UPDATE_SLOT>": 52,
      "<AK_DELETE_SLOT>": 53,
      "<AK_EXTENSION>": 54,
      "<AK_CAPABILITY>": 55,
      "<AK_APPROVAL>": 56,
      "<AK_SAVE_MEMORY>": 57,
      "<AK_ASK_USER>": 58,
      "<AK_SOURCE_TYPE>": 59,
      "<AK_EXTENSION_RESULT>": 60,
      "<AK_INSTALLED>": 61,
      "<AK_DECISION>": 62,
      "<AK_NEED_MEMORY>": 63,
      "<AK_MEMORY_TYPE>": 64,
      "<AK_MEMORY_QUERY>": 65,
      "<AK_MEMORY_SLOT>": 66,
      "<AK_MEMORY_RESULT>": 67,
      "<AK_USE_MEMORY>": 68,
      "<AK_UNCERTAIN>": 69,
      "<AK_SUFFICIENT_CONTEXT>": 70,
      "<AK_REASON>": 71,
      "<AK_VERIFY>": 72,
      "<AK_RETRIEVE>": 73,
      "<AK_REFLECT>": 74,
      "<AK_ASK>": 75,
      "<AK_ABSTAIN>": 76,
      "<AK_RET_PAPERS>": 77,
      "<AK_RET_MEMORY>": 78,
      "<AK_RET_GRAPH>": 79,
      "<AK_RET_EXACT>": 80,
      "<AK_RET_SEMANTIC>": 81,
      "<AK_RET_HYBRID>": 82,
      "<AK_CONF_HIGH>": 83,
      "<AK_CONF_MEDIUM>": 84,
      "<AK_CONF_LOW>": 85,
      "<AK_OOD_QUERY>": 86,
      "<AK_OOD_EVIDENCE>": 87,
      "<AK_OOD_RESPONSE>": 88,
      "<AK_INSUFFICIENT_EVIDENCE>": 89,
      "<AK_NEEDS_VERIFICATION>": 90,
      "<AK_MEM_READ>": 91,
      "<AK_MEM_WRITE>": 92,
      "<AK_MEM_UPDATE>": 93,
      "<AK_MEM_EPISODIC>": 94,
      "<AK_MEM_SEMANTIC>": 95,
      "<AK_CHECK_FACT>": 96,
      "<AK_CHECK_CONSISTENCY>": 97,
      "<AK_CHECK_EVIDENCE>": 98,
      "<AK_RETRIEVE_AGAIN>": 99,
      "<AK_ACTION_SPACE_CODE>": 100,
      "<AK_ACTION_SPACE_ARTIFACT>": 101,
      "<AK_ACTION_SPACE_RETRIEVAL>": 102,
      "<AK_ACTION_SPACE_RESPOND>": 103,
      "<AK_RET_CODE>": 104,
      "<AK_OOD>": 105,
      "<AK_ARTIFACT_REPAIR>": 106,
      "<AK_SOURCE_INSPECT>": 107,
      "<AK_PATCH_BUILD>": 108,
      "<AK_SAFE_STOP>": 109,
      "\"": 110,
      "'": 111,
      ",": 112,
      "-": 113,
      ".": 114,
      "0": 115,
      "1": 116,
      "2": 117,
      "5": 118,
      ":": 119,
      ";": 120,
      "<": 121,
      "=": 122,
      ">": 123,
      "?": 124,
      "A": 125,
      "B": 126,
      "C": 127,
      "D": 128,
      "E": 129,
      "F": 130,
      "G": 131,
      "H": 132,
      "I": 133,
      "J": 134,
      "K": 135,
      "L": 136,
      "M": 137,
      "N": 138,
      "O": 139,
      "P": 140,
      "Q": 141,
      "R": 142,
      "S": 143,
      "T": 144,
      "U": 145,
      "V": 146,
      "W": 147,
      "X": 148,
      "Y": 149,
      "[": 150,
      "]": 151,
      "_": 152,
      "a": 153,
      "b": 154,
      "c": 155,
      "d": 156,
      "e": 157,
      "f": 158,
      "g": 159,
      "h": 160,
      "i": 161,
      "j": 162,
      "k": 163,
      "l": 164,
      "m": 165,
      "n": 166,
      "o": 167,
      "p": 168,
      "q": 169,
      "r": 170,
      "s": 171,
      "t": 172,
      "u": 173,
      "v": 174,
      "w": 175,
      "x": 176,
      "y": 177,
      "z": 178,
      "{": 179,
      "}": 180,
      "Ġ": 181,
      "AK": 182,
      "Ġ<": 183,
      "on": 184,
      "LO": 185,
      "SLO": 186,
      "SLOT": 187,
      "Ġa": 188,
      "re": 189,
      "te": 190,
      ">=": 191,
      "Ġ\"": 192,
      "Ġt": 193,
      "in": 194,
      "al": 195,
      "ion": 196,
      "er": 197,
      "pr": 198,
      "Ġs": 199,
      "he": 200,
      "\":": 201,
      "or": 202,
      "AL": 203,
      "le": 204,
      "ME": 205,
      "ta": 206,
      "VAL": 207,
      "Ġw": 208,
      "ct": 209,
      "UE": 210,
      "AME": 211,
      "NAME": 212,
      "VALUE": 213,
      "me": 214,
      "us": 215,
      "Ġc": 216,
      "is": 217,
      "ex": 218,
      "lo": 219,
      "Ġthe": 220,
      "pro": 221,
      "nd": 222,
      "\",": 223,
      "ou": 224,
      "ra": 225,
      "no": 226,
      "de": 227,
      "it": 228,
      "st": 229,
      "ns": 230,
      "ha": 231,
      "PR": 232,
      "fi": 233,
      "ate": 234,
      "ke": 235,
      "Ġus": 236,
      "ON": 237,
      "ing": 238,
      "iv": 239,
      "Ġex": 240,
      "la": 241,
      "Ġp": 242,
      "Ġf": 243,
      "Ġand": 244,
      "Ġuser": 245,
      "Ġb": 246,
      "ma": 247,
      "Ġcon": 248,
      "res": 249,
      "sk": 250,
      "priv": 251,
      "Ġde": 252,
      "con": 253,
      "pe": 254,
      "cal": 255,
      "ction": 256,
      "Ġwit": 257,
      "Ġwith": 258,
      "ce": 259,
      "Ġno": 260,
      "{\"": 261,
      "nt": 262,
      "out": 263,
      "ge": 264,
      "ER": 265,
      "lot": 266,
      "private": 267,
      "IN": 268,
      "do": 269,
      "tens": 270,
      "tension": 271,
      "po": 272,
      "AIN": 273,
      "ĠP": 274,
      "il": 275,
      "Ġfor": 276,
      "tion": 277,
      "pon": 278,
      "respon": 279,
      "ref": 280,
      "int": 281,
      "cis": 282,
      "cke": 283,
      "IL": 284,
      "Pal": 285,
      "ocke": 286,
      "tPal": 287,
      "ĠPocke": 288,
      "ĠPocketPal": 289,
      "one": 290,
      "ss": 291,
      "Ġre": 292,
      "PRO": 293,
      "da": 294,
      "Ġpro": 295,
      "ed": 296,
      "EN": 297,
      "FIL": 298,
      "PROFIL": 299,
      "PROFILE": 300,
      "ur": 301,
      "local": 302,
      "ue": 303,
      "pos": 304,
      "Ġaction": 305,
      "Ġnot": 306,
      "raint": 307,
      "straint": 308,
      "respond": 309,
      "mp": 310,
      "hat": 311,
      "Ġto": 312,
      "Ġlocal": 313,
      "ty": 314,
      "mem": 315,
      "file": 316,
      "Ġexa": 317,
      "ck": 318,
      "lan": 319,
      "ere": 320,
      "nce": 321,
      "note": 322,
      "Re": 323,
      "Ġ{\"": 324,
      "tada": 325,
      "metada": 326,
      "metadata": 327,
      "type": 328,
      "Ġin": 329,
      "gu": 330,
      "ho": 331,
      "Ġconfi": 332,
      "Ġr": 333,
      "Ġdecis": 334,
      "Ġdecision": 335,
      "refere": 336,
      "reference": 337,
      "CE": 338,
      "CON": 339,
      "slot": 340,
      "ĠRe": 341,
      "conte": 342,
      "posal": 343,
      "Ġst": 344,
      "Ġplan": 345,
      "Ġn": 346,
      "ep": 347,
      "urn": 348,
      "Ġsh": 349,
      "Ġextension": 350,
      "uct": 351,
      "Ġm": 352,
      "red": 353,
      "ST": 354,
      "tone": 355,
      "turn": 356,
      "Ġconfigu": 357,
      "up": 358,
      "ble": 359,
      "Ġbe": 360,
      "ask": 361,
      "xt": 362,
      "ers": 363,
      "Ġme": 364,
      "ort": 365,
      "Ġshort": 366,
      "ext": 367,
      "preference": 368,
      "RE": 369,
      "AC": 370,
      "AT": 371,
      "ENCE": 372,
      "US": 373,
      "STR": 374,
      "IV": 375,
      "USER": 376,
      "PRIV": 377,
      "AINT": 378,
      "CONSTR": 379,
      "ACY": 380,
      "PRIVACY": 381,
      "CONSTRAINT": 382,
      "\"}": 383,
      "go": 384,
      "profile": 385,
      "main": 386,
      "constraint": 387,
      "domain": 388,
      "Ġconfigura": 389,
      "goal": 390,
      "ĠI": 391,
      "mple": 392,
      "Ġexample": 393,
      "av": 394,
      "un": 395,
      "ning": 396,
      "rans": 397,
      "ud": 398,
      "que": 399,
      "es": 400,
      "val": 401,
      "ppro": 402,
      "Ġnext": 403,
      "Ġdeta": 404,
      "keep": 405,
      "CH": 406,
      "GO": 407,
      "DO": 408,
      "EF": 409,
      "MAIN": 410,
      "TON": 411,
      "PREF": 412,
      "ERENCE": 413,
      "CHAT": 414,
      "GOAL": 415,
      "DOMAIN": 416,
      "TONE": 417,
      "PREFERENCE": 418,
      "ame": 419,
      "action": 420,
      "name": 421,
      "ruct": 422,
      "ured": 423,
      "Ġslot": 424,
      "task": 425,
      "proposal": 426,
      "ĠReturn": 427,
      "content": 428,
      "Ġstruct": 429,
      "Ġconfiguration": 430,
      "Ġstructured": 431,
      "Ġdetail": 432,
      "nsw": 433,
      "ar": 434,
      "Ġha": 435,
      "extension": 436,
      "Ġd": 437,
      "pa": 438,
      "mma": 439,
      "umma": 440,
      "ummar": 441,
      "Ġprivate": 442,
      "ly": 443,
      "EX": 444,
      "EXT": 445,
      "RES": 446,
      ".\",": 447,
      "ound": 448,
      "Ġplanning": 449,
      "Ġnote": 450,
      "Ġan": 451,
      "ad": 452,
      "act": 453,
      "ransla": 454,
      "text": 455,
      "ber": 456,
      "member": 457,
      "Ġis": 458,
      "quest": 459,
      "ide": 460,
      "pproval": 461,
      "ro": 462,
      "ĠT": 463,
      "id": 464,
      "Ġwithout": 465,
      "Ġrout": 466,
      "se": 467,
      "led": 468,
      "Ġwor": 469,
      "ory": 470,
      "memory": 471,
      "\"}}": 472,
      "low": 473,
      "Ġbu": 474,
      "Ġansw": 475,
      "Ġth": 476,
      "fo": 477,
      "Ġbefo": 478,
      "Ġbefore": 479,
      "ld": 480,
      "Ġtask": 481,
      "ch": 482,
      "cy": 483,
      "ated": 484,
      "Ġsha": 485,
      "Ġapproval": 486,
      "ity": 487,
      "tep": 488,
      "transla": 489,
      "Ġun": 490,
      "less": 491,
      "Ġunless": 492,
      "udy": 493,
      "han": 494,
      "ior": 495,
      "Ġthat": 496,
      "Ġroutin": 497,
      "Ġstep": 498,
      "ect": 499,
      "ject": 500,
      "Ġpr": 501,
      "ner": 502,
      "ude": 503,
      "ION": 504,
      "Ġconcis": 505,
      "Ġconcise": 506,
      "PON": 507,
      "SION": 508,
      "RESPON": 509,
      "ENSION": 510,
      "EXTENSION": 511,
      "RESPOND": 512,
      "date": 513,
      "Ġ[": 514,
      "hen": 515,
      "Ġwhen": 516,
      "usy": 517,
      "update": 518,
      "ĠThe": 519,
      "Ġdetails": 520,
      "ste": 521,
      "Ġuse": 522,
      "Ġwork": 523,
      "ft": 524,
      "rst": 525,
      "first": 526,
      "of": 527,
      "Ġask": 528,
      "heck": 529,
      "th": 530,
      "able": 531,
      "lt": 532,
      "ult": 533,
      "lis": 534,
      "rom": 535,
      "sing": 536,
      "issing": 537,
      "Ġproject": 538,
      "Ġshare": 539,
      "Ġhand": 540,
      "gener": 541,
      "Ġthis": 542,
      "ter": 543,
      "acy": 544,
      "privacy": 545,
      "ting": 546,
      "are": 547,
      "Ġpref": 548,
      "Ġchan": 549,
      "Ġrepe": 550,
      "ummary": 551,
      "age": 552,
      "ig": 553,
      "lock": 554,
      "Ġblock": 555,
      "Ġasks": 556,
      "Ġg": 557,
      "Ġtasks": 558,
      "ical": 559,
      "Ġbut": 560,
      "TY": 561,
      "Use": 562,
      "Ġit": 563,
      "ĠUse": 564,
      "Ġsta": 565,
      "user": 566,
      "ave": 567,
      "ĠS": 568,
      "Ġout": 569,
      "ation": 570,
      "list": 571,
      "ish": 572,
      "ms": 573,
      "raft": 574,
      "Ġdraft": 575,
      "use": 576,
      "Ġle": 577,
      "Ġanswer": 578,
      "Ġtr": 579,
      "hecklist": 580,
      "Ġwil": 581,
      "Ġwill": 582,
      "Ġass": 583,
      "imp": 584,
      "impact": 585,
      "all": 586,
      "Ġfrom": 587,
      "Ġone": 588,
      "Ġwhat": 589,
      "Ġca": 590,
      "Ġroutines": 591,
      "Ġshareable": 592,
      "ima": 593,
      "image": 594,
      "fter": 595,
      "Ġafter": 596,
      "li": 597,
      "ee": 598,
      "Ġwee": 599,
      "Ġweek": 600,
      "tor": 601,
      "Ġnotes": 602,
      "Ġcontext": 603,
      "Ġchange": 604,
      "Ġrev": 605,
      "bil": 606,
      "bility": 607,
      "Ġint": 608,
      "Ġinto": 609,
      "qu": 610,
      "Ġho": 611,
      "erson": 612,
      "Ġprior": 613,
      "Ġactions": 614,
      "cl": 615,
      "clude": 616,
      "giv": 617,
      "ummari": 618,
      "MEM": 619,
      "AP": 620,
      "ie": 621,
      "\"]": 622,
      "For": 623,
      "ant": 624,
      "busy": 625,
      "ode": 626,
      "round": 627,
      "you": 628,
      "ĠA": 629,
      "Ġprivacy": 630,
      "Ġyou": 631,
      "request": 632,
      "alled": 633,
      "Ġwant": 634,
      "Ġchat": 635,
      "ould": 636,
      "stalled": 637,
      "Ġconstraint": 638,
      "result": 639,
      "Ġprofile": 640,
      "Ġproposal": 641,
      "Ġinstalled": 642,
      "context": 643,
      "\"},": 644,
      "Ġslots": 645,
      "pability": 646,
      "Ġ[\"": 647,
      "Ġstudy": 648,
      "ken": 649,
      "poken": 650,
      "Ġinste": 651,
      "Ġinstead": 652,
      "Ġof": 653,
      "'s": 654,
      "ssage": 655,
      "Ġmessage": 656,
      "to": 657,
      "Ġperson": 658,
      "Ġdo": 659,
      "hold": 660,
      "usehold": 661,
      "day": 662,
      "Ġtoday": 663,
      "Ġsummary": 664,
      "Ġfirst": 665,
      "llow": 666,
      "ollow": 667,
      "Ġpa": 668,
      "sho": 669,
      "oting": 670,
      "du": 671,
      "rce": 672,
      "ource": 673,
      "Ġhandle": 674,
      "bout": 675,
      "Ġabout": 676,
      "translation": 677,
      "translator": 678,
      "ute": 679,
      "end": 680,
      "hig": 681,
      "rt": 682,
      "Ġhig": 683,
      "Ġare": 684,
      "hest": 685,
      "Ġhighest": 686,
      "Ġte": 687,
      "as": 688,
      "gh": 689,
      "lon": 690,
      "mall": 691,
      "Ġla": 692,
      "Ġide": 693,
      "Ġlon": 694,
      "repa": 695,
      "inish": 696,
      "Ġsmall": 697,
      "ough": 698,
      "Ġremember": 699,
      "Ġredu": 700,
      "Ġproto": 701,
      "Ġexams": 702,
      "types": 703,
      "Ġrough": 704,
      "unch": 705,
      "Ġrepeated": 706,
      "Ġblocks": 707,
      "Ġlaunch": 708,
      "Ġideas": 709,
      "Ġlong": 710,
      "repare": 711,
      "Ġreduce": 712,
      "Ġprototypes": 713,
      "Ġquest": 714,
      "Ġthen": 715,
      "Ġlocally": 716,
      "Ġmissing": 717,
      "Ġcan": 718,
      "Ġquestion": 719,
      "Ġas": 720,
      "Ġco": 721,
      "Ġv": 722,
      "tant": 723,
      "istant": 724,
      "Ġassistant": 725,
      "Ġrespon": 726,
      "Ġexpos": 727,
      "Ġsup": 728,
      "Ġsupp": 729,
      "dw": 730,
      "din": 731,
      "duct": 732,
      "rdw": 733,
      "ordin": 734,
      "Ġprojects": 735,
      "Ġcoordin": 736,
      "rdware": 737,
      "Ġcoordination": 738,
      "study": 739,
      "household": 740,
      "Ġprefer": 741,
      "ses": 742,
      "Ġdrafts": 743,
      "eed": 744,
      "Ġano": 745,
      "Ġneed": 746,
      "ther": 747,
      "Ġanother": 748,
      "Ġneeds": 749,
      "flow": 750,
      "aved": 751,
      "Ġchecklist": 752,
      "Ġe": 753,
      "Ġanswers": 754,
      "Ġspe": 755,
      "ze": 756,
      "ine": 757,
      "Ġhe": 758,
      "Ġinclude": 759,
      "ip": 760,
      "TEXT": 761,
      "CONTEXT": 762,
      "AB": 763,
      "UL": 764,
      "ire": 765,
      "nical": 766,
      "rie": 767,
      "Ġwar": 768,
      "actical": 769,
      "chnical": 770,
      "Ġpractical": 771,
      "irect": 772,
      "rief": 773,
      "Ġwarm": 774,
      "PE": 775,
      "SO": 776,
      "RCE": 777,
      "URCE": 778,
      "RESUL": 779,
      "TYPE": 780,
      "SOURCE": 781,
      "RESULT": 782,
      "BER": 783,
      "CAP": 784,
      "ITY": 785,
      "ILITY": 786,
      "REMEM": 787,
      "ABILITY": 788,
      "CAPABILITY": 789,
      "REMEMBER": 790,
      "Do": 791,
      "Lo": 792,
      "apability": 793,
      "bound": 794,
      "care": 795,
      "capability": 796,
      "dit": 797,
      "finish": 798,
      "ker": 799,
      "ll": 800,
      "lp": 801,
      "lre": 802,
      "missing": 803,
      "prepare": 804,
      "sta": 805,
      "save": 806,
      "vide": 807,
      "vior": 808,
      "wled": 809,
      "}}": 810,
      "ĠW": 811,
      "Ġor": 812,
      "Ġval": 813,
      "Ġid": 814,
      "Ġmemory": 815,
      "Ġupdate": 816,
      "ĠDo": 817,
      "ĠLo": 818,
      "Ġalre": 819,
      "remember": 820,
      "ioned": 821,
      "used": 822,
      "product": 823,
      "nowled": 824,
      "stude": 825,
      "hardware": 826,
      "havior": 827,
      "Ġfound": 828,
      "Ġbusy": 829,
      "maker": 830,
      "rese": 831,
      "condit": 832,
      "Ġreque": 833,
      "cknowled": 834,
      "slots": 835,
      "ĠRemember": 836,
      "Ġmy": 837,
      "Ġbehavior": 838,
      "nswer": 839,
      "ary": 840,
      "ady": 841,
      "updates": 842,
      "sted": 843,
      "Ġprefers": 844,
      "Ġtrue": 845,
      "qui": 846,
      "giver": 847,
      "\"]}}": 848,
      "Ġwants": 849,
      "Ġtell": 850,
      "boundary": 851,
      "caregiver": 852,
      "Ġvalue": 853,
      "ĠLocal": 854,
      "Ġalready": 855,
      "student": 856,
      "Ġfounder": 857,
      "conditioned": 858,
      "Ġrequested": 859,
      "cknowledge": 860,
      "Ġkeep": 861,
      "ci": 862,
      "spoken": 863,
      "inspoken": 864,
      "fic": 865,
      "lainspoken": 866,
      "Ġspeci": 867,
      "Ġspecific": 868,
      "aud": 869,
      "io": 870,
      "ransl": 871,
      "audio": 872,
      "ved": 873,
      "pproved": 874,
      "ummarize": 875,
      "Ġsaved": 876,
      "row": 877,
      "iti": 878,
      "Ġprioriti": 879,
      "only": 880,
      "Ġworkflow": 881,
      "line": 882,
      "adline": 883,
      "Ġcal": 884,
      "Ġpriorities": 885,
      "pp": 886,
      "Ġapp": 887,
      "ild": 888,
      "Ġbuild": 889,
      "Ġroutine": 890,
      "Ġweekly": 891,
      "at": 892,
      "Ġrepeat": 893,
      "ouble": 894,
      "Ġfollow": 895,
      "Ġdeadline": 896,
      "off": 897,
      "Ġhandoff": 898,
      "Ġtrouble": 899,
      "Ġpass": 900,
      "shooting": 901,
      "Ġtroubleshooting": 902,
      "generate": 903,
      "generation": 904,
      "source": 905,
      "ive": 906,
      "noon": 907,
      "Ġafternoon": 908,
      "25": 909,
      "eting": 910,
      "mor": 911,
      "Ġ25": 912,
      "inute": 913,
      "orning": 914,
      "uring": 915,
      "Ġtomor": 916,
      "Ġminute": 917,
      "Ġmorning": 918,
      "Ġmeeting": 919,
      "Ġduring": 920,
      "Ġtomorrow": 921,
      "ht": 922,
      "onig": 923,
      "rent": 924,
      "Ġtonig": 925,
      "Ġcur": 926,
      "aving": 927,
      "Ġleaving": 928,
      "Ġhome": 929,
      "Ġtonight": 930,
      "Ġcurrent": 931,
      "endar": 932,
      "ara": 933,
      "ack": 934,
      "ground": 935,
      "ks": 936,
      "ree": 937,
      "isks": 938,
      "Ġthere": 939,
      "Ġback": 940,
      "Ġrisks": 941,
      "epara": 942,
      "Ġmult": 943,
      "Ġthree": 944,
      "iple": 945,
      "Ġbackground": 946,
      "eparate": 947,
      "Ġmultiple": 948,
      "Ġstart": 949,
      "brief": 950,
      "checklist": 951,
      "direct": 952,
      "technical": 953,
      "calm": 954,
      "summary": 955,
      "plainspoken": 956,
      "Ġke": 957,
      "Ġdone": 958,
      "Ġground": 959,
      "Ġkey": 960,
      "Ġgrounded": 961,
      "ible": 962,
      "ual": 963,
      "isual": 964,
      "Ġvisual": 965,
      "Ġti": 966,
      ".\"},": 967,
      "fa": 968,
      "mat": 969,
      "nish": 970,
      "Ġtransla": 971,
      "langu": 972,
      "panish": 973,
      "ĠTransl": 974,
      "language": 975,
      "Ġcalendar": 976,
      "12": 977,
      "cce": 978,
      "ds": 979,
      "ims": 980,
      "oid": 981,
      "ume": 982,
      "und": 983,
      "Ġ12": 984,
      "Ġund": 985,
      "Ġacce": 986,
      "ted": 987,
      "orted": 988,
      "Ġclo": 989,
      "Ġcla": 990,
      "ked": 991,
      "Ġby": 992,
      "Ġwords": 993,
      "Ġassume": 994,
      "Ġasked": 995,
      "Ġresponses": 996,
      "Ġexpose": 997,
      "Ġsupported": 998,
      "Ġ120": 999,
      "Ġunder": 1000,
      "Ġaccess": 1001,
      "Ġcloud": 1002,
      "Ġclaims": 1003,
      "ersible": 1004,
      "Ġchanges": 1005,
      "Ġreversible": 1006,
      "rma": 1007,
      "yth": 1008,
      "lag": 1009,
      "Ġactionable": 1010,
      "Ġconfirma": 1011,
      "Ġanyth": 1012,
      "Ġconfirmation": 1013,
      "Ġanything": 1014,
      "ve": 1015,
      "poli": 1016,
      "response": 1017,
      "Ġpriority": 1018,
      "policy": 1019,
      "ens": 1020,
      "Ġqu": 1021,
      "Ġsens": 1022,
      "itive": 1023,
      "Ġsensitive": 1024,
      "alth": 1025,
      "Ġsummari": 1026,
      "rade": 1027,
      "Ġshared": 1028,
      "Ġgrade": 1029,
      "Ġhealth": 1030,
      "Ġsummaries": 1031,
      "Ġgrades": 1032,
      "separate": 1033,
      "avoid": 1034,
      "give": 1035,
      "start": 1036,
      "RY": 1037,
      "ID": 1038,
      "EV": 1039,
      "ORY": 1040,
      "MEMORY": 1041,
      "LE": 1042,
      "ATE": 1043,
      "IDENCE": 1044,
      "EVIDENCE": 1045,
      "AS": 1046,
      "DATE": 1047,
      "PDATE": 1048,
      "SA": 1049,
      "UPDATE": 1050,
      "ASK": 1051,
      "VE": 1052,
      "ALLE": 1053,
      "INST": 1054,
      "PROVAL": 1055,
      "APPROVAL": 1056,
      "SAVE": 1057,
      "ALLED": 1058,
      "INSTALLED": 1059,
      "?\",": 1060,
      "Con": 1061,
      "Em": 1062,
      "From": 1063,
      "Follow": 1064,
      "Go": 1065,
      "He": 1066,
      "Here": 1067,
      "Ke": 1068,
      "Next": 1069,
      "Of": 1070,
      "Sh": 1071,
      "],": 1072,
      "]:": 1073,
      "af": 1074,
      "ay": 1075,
      "approval": 1076,
      "answer": 1077,
      "approved": 1078,
      "co": 1079,
      "cs": 1080,
      "cit": 1081,
      "cing": 1082,
      "chan": 1083,
      "code": 1084,
      "cute": 1085,
      "et": 1086,
      "ecute": 1087,
      "fer": 1088,
      "gs": 1089,
      "ging": 1090,
      "gge": 1091,
      "ite": 1092,
      "ics": 1093,
      "kin": 1094,
      "lus": 1095,
      "lled": 1096,
      "mode": 1097,
      "ned": 1098,
      "ncode": 1099,
      "ome": 1100,
      "per": 1101,
      "ppe": 1102,
      "pli": 1103,
      "rite": 1104,
      "spe": 1105,
      "sco": 1106,
      "tus": 1107,
      "ugge": 1108,
      "way": 1109,
      "ype": 1110,
      "},": 1111,
      "Ġra": 1112,
      "Ġmetadata": 1113,
      "Ġup": 1114,
      "Ġlow": 1115,
      "ĠFor": 1116,
      "Ġresult": 1117,
      "Ġrese": 1118,
      "Ġmat": 1119,
      "ĠCon": 1120,
      "ĠEm": 1121,
      "ĠFollow": 1122,
      "ĠHe": 1123,
      "ĠKe": 1124,
      "ĠNext": 1125,
      "ĠOf": 1126,
      "Ġam": 1127,
      "Ġacknowledge": 1128,
      "rete": 1129,
      "requi": 1130,
      "Ġtype": 1131,
      "alway": 1132,
      "Ġsty": 1133,
      "Ġsource": 1134,
      "Ġsend": 1135,
      "Ġsaf": 1136,
      "Ġsome": 1137,
      "Ġsugge": 1138,
      "Ġwould": 1139,
      "ment": 1140,
      "Ġcheck": 1141,
      "Ġcall": 1142,
      "exclude": 1143,
      "execute": 1144,
      "filled": 1145,
      "Ġexpli": 1146,
      "Ġpreference": 1147,
      "Ġprese": 1148,
      "Ġplus": 1149,
      "Ġprete": 1150,
      "Ġfact": 1151,
      "ntion": 1152,
      "ĠPreference": 1153,
      "ssing": 1154,
      "Ġrequi": 1155,
      "Ġprovide": 1156,
      "uessing": 1157,
      "Request": 1158,
      "Ġrun": 1159,
      "ĠRespe": 1160,
      "Ġshould": 1161,
      "Ġmode": 1162,
      "Ġconfigure": 1163,
      "ersion": 1164,
      "Ġmechan": 1165,
      "Ġmention": 1166,
      "Ġconfigurable": 1167,
      "arch": 1168,
      "args": 1169,
      "Ġhas": 1170,
      "Ġhave": 1171,
      "Ġhappe": 1172,
      "ids": 1173,
      "Ġrouting": 1174,
      "ters": 1175,
      "Ġchanging": 1176,
      "Ġguessing": 1177,
      "Ġstable": 1178,
      "Ġstatus": 1179,
      "ĠSave": 1180,
      "ĠSummarize": 1181,
      "ĠSet": 1182,
      "Ġleft": 1183,
      "Ġleave": 1184,
      "Ġcapability": 1185,
      "Ġchanged": 1186,
      "Ġrevie": 1187,
      "Ġhow": 1188,
      "\"],": 1189,
      "ĠAsk": 1190,
      "ĠAnswer": 1191,
      "ĠAcknowledge": 1192,
      "Ġconstraints": 1193,
      "Ġpaper": 1194,
      "Ġversion": 1195,
      "Ġresponse": 1196,
      "Ġexposing": 1197,
      "Ġevide": 1198,
      "Ġencode": 1199,
      "Ġhelp": 1200,
      "ĠWhat": 1201,
      "ĠWrite": 1202,
      "Ġvalues": 1203,
      "Ġtied": 1204,
      "facing": 1205,
      "Got": 1206,
      "Should": 1207,
      "citly": 1208,
      "kind": 1209,
      "scope": 1210,
      "Ġran": 1211,
      "Ġlower": 1212,
      "Ġresearch": 1213,
      "Ġmatters": 1214,
      "ĠConstraint": 1215,
      "ĠEmit": 1216,
      "ĠHelp": 1217,
      "ĠKeep": 1218,
      "ĠOffer": 1219,
      "Ġacknowledgement": 1220,
      "requires": 1221,
      "always": 1222,
      "Ġstyle": 1223,
      "Ġsafe": 1224,
      "Ġsomeone": 1225,
      "Ġsuggest": 1226,
      "excluded": 1227,
      "executed": 1228,
      "Ġexplicitly": 1229,
      "Ġpresent": 1230,
      "Ġpretend": 1231,
      "Ġrequired": 1232,
      "Ġprovided": 1233,
      "Requesting": 1234,
      "ĠRespect": 1235,
      "Ġmodel": 1236,
      "Ġmechanics": 1237,
      "Ġhappened": 1238,
      "Ġreview": 1239,
      "Ġevidence": 1240,
      "ice": 1241,
      "side": 1242,
      "vice": 1243,
      "Ġdevice": 1244,
      "Ġoutside": 1245,
      "lier": 1246,
      "Ġsupplier": 1247,
      "Ġspoken": 1248,
      "ĠSpanish": 1249,
      "show": 1250,
      "state": 1251,
      "pref": 1252,
      "prefer": 1253,
      "dd": 1254,
      "eal": 1255,
      "flag": 1256,
      "hide": 1257,
      "summarize": 1258,
      "Ġgener": 1259,
      "Ġapproved": 1260,
      "Ġadd": 1261,
      "tact": 1262,
      "Ġthem": 1263,
      "Ġcontact": 1264,
      "resses": 1265,
      "Ġexact": 1266,
      "Ġextensions": 1267,
      "Ġexamples": 1268,
      "Ġreveal": 1269,
      "Ġquoting": 1270,
      "Ġgenerated": 1271,
      "Ġaddresses": 1272,
      "ng": 1273,
      "ality": 1274,
      "Ge": 1275,
      "Ġimage": 1276,
      "nerated": 1277,
      "Generated": 1278,
      "project": 1279,
      "Eng": 1280,
      "Transl": 1281,
      "dality": 1282,
      "mo": 1283,
      "rge": 1284,
      "targe": 1285,
      "lish": 1286,
      "Ġtranslation": 1287,
      "Ġtranslator": 1288,
      "ĠTranslate": 1289,
      "ĠTranslated": 1290,
      "English": 1291,
      "Translated": 1292,
      "modality": 1293,
      "target": 1294,
      "Ġpersonal": 1295,
      "Ġseparate": 1296,
      "Ġgive": 1297,
      "Ġbrief": 1298,
      "Ġdirect": 1299,
      "Ġtechnical": 1300,
      "Ġcalm": 1301,
      "Ġturn": 1302,
      "Ġprepare": 1303,
      "Ġfinish": 1304,
      "Ġhousehold": 1305,
      "bpa": 1306,
      "ebpa": 1307,
      "webpa": 1308,
      "rece": 1309,
      "ipt": 1310,
      "webpage": 1311,
      "receipt": 1312,
      "Ġplainspoken": 1313,
      "Ġsho": 1314,
      "Ġstate": 1315,
      "Ġshow": 1316,
      "Ma": 1317,
      "ĠGenerated": 1318,
      "ĠMa": 1319,
      "promp": 1320,
      "ĠMake": 1321,
      "prompt": 1322,
      "Ġtime": 1323,
      "Au": 1324,
      "Spanish": 1325,
      "brow": 1326,
      "pu": 1327,
      "ser": 1328,
      "sur": 1329,
      "ts": 1330,
      "face": 1331,
      "Auto": 1332,
      "browser": 1333,
      "surface": 1334,
      "ru": 1335,
      "rule": 1336,
      "kflow": 1337,
      "wor": 1338,
      "yle": 1339,
      "style": 1340,
      "workflow": 1341,
      "void": 1342,
      "Ġavoid": 1343,
      "Ġproduct": 1344,
      "Ġhardware": 1345,
      "person": 1346,
      "saved": 1347,
      "calendar": 1348,
      "personal": 1349,
      "Ġflag": 1350,
      "fact": 1351,
      "rout": 1352,
      "routine": 1353,
      "ability": 1354,
      "blo": 1355,
      "che": 1356,
      "iled": 1357,
      "mal": 1358,
      "ver": 1359,
      "vis": 1360,
      "Ġlist": 1361,
      "Ġonly": 1362,
      "prior": 1363,
      "Ġsche": 1364,
      "ormal": 1365,
      "leve": 1366,
      "leng": 1367,
      "Ġusing": 1368,
      "cked": 1369,
      "Ġreli": 1370,
      "Ġinpu": 1371,
      "Ġnormal": 1372,
      "Ġdetailed": 1373,
      "arning": 1374,
      "Ġlearning": 1375,
      "dule": 1376,
      "Ġcost": 1377,
      "Ġever": 1378,
      "Ġspeed": 1379,
      "Ġprioritize": 1380,
      "Ġquality": 1381,
      "blocked": 1382,
      "visible": 1383,
      "priority": 1384,
      "Ġschedule": 1385,
      "level": 1386,
      "length": 1387,
      "Ġreliability": 1388,
      "Ġinputs": 1389,
      "Ġevery": 1390,
      "by": 1391,
      "for": 1392,
      "lle": 1393,
      "step": 1394,
      "outpu": 1395,
      "Ġformat": 1396,
      "Ġbulle": 1397,
      "format": 1398,
      "output": 1399,
      "Ġbullets": 1400,
      "hint": 1401,
      "deadline": 1402,
      "RET": 1403,
      "ACT": 1404,
      "RI": 1405,
      "IC": 1406,
      "RETRI": 1407,
      "AN": 1408,
      "OD": 1409,
      "PA": 1410,
      "AR": 1411,
      "FIC": 1412,
      "TE": 1413,
      "EC": 1414,
      "EVAL": 1415,
      "FFIC": 1416,
      "IEN": 1417,
      "OOD": 1418,
      "SE": 1419,
      "SU": 1420,
      "SPA": 1421,
      "ACTION": 1422,
      "RETRIEVAL": 1423,
      "FFICIEN": 1424,
      "SUFFICIEN": 1425,
      "SPACE": 1426,
      "SUFFICIENT": 1427,
      "EE": 1428,
      "FACT": 1429,
      "PAP": 1430,
      "QUE": 1431,
      "TI": 1432,
      "CONF": 1433,
      "CHEC": 1434,
      "EVE": 1435,
      "RETRIEVE": 1436,
      "PAPER": 1437,
      "QUERY": 1438,
      "CHECK": 1439,
      "AD": 1440,
      "CT": 1441,
      "COD": 1442,
      "EAR": 1443,
      "FUL": 1444,
      "IR": 1445,
      "MAN": 1446,
      "NEE": 1447,
      "OP": 1448,
      "TIC": 1449,
      "VER": 1450,
      "WRI": 1451,
      "INSUFFICIENT": 1452,
      "USE": 1453,
      "STRACT": 1454,
      "ABSTRACT": 1455,
      "PAIR": 1456,
      "ARTI": 1457,
      "SEMAN": 1458,
      "CODE": 1459,
      "FULL": 1460,
      "NEED": 1461,
      "VERI": 1462,
      "WRITE": 1463,
      "ARTIFACT": 1464,
      "SEMANTIC": 1465
    },
    "merges": [
      [
        "A",
        "K"
      ],
      [
        "Ġ",
        "<"
      ],
      [
        "o",
        "n"
      ],
      [
        "L",
        "O"
      ],
      [
        "S",
        "LO"
      ],
      [
        "SLO",
        "T"
      ],
      [
        "Ġ",
        "a"
      ],
      [
        "r",
        "e"
      ],
      [
        "t",
        "e"
      ],
      [
        ">",
        "="
      ],
      [
        "Ġ",
        "\""
      ],
      [
        "Ġ",
        "t"
      ],
      [
        "i",
        "n"
      ],
      [
        "a",
        "l"
      ],
      [
        "i",
        "on"
      ],
      [
        "e",
        "r"
      ],
      [
        "p",
        "r"
      ],
      [
        "Ġ",
        "s"
      ],
      [
        "h",
        "e"
      ],
      [
        "\"",
        ":"
      ],
      [
        "o",
        "r"
      ],
      [
        "A",
        "L"
      ],
      [
        "l",
        "e"
      ],
      [
        "M",
        "E"
      ],
      [
        "t",
        "a"
      ],
      [
        "V",
        "AL"
      ],
      [
        "Ġ",
        "w"
      ],
      [
        "c",
        "t"
      ],
      [
        "U",
        "E"
      ],
      [
        "A",
        "ME"
      ],
      [
        "N",
        "AME"
      ],
      [
        "VAL",
        "UE"
      ],
      [
        "m",
        "e"
      ],
      [
        "u",
        "s"
      ],
      [
        "Ġ",
        "c"
      ],
      [
        "i",
        "s"
      ],
      [
        "e",
        "x"
      ],
      [
        "l",
        "o"
      ],
      [
        "Ġt",
        "he"
      ],
      [
        "pr",
        "o"
      ],
      [
        "n",
        "d"
      ],
      [
        "\"",
        ","
      ],
      [
        "o",
        "u"
      ],
      [
        "r",
        "a"
      ],
      [
        "n",
        "o"
      ],
      [
        "d",
        "e"
      ],
      [
        "i",
        "t"
      ],
      [
        "s",
        "t"
      ],
      [
        "n",
        "s"
      ],
      [
        "h",
        "a"
      ],
      [
        "P",
        "R"
      ],
      [
        "f",
        "i"
      ],
      [
        "a",
        "te"
      ],
      [
        "k",
        "e"
      ],
      [
        "Ġ",
        "us"
      ],
      [
        "O",
        "N"
      ],
      [
        "in",
        "g"
      ],
      [
        "i",
        "v"
      ],
      [
        "Ġ",
        "ex"
      ],
      [
        "l",
        "a"
      ],
      [
        "Ġ",
        "p"
      ],
      [
        "Ġ",
        "f"
      ],
      [
        "Ġa",
        "nd"
      ],
      [
        "Ġus",
        "er"
      ],
      [
        "Ġ",
        "b"
      ],
      [
        "m",
        "a"
      ],
      [
        "Ġc",
        "on"
      ],
      [
        "re",
        "s"
      ],
      [
        "s",
        "k"
      ],
      [
        "pr",
        "iv"
      ],
      [
        "Ġ",
        "de"
      ],
      [
        "c",
        "on"
      ],
      [
        "p",
        "e"
      ],
      [
        "c",
        "al"
      ],
      [
        "ct",
        "ion"
      ],
      [
        "Ġw",
        "it"
      ],
      [
        "Ġwit",
        "h"
      ],
      [
        "c",
        "e"
      ],
      [
        "Ġ",
        "no"
      ],
      [
        "{",
        "\""
      ],
      [
        "n",
        "t"
      ],
      [
        "ou",
        "t"
      ],
      [
        "g",
        "e"
      ],
      [
        "E",
        "R"
      ],
      [
        "lo",
        "t"
      ],
      [
        "priv",
        "ate"
      ],
      [
        "I",
        "N"
      ],
      [
        "d",
        "o"
      ],
      [
        "te",
        "ns"
      ],
      [
        "tens",
        "ion"
      ],
      [
        "p",
        "o"
      ],
      [
        "A",
        "IN"
      ],
      [
        "Ġ",
        "P"
      ],
      [
        "i",
        "l"
      ],
      [
        "Ġf",
        "or"
      ],
      [
        "t",
        "ion"
      ],
      [
        "p",
        "on"
      ],
      [
        "res",
        "pon"
      ],
      [
        "re",
        "f"
      ],
      [
        "in",
        "t"
      ],
      [
        "c",
        "is"
      ],
      [
        "c",
        "ke"
      ],
      [
        "I",
        "L"
      ],
      [
        "P",
        "al"
      ],
      [
        "o",
        "cke"
      ],
      [
        "t",
        "Pal"
      ],
      [
        "ĠP",
        "ocke"
      ],
      [
        "ĠPocke",
        "tPal"
      ],
      [
        "on",
        "e"
      ],
      [
        "s",
        "s"
      ],
      [
        "Ġ",
        "re"
      ],
      [
        "PR",
        "O"
      ],
      [
        "d",
        "a"
      ],
      [
        "Ġ",
        "pro"
      ],
      [
        "e",
        "d"
      ],
      [
        "E",
        "N"
      ],
      [
        "F",
        "IL"
      ],
      [
        "PRO",
        "FIL"
      ],
      [
        "PROFIL",
        "E"
      ],
      [
        "u",
        "r"
      ],
      [
        "lo",
        "cal"
      ],
      [
        "u",
        "e"
      ],
      [
        "po",
        "s"
      ],
      [
        "Ġa",
        "ction"
      ],
      [
        "Ġno",
        "t"
      ],
      [
        "ra",
        "int"
      ],
      [
        "st",
        "raint"
      ],
      [
        "respon",
        "d"
      ],
      [
        "m",
        "p"
      ],
      [
        "ha",
        "t"
      ],
      [
        "Ġt",
        "o"
      ],
      [
        "Ġ",
        "local"
      ],
      [
        "t",
        "y"
      ],
      [
        "me",
        "m"
      ],
      [
        "fi",
        "le"
      ],
      [
        "Ġex",
        "a"
      ],
      [
        "c",
        "k"
      ],
      [
        "la",
        "n"
      ],
      [
        "e",
        "re"
      ],
      [
        "n",
        "ce"
      ],
      [
        "no",
        "te"
      ],
      [
        "R",
        "e"
      ],
      [
        "Ġ",
        "{\""
      ],
      [
        "ta",
        "da"
      ],
      [
        "me",
        "tada"
      ],
      [
        "metada",
        "ta"
      ],
      [
        "ty",
        "pe"
      ],
      [
        "Ġ",
        "in"
      ],
      [
        "g",
        "u"
      ],
      [
        "h",
        "o"
      ],
      [
        "Ġcon",
        "fi"
      ],
      [
        "Ġ",
        "r"
      ],
      [
        "Ġde",
        "cis"
      ],
      [
        "Ġdecis",
        "ion"
      ],
      [
        "ref",
        "ere"
      ],
      [
        "refere",
        "nce"
      ],
      [
        "C",
        "E"
      ],
      [
        "C",
        "ON"
      ],
      [
        "s",
        "lot"
      ],
      [
        "Ġ",
        "Re"
      ],
      [
        "con",
        "te"
      ],
      [
        "pos",
        "al"
      ],
      [
        "Ġs",
        "t"
      ],
      [
        "Ġp",
        "lan"
      ],
      [
        "Ġ",
        "n"
      ],
      [
        "e",
        "p"
      ],
      [
        "ur",
        "n"
      ],
      [
        "Ġs",
        "h"
      ],
      [
        "Ġex",
        "tension"
      ],
      [
        "u",
        "ct"
      ],
      [
        "Ġ",
        "m"
      ],
      [
        "re",
        "d"
      ],
      [
        "S",
        "T"
      ],
      [
        "t",
        "one"
      ],
      [
        "t",
        "urn"
      ],
      [
        "Ġconfi",
        "gu"
      ],
      [
        "u",
        "p"
      ],
      [
        "b",
        "le"
      ],
      [
        "Ġb",
        "e"
      ],
      [
        "a",
        "sk"
      ],
      [
        "x",
        "t"
      ],
      [
        "er",
        "s"
      ],
      [
        "Ġ",
        "me"
      ],
      [
        "or",
        "t"
      ],
      [
        "Ġsh",
        "ort"
      ],
      [
        "ex",
        "t"
      ],
      [
        "p",
        "reference"
      ],
      [
        "R",
        "E"
      ],
      [
        "A",
        "C"
      ],
      [
        "A",
        "T"
      ],
      [
        "EN",
        "CE"
      ],
      [
        "U",
        "S"
      ],
      [
        "ST",
        "R"
      ],
      [
        "I",
        "V"
      ],
      [
        "US",
        "ER"
      ],
      [
        "PR",
        "IV"
      ],
      [
        "AIN",
        "T"
      ],
      [
        "CON",
        "STR"
      ],
      [
        "AC",
        "Y"
      ],
      [
        "PRIV",
        "ACY"
      ],
      [
        "CONSTR",
        "AINT"
      ],
      [
        "\"",
        "}"
      ],
      [
        "g",
        "o"
      ],
      [
        "pro",
        "file"
      ],
      [
        "ma",
        "in"
      ],
      [
        "con",
        "straint"
      ],
      [
        "do",
        "main"
      ],
      [
        "Ġconfigu",
        "ra"
      ],
      [
        "go",
        "al"
      ],
      [
        "Ġ",
        "I"
      ],
      [
        "mp",
        "le"
      ],
      [
        "Ġexa",
        "mple"
      ],
      [
        "a",
        "v"
      ],
      [
        "u",
        "n"
      ],
      [
        "n",
        "ing"
      ],
      [
        "ra",
        "ns"
      ],
      [
        "u",
        "d"
      ],
      [
        "q",
        "ue"
      ],
      [
        "e",
        "s"
      ],
      [
        "v",
        "al"
      ],
      [
        "p",
        "pro"
      ],
      [
        "Ġn",
        "ext"
      ],
      [
        "Ġde",
        "ta"
      ],
      [
        "ke",
        "ep"
      ],
      [
        "C",
        "H"
      ],
      [
        "G",
        "O"
      ],
      [
        "D",
        "O"
      ],
      [
        "E",
        "F"
      ],
      [
        "M",
        "AIN"
      ],
      [
        "T",
        "ON"
      ],
      [
        "PR",
        "EF"
      ],
      [
        "ER",
        "ENCE"
      ],
      [
        "CH",
        "AT"
      ],
      [
        "GO",
        "AL"
      ],
      [
        "DO",
        "MAIN"
      ],
      [
        "TON",
        "E"
      ],
      [
        "PREF",
        "ERENCE"
      ],
      [
        "a",
        "me"
      ],
      [
        "a",
        "ction"
      ],
      [
        "n",
        "ame"
      ],
      [
        "r",
        "uct"
      ],
      [
        "u",
        "red"
      ],
      [
        "Ġs",
        "lot"
      ],
      [
        "ta",
        "sk"
      ],
      [
        "pro",
        "posal"
      ],
      [
        "ĠRe",
        "turn"
      ],
      [
        "conte",
        "nt"
      ],
      [
        "Ġst",
        "ruct"
      ],
      [
        "Ġconfigura",
        "tion"
      ],
      [
        "Ġstruct",
        "ured"
      ],
      [
        "Ġdeta",
        "il"
      ],
      [
        "ns",
        "w"
      ],
      [
        "a",
        "r"
      ],
      [
        "Ġ",
        "ha"
      ],
      [
        "ex",
        "tension"
      ],
      [
        "Ġ",
        "d"
      ],
      [
        "p",
        "a"
      ],
      [
        "m",
        "ma"
      ],
      [
        "u",
        "mma"
      ],
      [
        "umma",
        "r"
      ],
      [
        "Ġ",
        "private"
      ],
      [
        "l",
        "y"
      ],
      [
        "E",
        "X"
      ],
      [
        "EX",
        "T"
      ],
      [
        "RE",
        "S"
      ],
      [
        ".",
        "\","
      ],
      [
        "ou",
        "nd"
      ],
      [
        "Ġplan",
        "ning"
      ],
      [
        "Ġno",
        "te"
      ],
      [
        "Ġa",
        "n"
      ],
      [
        "a",
        "d"
      ],
      [
        "a",
        "ct"
      ],
      [
        "rans",
        "la"
      ],
      [
        "te",
        "xt"
      ],
      [
        "b",
        "er"
      ],
      [
        "mem",
        "ber"
      ],
      [
        "Ġ",
        "is"
      ],
      [
        "que",
        "st"
      ],
      [
        "i",
        "de"
      ],
      [
        "ppro",
        "val"
      ],
      [
        "r",
        "o"
      ],
      [
        "Ġ",
        "T"
      ],
      [
        "i",
        "d"
      ],
      [
        "Ġwith",
        "out"
      ],
      [
        "Ġr",
        "out"
      ],
      [
        "s",
        "e"
      ],
      [
        "le",
        "d"
      ],
      [
        "Ġw",
        "or"
      ],
      [
        "or",
        "y"
      ],
      [
        "mem",
        "ory"
      ],
      [
        "\"}",
        "}"
      ],
      [
        "lo",
        "w"
      ],
      [
        "Ġb",
        "u"
      ],
      [
        "Ġa",
        "nsw"
      ],
      [
        "Ġt",
        "h"
      ],
      [
        "f",
        "o"
      ],
      [
        "Ġbe",
        "fo"
      ],
      [
        "Ġbefo",
        "re"
      ],
      [
        "l",
        "d"
      ],
      [
        "Ġt",
        "ask"
      ],
      [
        "c",
        "h"
      ],
      [
        "c",
        "y"
      ],
      [
        "ate",
        "d"
      ],
      [
        "Ġs",
        "ha"
      ],
      [
        "Ġa",
        "pproval"
      ],
      [
        "it",
        "y"
      ],
      [
        "te",
        "p"
      ],
      [
        "t",
        "ransla"
      ],
      [
        "Ġ",
        "un"
      ],
      [
        "le",
        "ss"
      ],
      [
        "Ġun",
        "less"
      ],
      [
        "ud",
        "y"
      ],
      [
        "ha",
        "n"
      ],
      [
        "i",
        "or"
      ],
      [
        "Ġt",
        "hat"
      ],
      [
        "Ġrout",
        "in"
      ],
      [
        "Ġs",
        "tep"
      ],
      [
        "e",
        "ct"
      ],
      [
        "j",
        "ect"
      ],
      [
        "Ġ",
        "pr"
      ],
      [
        "n",
        "er"
      ],
      [
        "u",
        "de"
      ],
      [
        "I",
        "ON"
      ],
      [
        "Ġcon",
        "cis"
      ],
      [
        "Ġconcis",
        "e"
      ],
      [
        "P",
        "ON"
      ],
      [
        "S",
        "ION"
      ],
      [
        "RES",
        "PON"
      ],
      [
        "EN",
        "SION"
      ],
      [
        "EXT",
        "ENSION"
      ],
      [
        "RESPON",
        "D"
      ],
      [
        "d",
        "ate"
      ],
      [
        "Ġ",
        "["
      ],
      [
        "he",
        "n"
      ],
      [
        "Ġw",
        "hen"
      ],
      [
        "us",
        "y"
      ],
      [
        "up",
        "date"
      ],
      [
        "ĠT",
        "he"
      ],
      [
        "Ġdetail",
        "s"
      ],
      [
        "s",
        "te"
      ],
      [
        "Ġus",
        "e"
      ],
      [
        "Ġwor",
        "k"
      ],
      [
        "f",
        "t"
      ],
      [
        "r",
        "st"
      ],
      [
        "fi",
        "rst"
      ],
      [
        "o",
        "f"
      ],
      [
        "Ġa",
        "sk"
      ],
      [
        "he",
        "ck"
      ],
      [
        "t",
        "h"
      ],
      [
        "a",
        "ble"
      ],
      [
        "l",
        "t"
      ],
      [
        "u",
        "lt"
      ],
      [
        "l",
        "is"
      ],
      [
        "ro",
        "m"
      ],
      [
        "s",
        "ing"
      ],
      [
        "is",
        "sing"
      ],
      [
        "Ġpro",
        "ject"
      ],
      [
        "Ġsha",
        "re"
      ],
      [
        "Ġha",
        "nd"
      ],
      [
        "ge",
        "ner"
      ],
      [
        "Ġth",
        "is"
      ],
      [
        "te",
        "r"
      ],
      [
        "a",
        "cy"
      ],
      [
        "priv",
        "acy"
      ],
      [
        "t",
        "ing"
      ],
      [
        "a",
        "re"
      ],
      [
        "Ġp",
        "ref"
      ],
      [
        "Ġc",
        "han"
      ],
      [
        "Ġre",
        "pe"
      ],
      [
        "ummar",
        "y"
      ],
      [
        "a",
        "ge"
      ],
      [
        "i",
        "g"
      ],
      [
        "lo",
        "ck"
      ],
      [
        "Ġb",
        "lock"
      ],
      [
        "Ġask",
        "s"
      ],
      [
        "Ġ",
        "g"
      ],
      [
        "Ġtask",
        "s"
      ],
      [
        "i",
        "cal"
      ],
      [
        "Ġbu",
        "t"
      ],
      [
        "T",
        "Y"
      ],
      [
        "U",
        "se"
      ],
      [
        "Ġ",
        "it"
      ],
      [
        "Ġ",
        "Use"
      ],
      [
        "Ġs",
        "ta"
      ],
      [
        "us",
        "er"
      ],
      [
        "av",
        "e"
      ],
      [
        "Ġ",
        "S"
      ],
      [
        "Ġ",
        "out"
      ],
      [
        "a",
        "tion"
      ],
      [
        "lis",
        "t"
      ],
      [
        "is",
        "h"
      ],
      [
        "m",
        "s"
      ],
      [
        "ra",
        "ft"
      ],
      [
        "Ġd",
        "raft"
      ],
      [
        "us",
        "e"
      ],
      [
        "Ġ",
        "le"
      ],
      [
        "Ġansw",
        "er"
      ],
      [
        "Ġt",
        "r"
      ],
      [
        "heck",
        "list"
      ],
      [
        "Ġw",
        "il"
      ],
      [
        "Ġwil",
        "l"
      ],
      [
        "Ġa",
        "ss"
      ],
      [
        "i",
        "mp"
      ],
      [
        "imp",
        "act"
      ],
      [
        "al",
        "l"
      ],
      [
        "Ġf",
        "rom"
      ],
      [
        "Ġ",
        "one"
      ],
      [
        "Ġw",
        "hat"
      ],
      [
        "Ġc",
        "a"
      ],
      [
        "Ġroutin",
        "es"
      ],
      [
        "Ġshare",
        "able"
      ],
      [
        "i",
        "ma"
      ],
      [
        "ima",
        "ge"
      ],
      [
        "f",
        "ter"
      ],
      [
        "Ġa",
        "fter"
      ],
      [
        "l",
        "i"
      ],
      [
        "e",
        "e"
      ],
      [
        "Ġw",
        "ee"
      ],
      [
        "Ġwee",
        "k"
      ],
      [
        "t",
        "or"
      ],
      [
        "Ġnote",
        "s"
      ],
      [
        "Ġcon",
        "text"
      ],
      [
        "Ġchan",
        "ge"
      ],
      [
        "Ġre",
        "v"
      ],
      [
        "b",
        "il"
      ],
      [
        "bil",
        "ity"
      ],
      [
        "Ġ",
        "int"
      ],
      [
        "Ġint",
        "o"
      ],
      [
        "q",
        "u"
      ],
      [
        "Ġ",
        "ho"
      ],
      [
        "ers",
        "on"
      ],
      [
        "Ġpr",
        "ior"
      ],
      [
        "Ġaction",
        "s"
      ],
      [
        "c",
        "l"
      ],
      [
        "cl",
        "ude"
      ],
      [
        "g",
        "iv"
      ],
      [
        "ummar",
        "i"
      ],
      [
        "ME",
        "M"
      ],
      [
        "A",
        "P"
      ],
      [
        "i",
        "e"
      ],
      [
        "\"",
        "]"
      ],
      [
        "F",
        "or"
      ],
      [
        "a",
        "nt"
      ],
      [
        "b",
        "usy"
      ],
      [
        "o",
        "de"
      ],
      [
        "r",
        "ound"
      ],
      [
        "y",
        "ou"
      ],
      [
        "Ġ",
        "A"
      ],
      [
        "Ġ",
        "privacy"
      ],
      [
        "Ġ",
        "you"
      ],
      [
        "re",
        "quest"
      ],
      [
        "al",
        "led"
      ],
      [
        "Ġw",
        "ant"
      ],
      [
        "Ġc",
        "hat"
      ],
      [
        "ou",
        "ld"
      ],
      [
        "st",
        "alled"
      ],
      [
        "Ġcon",
        "straint"
      ],
      [
        "res",
        "ult"
      ],
      [
        "Ġpro",
        "file"
      ],
      [
        "Ġpro",
        "posal"
      ],
      [
        "Ġin",
        "stalled"
      ],
      [
        "conte",
        "xt"
      ],
      [
        "\"}",
        ","
      ],
      [
        "Ġslot",
        "s"
      ],
      [
        "pa",
        "bility"
      ],
      [
        "Ġ[",
        "\""
      ],
      [
        "Ġst",
        "udy"
      ],
      [
        "ke",
        "n"
      ],
      [
        "po",
        "ken"
      ],
      [
        "Ġin",
        "ste"
      ],
      [
        "Ġinste",
        "ad"
      ],
      [
        "Ġ",
        "of"
      ],
      [
        "'",
        "s"
      ],
      [
        "ss",
        "age"
      ],
      [
        "Ġme",
        "ssage"
      ],
      [
        "t",
        "o"
      ],
      [
        "Ġp",
        "erson"
      ],
      [
        "Ġ",
        "do"
      ],
      [
        "ho",
        "ld"
      ],
      [
        "use",
        "hold"
      ],
      [
        "da",
        "y"
      ],
      [
        "Ġto",
        "day"
      ],
      [
        "Ġs",
        "ummary"
      ],
      [
        "Ġ",
        "first"
      ],
      [
        "l",
        "low"
      ],
      [
        "o",
        "llow"
      ],
      [
        "Ġp",
        "a"
      ],
      [
        "s",
        "ho"
      ],
      [
        "o",
        "ting"
      ],
      [
        "d",
        "u"
      ],
      [
        "r",
        "ce"
      ],
      [
        "ou",
        "rce"
      ],
      [
        "Ġhand",
        "le"
      ],
      [
        "b",
        "out"
      ],
      [
        "Ġa",
        "bout"
      ],
      [
        "transla",
        "tion"
      ],
      [
        "transla",
        "tor"
      ],
      [
        "u",
        "te"
      ],
      [
        "e",
        "nd"
      ],
      [
        "h",
        "ig"
      ],
      [
        "r",
        "t"
      ],
      [
        "Ġ",
        "hig"
      ],
      [
        "Ġa",
        "re"
      ],
      [
        "he",
        "st"
      ],
      [
        "Ġhig",
        "hest"
      ],
      [
        "Ġ",
        "te"
      ],
      [
        "a",
        "s"
      ],
      [
        "g",
        "h"
      ],
      [
        "l",
        "on"
      ],
      [
        "m",
        "all"
      ],
      [
        "Ġ",
        "la"
      ],
      [
        "Ġ",
        "ide"
      ],
      [
        "Ġ",
        "lon"
      ],
      [
        "re",
        "pa"
      ],
      [
        "in",
        "ish"
      ],
      [
        "Ġs",
        "mall"
      ],
      [
        "ou",
        "gh"
      ],
      [
        "Ġre",
        "member"
      ],
      [
        "Ġre",
        "du"
      ],
      [
        "Ġpro",
        "to"
      ],
      [
        "Ġexa",
        "ms"
      ],
      [
        "type",
        "s"
      ],
      [
        "Ġr",
        "ough"
      ],
      [
        "un",
        "ch"
      ],
      [
        "Ġrepe",
        "ated"
      ],
      [
        "Ġblock",
        "s"
      ],
      [
        "Ġla",
        "unch"
      ],
      [
        "Ġide",
        "as"
      ],
      [
        "Ġlon",
        "g"
      ],
      [
        "repa",
        "re"
      ],
      [
        "Ġredu",
        "ce"
      ],
      [
        "Ġproto",
        "types"
      ],
      [
        "Ġ",
        "quest"
      ],
      [
        "Ġthe",
        "n"
      ],
      [
        "Ġlocal",
        "ly"
      ],
      [
        "Ġm",
        "issing"
      ],
      [
        "Ġca",
        "n"
      ],
      [
        "Ġquest",
        "ion"
      ],
      [
        "Ġa",
        "s"
      ],
      [
        "Ġc",
        "o"
      ],
      [
        "Ġ",
        "v"
      ],
      [
        "ta",
        "nt"
      ],
      [
        "is",
        "tant"
      ],
      [
        "Ġass",
        "istant"
      ],
      [
        "Ġ",
        "respon"
      ],
      [
        "Ġex",
        "pos"
      ],
      [
        "Ġs",
        "up"
      ],
      [
        "Ġsup",
        "p"
      ],
      [
        "d",
        "w"
      ],
      [
        "d",
        "in"
      ],
      [
        "d",
        "uct"
      ],
      [
        "r",
        "dw"
      ],
      [
        "or",
        "din"
      ],
      [
        "Ġproject",
        "s"
      ],
      [
        "Ġco",
        "ordin"
      ],
      [
        "rdw",
        "are"
      ],
      [
        "Ġcoordin",
        "ation"
      ],
      [
        "st",
        "udy"
      ],
      [
        "ho",
        "usehold"
      ],
      [
        "Ġpref",
        "er"
      ],
      [
        "s",
        "es"
      ],
      [
        "Ġdraft",
        "s"
      ],
      [
        "e",
        "ed"
      ],
      [
        "Ġa",
        "no"
      ],
      [
        "Ġn",
        "eed"
      ],
      [
        "th",
        "er"
      ],
      [
        "Ġano",
        "ther"
      ],
      [
        "Ġneed",
        "s"
      ],
      [
        "f",
        "low"
      ],
      [
        "av",
        "ed"
      ],
      [
        "Ġc",
        "hecklist"
      ],
      [
        "Ġ",
        "e"
      ],
      [
        "Ġansw",
        "ers"
      ],
      [
        "Ġs",
        "pe"
      ],
      [
        "z",
        "e"
      ],
      [
        "in",
        "e"
      ],
      [
        "Ġ",
        "he"
      ],
      [
        "Ġin",
        "clude"
      ],
      [
        "i",
        "p"
      ],
      [
        "T",
        "EXT"
      ],
      [
        "CON",
        "TEXT"
      ],
      [
        "A",
        "B"
      ],
      [
        "U",
        "L"
      ],
      [
        "i",
        "re"
      ],
      [
        "n",
        "ical"
      ],
      [
        "r",
        "ie"
      ],
      [
        "Ġw",
        "ar"
      ],
      [
        "act",
        "ical"
      ],
      [
        "ch",
        "nical"
      ],
      [
        "Ġpr",
        "actical"
      ],
      [
        "ire",
        "ct"
      ],
      [
        "rie",
        "f"
      ],
      [
        "Ġwar",
        "m"
      ],
      [
        "P",
        "E"
      ],
      [
        "S",
        "O"
      ],
      [
        "R",
        "CE"
      ],
      [
        "U",
        "RCE"
      ],
      [
        "RES",
        "UL"
      ],
      [
        "TY",
        "PE"
      ],
      [
        "SO",
        "URCE"
      ],
      [
        "RESUL",
        "T"
      ],
      [
        "B",
        "ER"
      ],
      [
        "C",
        "AP"
      ],
      [
        "I",
        "TY"
      ],
      [
        "IL",
        "ITY"
      ],
      [
        "RE",
        "MEM"
      ],
      [
        "AB",
        "ILITY"
      ],
      [
        "CAP",
        "ABILITY"
      ],
      [
        "REMEM",
        "BER"
      ],
      [
        "D",
        "o"
      ],
      [
        "L",
        "o"
      ],
      [
        "a",
        "pability"
      ],
      [
        "b",
        "ound"
      ],
      [
        "c",
        "are"
      ],
      [
        "c",
        "apability"
      ],
      [
        "d",
        "it"
      ],
      [
        "f",
        "inish"
      ],
      [
        "k",
        "er"
      ],
      [
        "l",
        "l"
      ],
      [
        "l",
        "p"
      ],
      [
        "l",
        "re"
      ],
      [
        "m",
        "issing"
      ],
      [
        "p",
        "repare"
      ],
      [
        "s",
        "ta"
      ],
      [
        "s",
        "ave"
      ],
      [
        "v",
        "ide"
      ],
      [
        "v",
        "ior"
      ],
      [
        "w",
        "led"
      ],
      [
        "}",
        "}"
      ],
      [
        "Ġ",
        "W"
      ],
      [
        "Ġ",
        "or"
      ],
      [
        "Ġ",
        "val"
      ],
      [
        "Ġ",
        "id"
      ],
      [
        "Ġ",
        "memory"
      ],
      [
        "Ġ",
        "update"
      ],
      [
        "Ġ",
        "Do"
      ],
      [
        "Ġ",
        "Lo"
      ],
      [
        "Ġa",
        "lre"
      ],
      [
        "re",
        "member"
      ],
      [
        "ion",
        "ed"
      ],
      [
        "us",
        "ed"
      ],
      [
        "pro",
        "duct"
      ],
      [
        "no",
        "wled"
      ],
      [
        "st",
        "ude"
      ],
      [
        "ha",
        "rdware"
      ],
      [
        "ha",
        "vior"
      ],
      [
        "Ġf",
        "ound"
      ],
      [
        "Ġb",
        "usy"
      ],
      [
        "ma",
        "ker"
      ],
      [
        "res",
        "e"
      ],
      [
        "con",
        "dit"
      ],
      [
        "Ġre",
        "que"
      ],
      [
        "ck",
        "nowled"
      ],
      [
        "slot",
        "s"
      ],
      [
        "ĠRe",
        "member"
      ],
      [
        "Ġm",
        "y"
      ],
      [
        "Ġbe",
        "havior"
      ],
      [
        "nsw",
        "er"
      ],
      [
        "ar",
        "y"
      ],
      [
        "ad",
        "y"
      ],
      [
        "update",
        "s"
      ],
      [
        "ste",
        "d"
      ],
      [
        "Ġpref",
        "ers"
      ],
      [
        "Ġtr",
        "ue"
      ],
      [
        "qu",
        "i"
      ],
      [
        "giv",
        "er"
      ],
      [
        "\"]",
        "}}"
      ],
      [
        "Ġwant",
        "s"
      ],
      [
        "Ġte",
        "ll"
      ],
      [
        "bound",
        "ary"
      ],
      [
        "care",
        "giver"
      ],
      [
        "Ġval",
        "ue"
      ],
      [
        "ĠLo",
        "cal"
      ],
      [
        "Ġalre",
        "ady"
      ],
      [
        "stude",
        "nt"
      ],
      [
        "Ġfound",
        "er"
      ],
      [
        "condit",
        "ioned"
      ],
      [
        "Ġreque",
        "sted"
      ],
      [
        "cknowled",
        "ge"
      ],
      [
        "Ġ",
        "keep"
      ],
      [
        "c",
        "i"
      ],
      [
        "s",
        "poken"
      ],
      [
        "in",
        "spoken"
      ],
      [
        "fi",
        "c"
      ],
      [
        "la",
        "inspoken"
      ],
      [
        "Ġspe",
        "ci"
      ],
      [
        "Ġspeci",
        "fic"
      ],
      [
        "a",
        "ud"
      ],
      [
        "i",
        "o"
      ],
      [
        "rans",
        "l"
      ],
      [
        "aud",
        "io"
      ],
      [
        "v",
        "ed"
      ],
      [
        "ppro",
        "ved"
      ],
      [
        "ummari",
        "ze"
      ],
      [
        "Ġs",
        "aved"
      ],
      [
        "ro",
        "w"
      ],
      [
        "it",
        "i"
      ],
      [
        "Ġprior",
        "iti"
      ],
      [
        "on",
        "ly"
      ],
      [
        "Ġwork",
        "flow"
      ],
      [
        "l",
        "ine"
      ],
      [
        "ad",
        "line"
      ],
      [
        "Ġc",
        "al"
      ],
      [
        "Ġprioriti",
        "es"
      ],
      [
        "p",
        "p"
      ],
      [
        "Ġa",
        "pp"
      ],
      [
        "il",
        "d"
      ],
      [
        "Ġbu",
        "ild"
      ],
      [
        "Ġroutin",
        "e"
      ],
      [
        "Ġweek",
        "ly"
      ],
      [
        "a",
        "t"
      ],
      [
        "Ġrepe",
        "at"
      ],
      [
        "ou",
        "ble"
      ],
      [
        "Ġf",
        "ollow"
      ],
      [
        "Ġde",
        "adline"
      ],
      [
        "of",
        "f"
      ],
      [
        "Ġhand",
        "off"
      ],
      [
        "Ġtr",
        "ouble"
      ],
      [
        "Ġpa",
        "ss"
      ],
      [
        "sho",
        "oting"
      ],
      [
        "Ġtrouble",
        "shooting"
      ],
      [
        "gener",
        "ate"
      ],
      [
        "gener",
        "ation"
      ],
      [
        "s",
        "ource"
      ],
      [
        "iv",
        "e"
      ],
      [
        "no",
        "on"
      ],
      [
        "Ġafter",
        "noon"
      ],
      [
        "2",
        "5"
      ],
      [
        "e",
        "ting"
      ],
      [
        "m",
        "or"
      ],
      [
        "Ġ",
        "25"
      ],
      [
        "in",
        "ute"
      ],
      [
        "or",
        "ning"
      ],
      [
        "ur",
        "ing"
      ],
      [
        "Ġto",
        "mor"
      ],
      [
        "Ġm",
        "inute"
      ],
      [
        "Ġm",
        "orning"
      ],
      [
        "Ġme",
        "eting"
      ],
      [
        "Ġd",
        "uring"
      ],
      [
        "Ġtomor",
        "row"
      ],
      [
        "h",
        "t"
      ],
      [
        "on",
        "ig"
      ],
      [
        "re",
        "nt"
      ],
      [
        "Ġt",
        "onig"
      ],
      [
        "Ġc",
        "ur"
      ],
      [
        "av",
        "ing"
      ],
      [
        "Ġle",
        "aving"
      ],
      [
        "Ġho",
        "me"
      ],
      [
        "Ġtonig",
        "ht"
      ],
      [
        "Ġcur",
        "rent"
      ],
      [
        "end",
        "ar"
      ],
      [
        "a",
        "ra"
      ],
      [
        "a",
        "ck"
      ],
      [
        "g",
        "round"
      ],
      [
        "k",
        "s"
      ],
      [
        "re",
        "e"
      ],
      [
        "is",
        "ks"
      ],
      [
        "Ġthe",
        "re"
      ],
      [
        "Ġb",
        "ack"
      ],
      [
        "Ġr",
        "isks"
      ],
      [
        "ep",
        "ara"
      ],
      [
        "Ġm",
        "ult"
      ],
      [
        "Ġth",
        "ree"
      ],
      [
        "ip",
        "le"
      ],
      [
        "Ġback",
        "ground"
      ],
      [
        "epara",
        "te"
      ],
      [
        "Ġmult",
        "iple"
      ],
      [
        "Ġsta",
        "rt"
      ],
      [
        "b",
        "rief"
      ],
      [
        "c",
        "hecklist"
      ],
      [
        "d",
        "irect"
      ],
      [
        "te",
        "chnical"
      ],
      [
        "cal",
        "m"
      ],
      [
        "s",
        "ummary"
      ],
      [
        "p",
        "lainspoken"
      ],
      [
        "Ġ",
        "ke"
      ],
      [
        "Ġd",
        "one"
      ],
      [
        "Ġg",
        "round"
      ],
      [
        "Ġke",
        "y"
      ],
      [
        "Ġground",
        "ed"
      ],
      [
        "i",
        "ble"
      ],
      [
        "u",
        "al"
      ],
      [
        "is",
        "ual"
      ],
      [
        "Ġv",
        "isual"
      ],
      [
        "Ġt",
        "i"
      ],
      [
        ".",
        "\"},"
      ],
      [
        "f",
        "a"
      ],
      [
        "ma",
        "t"
      ],
      [
        "n",
        "ish"
      ],
      [
        "Ġt",
        "ransla"
      ],
      [
        "lan",
        "gu"
      ],
      [
        "pa",
        "nish"
      ],
      [
        "ĠT",
        "ransl"
      ],
      [
        "langu",
        "age"
      ],
      [
        "Ġcal",
        "endar"
      ],
      [
        "1",
        "2"
      ],
      [
        "c",
        "ce"
      ],
      [
        "d",
        "s"
      ],
      [
        "i",
        "ms"
      ],
      [
        "o",
        "id"
      ],
      [
        "u",
        "me"
      ],
      [
        "u",
        "nd"
      ],
      [
        "Ġ",
        "12"
      ],
      [
        "Ġ",
        "und"
      ],
      [
        "Ġa",
        "cce"
      ],
      [
        "te",
        "d"
      ],
      [
        "or",
        "ted"
      ],
      [
        "Ġc",
        "lo"
      ],
      [
        "Ġc",
        "la"
      ],
      [
        "ke",
        "d"
      ],
      [
        "Ġb",
        "y"
      ],
      [
        "Ġwor",
        "ds"
      ],
      [
        "Ġass",
        "ume"
      ],
      [
        "Ġas",
        "ked"
      ],
      [
        "Ġrespon",
        "ses"
      ],
      [
        "Ġexpos",
        "e"
      ],
      [
        "Ġsupp",
        "orted"
      ],
      [
        "Ġ12",
        "0"
      ],
      [
        "Ġund",
        "er"
      ],
      [
        "Ġacce",
        "ss"
      ],
      [
        "Ġclo",
        "ud"
      ],
      [
        "Ġcla",
        "ims"
      ],
      [
        "ers",
        "ible"
      ],
      [
        "Ġchange",
        "s"
      ],
      [
        "Ġrev",
        "ersible"
      ],
      [
        "r",
        "ma"
      ],
      [
        "y",
        "th"
      ],
      [
        "la",
        "g"
      ],
      [
        "Ġaction",
        "able"
      ],
      [
        "Ġconfi",
        "rma"
      ],
      [
        "Ġan",
        "yth"
      ],
      [
        "Ġconfirma",
        "tion"
      ],
      [
        "Ġanyth",
        "ing"
      ],
      [
        "v",
        "e"
      ],
      [
        "po",
        "li"
      ],
      [
        "respon",
        "se"
      ],
      [
        "Ġprior",
        "ity"
      ],
      [
        "poli",
        "cy"
      ],
      [
        "e",
        "ns"
      ],
      [
        "Ġ",
        "qu"
      ],
      [
        "Ġs",
        "ens"
      ],
      [
        "it",
        "ive"
      ],
      [
        "Ġsens",
        "itive"
      ],
      [
        "al",
        "th"
      ],
      [
        "Ġs",
        "ummari"
      ],
      [
        "ra",
        "de"
      ],
      [
        "Ġsha",
        "red"
      ],
      [
        "Ġg",
        "rade"
      ],
      [
        "Ġhe",
        "alth"
      ],
      [
        "Ġsummari",
        "es"
      ],
      [
        "Ġgrade",
        "s"
      ],
      [
        "s",
        "eparate"
      ],
      [
        "av",
        "oid"
      ],
      [
        "giv",
        "e"
      ],
      [
        "sta",
        "rt"
      ],
      [
        "R",
        "Y"
      ],
      [
        "I",
        "D"
      ],
      [
        "E",
        "V"
      ],
      [
        "O",
        "RY"
      ],
      [
        "MEM",
        "ORY"
      ],
      [
        "L",
        "E"
      ],
      [
        "AT",
        "E"
      ],
      [
        "ID",
        "ENCE"
      ],
      [
        "EV",
        "IDENCE"
      ],
      [
        "A",
        "S"
      ],
      [
        "D",
        "ATE"
      ],
      [
        "P",
        "DATE"
      ],
      [
        "S",
        "A"
      ],
      [
        "U",
        "PDATE"
      ],
      [
        "AS",
        "K"
      ],
      [
        "V",
        "E"
      ],
      [
        "AL",
        "LE"
      ],
      [
        "IN",
        "ST"
      ],
      [
        "PRO",
        "VAL"
      ],
      [
        "AP",
        "PROVAL"
      ],
      [
        "SA",
        "VE"
      ],
      [
        "ALLE",
        "D"
      ],
      [
        "INST",
        "ALLED"
      ],
      [
        "?",
        "\","
      ],
      [
        "C",
        "on"
      ],
      [
        "E",
        "m"
      ],
      [
        "F",
        "rom"
      ],
      [
        "F",
        "ollow"
      ],
      [
        "G",
        "o"
      ],
      [
        "H",
        "e"
      ],
      [
        "H",
        "ere"
      ],
      [
        "K",
        "e"
      ],
      [
        "N",
        "ext"
      ],
      [
        "O",
        "f"
      ],
      [
        "S",
        "h"
      ],
      [
        "]",
        ","
      ],
      [
        "]",
        ":"
      ],
      [
        "a",
        "f"
      ],
      [
        "a",
        "y"
      ],
      [
        "a",
        "pproval"
      ],
      [
        "a",
        "nswer"
      ],
      [
        "a",
        "pproved"
      ],
      [
        "c",
        "o"
      ],
      [
        "c",
        "s"
      ],
      [
        "c",
        "it"
      ],
      [
        "c",
        "ing"
      ],
      [
        "c",
        "han"
      ],
      [
        "c",
        "ode"
      ],
      [
        "c",
        "ute"
      ],
      [
        "e",
        "t"
      ],
      [
        "e",
        "cute"
      ],
      [
        "f",
        "er"
      ],
      [
        "g",
        "s"
      ],
      [
        "g",
        "ing"
      ],
      [
        "g",
        "ge"
      ],
      [
        "i",
        "te"
      ],
      [
        "i",
        "cs"
      ],
      [
        "k",
        "in"
      ],
      [
        "l",
        "us"
      ],
      [
        "l",
        "led"
      ],
      [
        "m",
        "ode"
      ],
      [
        "n",
        "ed"
      ],
      [
        "n",
        "code"
      ],
      [
        "o",
        "me"
      ],
      [
        "p",
        "er"
      ],
      [
        "p",
        "pe"
      ],
      [
        "p",
        "li"
      ],
      [
        "r",
        "ite"
      ],
      [
        "s",
        "pe"
      ],
      [
        "s",
        "co"
      ],
      [
        "t",
        "us"
      ],
      [
        "u",
        "gge"
      ],
      [
        "w",
        "ay"
      ],
      [
        "y",
        "pe"
      ],
      [
        "}",
        ","
      ],
      [
        "Ġ",
        "ra"
      ],
      [
        "Ġ",
        "metadata"
      ],
      [
        "Ġ",
        "up"
      ],
      [
        "Ġ",
        "low"
      ],
      [
        "Ġ",
        "For"
      ],
      [
        "Ġ",
        "result"
      ],
      [
        "Ġ",
        "rese"
      ],
      [
        "Ġ",
        "mat"
      ],
      [
        "Ġ",
        "Con"
      ],
      [
        "Ġ",
        "Em"
      ],
      [
        "Ġ",
        "Follow"
      ],
      [
        "Ġ",
        "He"
      ],
      [
        "Ġ",
        "Ke"
      ],
      [
        "Ġ",
        "Next"
      ],
      [
        "Ġ",
        "Of"
      ],
      [
        "Ġa",
        "m"
      ],
      [
        "Ġa",
        "cknowledge"
      ],
      [
        "re",
        "te"
      ],
      [
        "re",
        "qui"
      ],
      [
        "Ġt",
        "ype"
      ],
      [
        "al",
        "way"
      ],
      [
        "Ġs",
        "ty"
      ],
      [
        "Ġs",
        "ource"
      ],
      [
        "Ġs",
        "end"
      ],
      [
        "Ġs",
        "af"
      ],
      [
        "Ġs",
        "ome"
      ],
      [
        "Ġs",
        "ugge"
      ],
      [
        "Ġw",
        "ould"
      ],
      [
        "me",
        "nt"
      ],
      [
        "Ġc",
        "heck"
      ],
      [
        "Ġc",
        "all"
      ],
      [
        "ex",
        "clude"
      ],
      [
        "ex",
        "ecute"
      ],
      [
        "fi",
        "lled"
      ],
      [
        "Ġex",
        "pli"
      ],
      [
        "Ġp",
        "reference"
      ],
      [
        "Ġp",
        "rese"
      ],
      [
        "Ġp",
        "lus"
      ],
      [
        "Ġp",
        "rete"
      ],
      [
        "Ġf",
        "act"
      ],
      [
        "nt",
        "ion"
      ],
      [
        "ĠP",
        "reference"
      ],
      [
        "ss",
        "ing"
      ],
      [
        "Ġre",
        "qui"
      ],
      [
        "Ġpro",
        "vide"
      ],
      [
        "ue",
        "ssing"
      ],
      [
        "Re",
        "quest"
      ],
      [
        "Ġr",
        "un"
      ],
      [
        "ĠRe",
        "spe"
      ],
      [
        "Ġsh",
        "ould"
      ],
      [
        "Ġm",
        "ode"
      ],
      [
        "Ġconfigu",
        "re"
      ],
      [
        "ers",
        "ion"
      ],
      [
        "Ġme",
        "chan"
      ],
      [
        "Ġme",
        "ntion"
      ],
      [
        "Ġconfigura",
        "ble"
      ],
      [
        "ar",
        "ch"
      ],
      [
        "ar",
        "gs"
      ],
      [
        "Ġha",
        "s"
      ],
      [
        "Ġha",
        "ve"
      ],
      [
        "Ġha",
        "ppe"
      ],
      [
        "id",
        "s"
      ],
      [
        "Ġrout",
        "ing"
      ],
      [
        "ter",
        "s"
      ],
      [
        "Ġchan",
        "ging"
      ],
      [
        "Ġg",
        "uessing"
      ],
      [
        "Ġsta",
        "ble"
      ],
      [
        "Ġsta",
        "tus"
      ],
      [
        "ĠS",
        "ave"
      ],
      [
        "ĠS",
        "ummarize"
      ],
      [
        "ĠS",
        "et"
      ],
      [
        "Ġle",
        "ft"
      ],
      [
        "Ġle",
        "ave"
      ],
      [
        "Ġca",
        "pability"
      ],
      [
        "Ġchange",
        "d"
      ],
      [
        "Ġrev",
        "ie"
      ],
      [
        "Ġho",
        "w"
      ],
      [
        "\"]",
        ","
      ],
      [
        "ĠA",
        "sk"
      ],
      [
        "ĠA",
        "nswer"
      ],
      [
        "ĠA",
        "cknowledge"
      ],
      [
        "Ġconstraint",
        "s"
      ],
      [
        "Ġpa",
        "per"
      ],
      [
        "Ġv",
        "ersion"
      ],
      [
        "Ġrespon",
        "se"
      ],
      [
        "Ġexpos",
        "ing"
      ],
      [
        "Ġe",
        "vide"
      ],
      [
        "Ġe",
        "ncode"
      ],
      [
        "Ġhe",
        "lp"
      ],
      [
        "ĠW",
        "hat"
      ],
      [
        "ĠW",
        "rite"
      ],
      [
        "Ġvalue",
        "s"
      ],
      [
        "Ġti",
        "ed"
      ],
      [
        "fa",
        "cing"
      ],
      [
        "Go",
        "t"
      ],
      [
        "Sh",
        "ould"
      ],
      [
        "cit",
        "ly"
      ],
      [
        "kin",
        "d"
      ],
      [
        "sco",
        "pe"
      ],
      [
        "Ġra",
        "n"
      ],
      [
        "Ġlow",
        "er"
      ],
      [
        "Ġrese",
        "arch"
      ],
      [
        "Ġmat",
        "ters"
      ],
      [
        "ĠCon",
        "straint"
      ],
      [
        "ĠEm",
        "it"
      ],
      [
        "ĠHe",
        "lp"
      ],
      [
        "ĠKe",
        "ep"
      ],
      [
        "ĠOf",
        "fer"
      ],
      [
        "Ġacknowledge",
        "ment"
      ],
      [
        "requi",
        "res"
      ],
      [
        "alway",
        "s"
      ],
      [
        "Ġsty",
        "le"
      ],
      [
        "Ġsaf",
        "e"
      ],
      [
        "Ġsome",
        "one"
      ],
      [
        "Ġsugge",
        "st"
      ],
      [
        "exclude",
        "d"
      ],
      [
        "execute",
        "d"
      ],
      [
        "Ġexpli",
        "citly"
      ],
      [
        "Ġprese",
        "nt"
      ],
      [
        "Ġprete",
        "nd"
      ],
      [
        "Ġrequi",
        "red"
      ],
      [
        "Ġprovide",
        "d"
      ],
      [
        "Request",
        "ing"
      ],
      [
        "ĠRespe",
        "ct"
      ],
      [
        "Ġmode",
        "l"
      ],
      [
        "Ġmechan",
        "ics"
      ],
      [
        "Ġhappe",
        "ned"
      ],
      [
        "Ġrevie",
        "w"
      ],
      [
        "Ġevide",
        "nce"
      ],
      [
        "i",
        "ce"
      ],
      [
        "s",
        "ide"
      ],
      [
        "v",
        "ice"
      ],
      [
        "Ġde",
        "vice"
      ],
      [
        "Ġout",
        "side"
      ],
      [
        "li",
        "er"
      ],
      [
        "Ġsupp",
        "lier"
      ],
      [
        "Ġs",
        "poken"
      ],
      [
        "ĠS",
        "panish"
      ],
      [
        "sho",
        "w"
      ],
      [
        "sta",
        "te"
      ],
      [
        "p",
        "ref"
      ],
      [
        "pref",
        "er"
      ],
      [
        "d",
        "d"
      ],
      [
        "e",
        "al"
      ],
      [
        "f",
        "lag"
      ],
      [
        "h",
        "ide"
      ],
      [
        "s",
        "ummarize"
      ],
      [
        "Ġ",
        "gener"
      ],
      [
        "Ġa",
        "pproved"
      ],
      [
        "Ġa",
        "dd"
      ],
      [
        "ta",
        "ct"
      ],
      [
        "Ġthe",
        "m"
      ],
      [
        "Ġcon",
        "tact"
      ],
      [
        "res",
        "ses"
      ],
      [
        "Ġexa",
        "ct"
      ],
      [
        "Ġextension",
        "s"
      ],
      [
        "Ġexample",
        "s"
      ],
      [
        "Ġrev",
        "eal"
      ],
      [
        "Ġqu",
        "oting"
      ],
      [
        "Ġgener",
        "ated"
      ],
      [
        "Ġadd",
        "resses"
      ],
      [
        "n",
        "g"
      ],
      [
        "al",
        "ity"
      ],
      [
        "G",
        "e"
      ],
      [
        "Ġ",
        "image"
      ],
      [
        "ner",
        "ated"
      ],
      [
        "Ge",
        "nerated"
      ],
      [
        "pro",
        "ject"
      ],
      [
        "E",
        "ng"
      ],
      [
        "T",
        "ransl"
      ],
      [
        "d",
        "ality"
      ],
      [
        "m",
        "o"
      ],
      [
        "r",
        "ge"
      ],
      [
        "ta",
        "rge"
      ],
      [
        "lis",
        "h"
      ],
      [
        "Ġtransla",
        "tion"
      ],
      [
        "Ġtransla",
        "tor"
      ],
      [
        "ĠTransl",
        "ate"
      ],
      [
        "ĠTransl",
        "ated"
      ],
      [
        "Eng",
        "lish"
      ],
      [
        "Transl",
        "ated"
      ],
      [
        "mo",
        "dality"
      ],
      [
        "targe",
        "t"
      ],
      [
        "Ġperson",
        "al"
      ],
      [
        "Ġs",
        "eparate"
      ],
      [
        "Ġg",
        "ive"
      ],
      [
        "Ġb",
        "rief"
      ],
      [
        "Ġd",
        "irect"
      ],
      [
        "Ġte",
        "chnical"
      ],
      [
        "Ġcal",
        "m"
      ],
      [
        "Ġt",
        "urn"
      ],
      [
        "Ġp",
        "repare"
      ],
      [
        "Ġf",
        "inish"
      ],
      [
        "Ġho",
        "usehold"
      ],
      [
        "b",
        "pa"
      ],
      [
        "e",
        "bpa"
      ],
      [
        "w",
        "ebpa"
      ],
      [
        "re",
        "ce"
      ],
      [
        "ip",
        "t"
      ],
      [
        "webpa",
        "ge"
      ],
      [
        "rece",
        "ipt"
      ],
      [
        "Ġp",
        "lainspoken"
      ],
      [
        "Ġs",
        "ho"
      ],
      [
        "Ġsta",
        "te"
      ],
      [
        "Ġsho",
        "w"
      ],
      [
        "M",
        "a"
      ],
      [
        "Ġ",
        "Generated"
      ],
      [
        "Ġ",
        "Ma"
      ],
      [
        "pro",
        "mp"
      ],
      [
        "ĠMa",
        "ke"
      ],
      [
        "promp",
        "t"
      ],
      [
        "Ġti",
        "me"
      ],
      [
        "A",
        "u"
      ],
      [
        "S",
        "panish"
      ],
      [
        "b",
        "row"
      ],
      [
        "p",
        "u"
      ],
      [
        "s",
        "er"
      ],
      [
        "s",
        "ur"
      ],
      [
        "t",
        "s"
      ],
      [
        "fa",
        "ce"
      ],
      [
        "Au",
        "to"
      ],
      [
        "brow",
        "ser"
      ],
      [
        "sur",
        "face"
      ],
      [
        "r",
        "u"
      ],
      [
        "ru",
        "le"
      ],
      [
        "k",
        "flow"
      ],
      [
        "w",
        "or"
      ],
      [
        "y",
        "le"
      ],
      [
        "st",
        "yle"
      ],
      [
        "wor",
        "kflow"
      ],
      [
        "v",
        "oid"
      ],
      [
        "Ġa",
        "void"
      ],
      [
        "Ġpro",
        "duct"
      ],
      [
        "Ġha",
        "rdware"
      ],
      [
        "p",
        "erson"
      ],
      [
        "s",
        "aved"
      ],
      [
        "cal",
        "endar"
      ],
      [
        "person",
        "al"
      ],
      [
        "Ġf",
        "lag"
      ],
      [
        "f",
        "act"
      ],
      [
        "r",
        "out"
      ],
      [
        "rout",
        "ine"
      ],
      [
        "a",
        "bility"
      ],
      [
        "b",
        "lo"
      ],
      [
        "c",
        "he"
      ],
      [
        "i",
        "led"
      ],
      [
        "m",
        "al"
      ],
      [
        "v",
        "er"
      ],
      [
        "v",
        "is"
      ],
      [
        "Ġ",
        "list"
      ],
      [
        "Ġ",
        "only"
      ],
      [
        "pr",
        "ior"
      ],
      [
        "Ġs",
        "che"
      ],
      [
        "or",
        "mal"
      ],
      [
        "le",
        "ve"
      ],
      [
        "le",
        "ng"
      ],
      [
        "Ġus",
        "ing"
      ],
      [
        "cke",
        "d"
      ],
      [
        "Ġre",
        "li"
      ],
      [
        "Ġin",
        "pu"
      ],
      [
        "Ġn",
        "ormal"
      ],
      [
        "Ġdeta",
        "iled"
      ],
      [
        "ar",
        "ning"
      ],
      [
        "Ġle",
        "arning"
      ],
      [
        "du",
        "le"
      ],
      [
        "Ġco",
        "st"
      ],
      [
        "Ġe",
        "ver"
      ],
      [
        "Ġspe",
        "ed"
      ],
      [
        "Ġprioriti",
        "ze"
      ],
      [
        "Ġqu",
        "ality"
      ],
      [
        "blo",
        "cked"
      ],
      [
        "vis",
        "ible"
      ],
      [
        "prior",
        "ity"
      ],
      [
        "Ġsche",
        "dule"
      ],
      [
        "leve",
        "l"
      ],
      [
        "leng",
        "th"
      ],
      [
        "Ġreli",
        "ability"
      ],
      [
        "Ġinpu",
        "ts"
      ],
      [
        "Ġever",
        "y"
      ],
      [
        "b",
        "y"
      ],
      [
        "f",
        "or"
      ],
      [
        "l",
        "le"
      ],
      [
        "s",
        "tep"
      ],
      [
        "out",
        "pu"
      ],
      [
        "Ġfor",
        "mat"
      ],
      [
        "Ġbu",
        "lle"
      ],
      [
        "for",
        "mat"
      ],
      [
        "outpu",
        "t"
      ],
      [
        "Ġbulle",
        "ts"
      ],
      [
        "h",
        "int"
      ],
      [
        "de",
        "adline"
      ],
      [
        "RE",
        "T"
      ],
      [
        "AC",
        "T"
      ],
      [
        "R",
        "I"
      ],
      [
        "I",
        "C"
      ],
      [
        "RET",
        "RI"
      ],
      [
        "A",
        "N"
      ],
      [
        "O",
        "D"
      ],
      [
        "P",
        "A"
      ],
      [
        "A",
        "R"
      ],
      [
        "F",
        "IC"
      ],
      [
        "T",
        "E"
      ],
      [
        "E",
        "C"
      ],
      [
        "E",
        "VAL"
      ],
      [
        "F",
        "FIC"
      ],
      [
        "I",
        "EN"
      ],
      [
        "O",
        "OD"
      ],
      [
        "S",
        "E"
      ],
      [
        "S",
        "U"
      ],
      [
        "S",
        "PA"
      ],
      [
        "ACT",
        "ION"
      ],
      [
        "RETRI",
        "EVAL"
      ],
      [
        "FFIC",
        "IEN"
      ],
      [
        "SU",
        "FFICIEN"
      ],
      [
        "SPA",
        "CE"
      ],
      [
        "SUFFICIEN",
        "T"
      ],
      [
        "E",
        "E"
      ],
      [
        "F",
        "ACT"
      ],
      [
        "P",
        "AP"
      ],
      [
        "Q",
        "UE"
      ],
      [
        "T",
        "I"
      ],
      [
        "CON",
        "F"
      ],
      [
        "CH",
        "EC"
      ],
      [
        "EV",
        "E"
      ],
      [
        "RETRI",
        "EVE"
      ],
      [
        "PAP",
        "ER"
      ],
      [
        "QUE",
        "RY"
      ],
      [
        "CHEC",
        "K"
      ],
      [
        "A",
        "D"
      ],
      [
        "C",
        "T"
      ],
      [
        "C",
        "OD"
      ],
      [
        "E",
        "AR"
      ],
      [
        "F",
        "UL"
      ],
      [
        "I",
        "R"
      ],
      [
        "M",
        "AN"
      ],
      [
        "N",
        "EE"
      ],
      [
        "O",
        "P"
      ],
      [
        "T",
        "IC"
      ],
      [
        "V",
        "ER"
      ],
      [
        "W",
        "RI"
      ],
      [
        "IN",
        "SUFFICIENT"
      ],
      [
        "US",
        "E"
      ],
      [
        "STR",
        "ACT"
      ],
      [
        "AB",
        "STRACT"
      ],
      [
        "PA",
        "IR"
      ],
      [
        "AR",
        "TI"
      ],
      [
        "SE",
        "MAN"
      ],
      [
        "COD",
        "E"
      ],
      [
        "FUL",
        "L"
      ],
      [
        "NEE",
        "D"
      ],
      [
        "VER",
        "I"
      ],
      [
        "WRI",
        "TE"
      ],
      [
        "ARTI",
        "FACT"
      ],
      [
        "SEMAN",
        "TIC"
      ]
    ]
  }
}