{
  "version": "1.0",
  "truncation": null,
  "padding": null,
  "added_tokens": [
    {
      "id": 0,
      "content": "<pad>",
      "single_word": false,
      "lstrip": false,
      "rstrip": false,
      "normalized": false,
      "special": true
    },
    {
      "id": 1,
      "content": "<s>",
      "single_word": false,
      "lstrip": false,
      "rstrip": false,
      "normalized": false,
      "special": true
    },
    {
      "id": 2,
      "content": "</s>",
      "single_word": false,
      "lstrip": false,
      "rstrip": false,
      "normalized": false,
      "special": true
    },
    {
      "id": 3,
      "content": "<unk>",
      "single_word": false,
      "lstrip": false,
      "rstrip": false,
      "normalized": false,
      "special": true
    },
    {
      "id": 8192,
      "content": "<AK_USER>",
      "single_word": false,
      "lstrip": false,
      "rstrip": false,
      "normalized": false,
      "special": true
    },
    {
      "id": 8193,
      "content": "<AK_CHAT>",
      "single_word": false,
      "lstrip": false,
      "rstrip": false,
      "normalized": false,
      "special": true
    },
    {
      "id": 8194,
      "content": "<AK_THINK>",
      "single_word": false,
      "lstrip": false,
      "rstrip": false,
      "normalized": false,
      "special": true
    },
    {
      "id": 8195,
      "content": "<AK_DEEP_RESEARCH>",
      "single_word": false,
      "lstrip": false,
      "rstrip": false,
      "normalized": false,
      "special": true
    },
    {
      "id": 8196,
      "content": "<AK_CONTEXT>",
      "single_word": false,
      "lstrip": false,
      "rstrip": false,
      "normalized": false,
      "special": true
    },
    {
      "id": 8197,
      "content": "<AK_EVIDENCE>",
      "single_word": false,
      "lstrip": false,
      "rstrip": false,
      "normalized": false,
      "special": true
    },
    {
      "id": 8198,
      "content": "<AK_CANDIDATE>",
      "single_word": false,
      "lstrip": false,
      "rstrip": false,
      "normalized": false,
      "special": true
    },
    {
      "id": 8199,
      "content": "<AK_QUERY_REWRITE>",
      "single_word": false,
      "lstrip": false,
      "rstrip": false,
      "normalized": false,
      "special": true
    },
    {
      "id": 8200,
      "content": "<AK_RERANK>",
      "single_word": false,
      "lstrip": false,
      "rstrip": false,
      "normalized": false,
      "special": true
    },
    {
      "id": 8201,
      "content": "<AK_GATHER_CONTEXT>",
      "single_word": false,
      "lstrip": false,
      "rstrip": false,
      "normalized": false,
      "special": true
    },
    {
      "id": 8202,
      "content": "<AK_RESPOND>",
      "single_word": false,
      "lstrip": false,
      "rstrip": false,
      "normalized": false,
      "special": true
    },
    {
      "id": 8203,
      "content": "<AK_SUFFICIENT>",
      "single_word": false,
      "lstrip": false,
      "rstrip": false,
      "normalized": false,
      "special": true
    },
    {
      "id": 8204,
      "content": "<AK_INSUFFICIENT>",
      "single_word": false,
      "lstrip": false,
      "rstrip": false,
      "normalized": false,
      "special": true
    },
    {
      "id": 8205,
      "content": "<AK_ANSWER>",
      "single_word": false,
      "lstrip": false,
      "rstrip": false,
      "normalized": false,
      "special": true
    },
    {
      "id": 8206,
      "content": "<AK_JSON>",
      "single_word": false,
      "lstrip": false,
      "rstrip": false,
      "normalized": false,
      "special": true
    },
    {
      "id": 8207,
      "content": "<AK_LOOP>",
      "single_word": false,
      "lstrip": false,
      "rstrip": false,
      "normalized": false,
      "special": true
    },
    {
      "id": 8208,
      "content": "<AK_PLAN>",
      "single_word": false,
      "lstrip": false,
      "rstrip": false,
      "normalized": false,
      "special": true
    },
    {
      "id": 8209,
      "content": "<AK_STATE>",
      "single_word": false,
      "lstrip": false,
      "rstrip": false,
      "normalized": false,
      "special": true
    },
    {
      "id": 8210,
      "content": "<AK_ACTIVE_CONTEXT>",
      "single_word": false,
      "lstrip": false,
      "rstrip": false,
      "normalized": false,
      "special": true
    },
    {
      "id": 8211,
      "content": "<AK_EVIDENCE_ID>",
      "single_word": false,
      "lstrip": false,
      "rstrip": false,
      "normalized": false,
      "special": true
    },
    {
      "id": 8212,
      "content": "<AK_TITLE>",
      "single_word": false,
      "lstrip": false,
      "rstrip": false,
      "normalized": false,
      "special": true
    },
    {
      "id": 8213,
      "content": "<AK_PAPER_ID>",
      "single_word": false,
      "lstrip": false,
      "rstrip": false,
      "normalized": false,
      "special": true
    },
    {
      "id": 8214,
      "content": "<AK_CATEGORY>",
      "single_word": false,
      "lstrip": false,
      "rstrip": false,
      "normalized": false,
      "special": true
    },
    {
      "id": 8215,
      "content": "<AK_YEAR>",
      "single_word": false,
      "lstrip": false,
      "rstrip": false,
      "normalized": false,
      "special": true
    },
    {
      "id": 8216,
      "content": "<AK_ABSTRACT>",
      "single_word": false,
      "lstrip": false,
      "rstrip": false,
      "normalized": false,
      "special": true
    },
    {
      "id": 8217,
      "content": "<AK_SELECTED_PAPER>",
      "single_word": false,
      "lstrip": false,
      "rstrip": false,
      "normalized": false,
      "special": true
    },
    {
      "id": 8218,
      "content": "<AK_CONTEXT_ID>",
      "single_word": false,
      "lstrip": false,
      "rstrip": false,
      "normalized": false,
      "special": true
    },
    {
      "id": 8219,
      "content": "<AK_TARGET_CONTEXT>",
      "single_word": false,
      "lstrip": false,
      "rstrip": false,
      "normalized": false,
      "special": true
    },
    {
      "id": 8220,
      "content": "<AK_ABSTRACT_RETRIEVAL>",
      "single_word": false,
      "lstrip": false,
      "rstrip": false,
      "normalized": false,
      "special": true
    },
    {
      "id": 8221,
      "content": "<AK_USE_CONTEXT>",
      "single_word": false,
      "lstrip": false,
      "rstrip": false,
      "normalized": false,
      "special": true
    },
    {
      "id": 8222,
      "content": "<AK_FULL_TEXT>",
      "single_word": false,
      "lstrip": false,
      "rstrip": false,
      "normalized": false,
      "special": true
    },
    {
      "id": 8223,
      "content": "<AK_LOAD_FULL_TEXT>",
      "single_word": false,
      "lstrip": false,
      "rstrip": false,
      "normalized": false,
      "special": true
    },
    {
      "id": 8224,
      "content": "<AK_NO_RETRIEVAL>",
      "single_word": false,
      "lstrip": false,
      "rstrip": false,
      "normalized": false,
      "special": true
    },
    {
      "id": 8225,
      "content": "<AK_RETRIEVE_NEW>",
      "single_word": false,
      "lstrip": false,
      "rstrip": false,
      "normalized": false,
      "special": true
    },
    {
      "id": 8226,
      "content": "<AK_RETRIEVAL_PAIR>",
      "single_word": false,
      "lstrip": false,
      "rstrip": false,
      "normalized": false,
      "special": true
    },
    {
      "id": 8227,
      "content": "<AK_CITE>",
      "single_word": false,
      "lstrip": false,
      "rstrip": false,
      "normalized": false,
      "special": true
    },
    {
      "id": 8228,
      "content": "<AK_RENDER>",
      "single_word": false,
      "lstrip": false,
      "rstrip": false,
      "normalized": false,
      "special": true
    }
  ],
  "normalizer": null,
  "pre_tokenizer": {
    "type": "ByteLevel",
    "add_prefix_space": false,
    "trim_offsets": true,
    "use_regex": true
  },
  "post_processor": {
    "type": "TemplateProcessing",
    "single": [
      {
        "SpecialToken": {
          "id": "<s>",
          "type_id": 0
        }
      },
      {
        "Sequence": {
          "id": "A",
          "type_id": 0
        }
      },
      {
        "SpecialToken": {
          "id": "</s>",
          "type_id": 0
        }
      }
    ],
    "pair": [
      {
        "SpecialToken": {
          "id": "<s>",
          "type_id": 0
        }
      },
      {
        "Sequence": {
          "id": "A",
          "type_id": 0
        }
      },
      {
        "SpecialToken": {
          "id": "</s>",
          "type_id": 0
        }
      },
      {
        "Sequence": {
          "id": "B",
          "type_id": 1
        }
      },
      {
        "SpecialToken": {
          "id": "</s>",
          "type_id": 1
        }
      }
    ],
    "special_tokens": {
      "</s>": {
        "id": "</s>",
        "ids": [
          2
        ],
        "tokens": [
          "</s>"
        ]
      },
      "<s>": {
        "id": "<s>",
        "ids": [
          1
        ],
        "tokens": [
          "<s>"
        ]
      }
    }
  },
  "decoder": {
    "type": "ByteLevel",
    "add_prefix_space": true,
    "trim_offsets": true,
    "use_regex": true
  },
  "model": {
    "type": "BPE",
    "dropout": null,
    "unk_token": "<unk>",
    "continuing_subword_prefix": null,
    "end_of_word_suffix": null,
    "fuse_unk": false,
    "byte_fallback": false,
    "ignore_merges": false,
    "vocab": {
      "<pad>": 0,
      "<s>": 1,
      "</s>": 2,
      "<unk>": 3,
      "!": 4,
      "\"": 5,
      "#": 6,
      "$": 7,
      "%": 8,
      "&": 9,
      "'": 10,
      "(": 11,
      ")": 12,
      "*": 13,
      "+": 14,
      ",": 15,
      "-": 16,
      ".": 17,
      "/": 18,
      "0": 19,
      "1": 20,
      "2": 21,
      "3": 22,
      "4": 23,
      "5": 24,
      "6": 25,
      "7": 26,
      "8": 27,
      "9": 28,
      ":": 29,
      ";": 30,
      "<": 31,
      "=": 32,
      ">": 33,
      "?": 34,
      "@": 35,
      "A": 36,
      "B": 37,
      "C": 38,
      "D": 39,
      "E": 40,
      "F": 41,
      "G": 42,
      "H": 43,
      "I": 44,
      "J": 45,
      "K": 46,
      "L": 47,
      "M": 48,
      "N": 49,
      "O": 50,
      "P": 51,
      "Q": 52,
      "R": 53,
      "S": 54,
      "T": 55,
      "U": 56,
      "V": 57,
      "W": 58,
      "X": 59,
      "Y": 60,
      "Z": 61,
      "[": 62,
      "\\": 63,
      "]": 64,
      "^": 65,
      "_": 66,
      "`": 67,
      "a": 68,
      "b": 69,
      "c": 70,
      "d": 71,
      "e": 72,
      "f": 73,
      "g": 74,
      "h": 75,
      "i": 76,
      "j": 77,
      "k": 78,
      "l": 79,
      "m": 80,
      "n": 81,
      "o": 82,
      "p": 83,
      "q": 84,
      "r": 85,
      "s": 86,
      "t": 87,
      "u": 88,
      "v": 89,
      "w": 90,
      "x": 91,
      "y": 92,
      "z": 93,
      "{": 94,
      "|": 95,
      "}": 96,
      "~": 97,
      "¢": 98,
      "£": 99,
      "¤": 100,
      "¥": 101,
      "¦": 102,
      "§": 103,
      "¨": 104,
      "©": 105,
      "ª": 106,
      "«": 107,
      "¬": 108,
      "°": 109,
      "±": 110,
      "²": 111,
      "³": 112,
      "´": 113,
      "µ": 114,
      "¶": 115,
      "·": 116,
      "¸": 117,
      "¹": 118,
      "º": 119,
      "»": 120,
      "¼": 121,
      "½": 122,
      "¾": 123,
      "Â": 124,
      "Ã": 125,
      "Ä": 126,
      "Ç": 127,
      "Ì": 128,
      "Î": 129,
      "Ï": 130,
      "â": 131,
      "æ": 132,
      "è": 133,
      "é": 134,
      "ï": 135,
      "Ĉ": 136,
      "Ċ": 137,
      "Ġ": 138,
      "ġ": 139,
      "Ģ": 140,
      "ģ": 141,
      "Ĥ": 142,
      "ĥ": 143,
      "Ħ": 144,
      "ħ": 145,
      "Ĩ": 146,
      "Ī": 147,
      "ī": 148,
      "Ĭ": 149,
      "ĭ": 150,
      "Ĳ": 151,
      "Ĵ": 152,
      "ĵ": 153,
      "Ķ": 154,
      "ķ": 155,
      "Ĺ": 156,
      "ĺ": 157,
      "Ļ": 158,
      "ļ": 159,
      "Ľ": 160,
      "ľ": 161,
      "Ŀ": 162,
      "ŀ": 163,
      "ł": 164,
      "Ń": 165,
      "Ġt": 166,
      "in": 167,
      "Ġa": 168,
      "on": 169,
      "er": 170,
      "Ġth": 171,
      "ti": 172,
      "en": 173,
      "re": 174,
      "Ġs": 175,
      "Ġthe": 176,
      "Ġp": 177,
      "Ġo": 178,
      "Ġc": 179,
      "al": 180,
      "ed": 181,
      "es": 182,
      "or": 183,
      "is": 184,
      "at": 185,
      "tion": 186,
      "it": 187,
      "Ġf": 188,
      "tr": 189,
      "ar": 190,
      "Ġe": 191,
      "Ġin": 192,
      "ing": 193,
      "Ġof": 194,
      "Ġan": 195,
      "ce": 196,
      "ro": 197,
      "Ġm": 198,
      "an": 199,
      "Ġd": 200,
      "Ġw": 201,
      "Ġre": 202,
      "ic": 203,
      "Ġand": 204,
      "id": 205,
      "as": 206,
      "le": 207,
      "ent": 208,
      "ation": 209,
      "Ġb": 210,
      "el": 211,
      "ac": 212,
      "ur": 213,
      "ain": 214,
      "im": 215,
      "Ġn": 216,
      "Ġto": 217,
      "iv": 218,
      "ence": 219,
      "et": 220,
      "om": 221,
      "ec": 222,
      "Ġis": 223,
      "Ġev": 224,
      "ev": 225,
      "us": 226,
      "Ġfor": 227,
      "od": 228,
      "qu": 229,
      "ul": 230,
      "idence": 231,
      "Ġl": 232,
      "Ġevidence": 233,
      "ĠT": 234,
      "Ġon": 235,
      "tri": 236,
      "ol": 237,
      "un": 238,
      "Ġcon": 239,
      "Ġpro": 240,
      "ly": 241,
      "Ġh": 242,
      "Ġg": 243,
      "xt": 244,
      "ĠS": 245,
      "ve": 246,
      "ith": 247,
      "eved": 248,
      "Xiv": 249,
      "trieved": 250,
      "tic": 251,
      "os": 252,
      "ĠW": 253,
      "am": 254,
      "ext": 255,
      "Ġex": 256,
      "act": 257,
      "Ġpre": 258,
      "ĠC": 259,
      "he": 260,
      "ow": 261,
      "Ġ$": 262,
      "01": 263,
      "ut": 264,
      "rom": 265,
      "our": 266,
      "Ġtext": 267,
      "Ġ[": 268,
      "ig": 269,
      "Ġfrom": 270,
      "ot": 271,
      "Ġthat": 272,
      "per": 273,
      "uc": 274,
      "Ġwith": 275,
      "Ġ(": 276,
      "ĠL": 277,
      "il": 278,
      "em": 279,
      "Ġst": 280,
      "str": 281,
      "ource": 282,
      "ag": 283,
      "ite": 284,
      "st": 285,
      "pl": 286,
      "ra": 287,
      "um": 288,
      "ity": 289,
      "ĠA": 290,
      "Ġwh": 291,
      "Ġthis": 292,
      "ser": 293,
      "Ġar": 294,
      "ab": 295,
      "ate": 296,
      "Ġv": 297,
      "ĠI": 298,
      "ure": 299,
      "if": 300,
      "ter": 301,
      "iz": 302,
      "Ġcom": 303,
      "Ġwe": 304,
      "est": 305,
      "ĠD": 306,
      "ch": 307,
      "ts": 308,
      "Ġretrieved": 309,
      "ion": 310,
      "ĠThe": 311,
      "orm": 312,
      "ĠWe": 313,
      "ph": 314,
      "Ġmod": 315,
      "Ġsy": 316,
      "th": 317,
      "Ġas": 318,
      "Ġal": 319,
      "ĠM": 320,
      "ran": 321,
      "Ġpl": 322,
      "ers": 323,
      "ask": 324,
      "Ġus": 325,
      "sw": 326,
      "swer": 327,
      "Ġres": 328,
      "Ġbe": 329,
      "ations": 330,
      "pp": 331,
      "ĠarXiv": 332,
      "arXiv": 333,
      "ir": 334,
      "form": 335,
      "Re": 336,
      "Ġare": 337,
      "aining": 338,
      "gent": 339,
      "ern": 340,
      "Ġmodel": 341,
      "Ġun": 342,
      "Ġcomp": 343,
      "Ġby": 344,
      "Ġrequ": 345,
      "Ġsp": 346,
      "ens": 347,
      "ical": 348,
      "ore": 349,
      "ear": 350,
      "op": 351,
      "ant": 352,
      "ess": 353,
      "ĠE": 354,
      "Ġsu": 355,
      "ge": 356,
      "ĠIn": 357,
      "ment": 358,
      "21": 359,
      "tive": 360,
      "bstr": 361,
      "Ġpar": 362,
      "ay": 363,
      "ernel": 364,
      "training": 365,
      "Ġone": 366,
      "Agent": 367,
      "ad": 368,
      "bstract": 369,
      "oc": 370,
      "ĠP": 371,
      "ĠG": 372,
      "nswer": 373,
      "tions": 374,
      "User": 375,
      "Ġ|": 376,
      "ork": 377,
      "Ġrequest": 378,
      "Ġpretraining": 379,
      "Kernel": 380,
      "Task": 381,
      "ĠLite": 382,
      "Ġplain": 383,
      "Answer": 384,
      "Retrieved": 385,
      "AgentKernel": 386,
      "Ġne": 387,
      "Abstract": 388,
      "ener": 389,
      "igh": 390,
      "ect": 391,
      "og": 392,
      "Ġk": 393,
      "Ġid": 394,
      "2101": 395,
      "ĠF": 396,
      "Ġcl": 397,
      "Ġdis": 398,
      "ud": 399,
      "rans": 400,
      "res": 401,
      "ff": 402,
      "ath": 403,
      "ased": 404,
      "ble": 405,
      "ey": 406,
      "enti": 407,
      "ĠH": 408,
      "Ġsh": 409,
      "ep": 410,
      "Ġqu": 411,
      "Ġat": 412,
      "etw": 413,
      "ĠB": 414,
      "Ġim": 415,
      "Ġem": 416,
      "ich": 417,
      "ated": 418,
      "Ġnot": 419,
      "Ġsource": 420,
      "tim": 421,
      "stem": 422,
      "ver": 423,
      "ass": 424,
      "Ġor": 425,
      "17": 426,
      "ach": 427,
      "ari": 428,
      "Ġch": 429,
      "Ġle": 430,
      "ĠSource": 431,
      "ĠN": 432,
      "der": 433,
      "Ġwhich": 434,
      "ri": 435,
      "ĠR": 436,
      "fer": 437,
      "Ġcan": 438,
      "und": 439,
      "imit": 440,
      "1701": 441,
      "di": 442,
      "ĠO": 443,
      "Ġsystem": 444,
      "ere": 445,
      "Ġac": 446,
      "Ġlimit": 447,
      "ive": 448,
      "Ġ$\\": 449,
      "ous": 450,
      "ies": 451,
      "able": 452,
      "tain": 453,
      "ĠTh": 454,
      "ally": 455,
      "Ġit": 456,
      "pos": 457,
      "uct": 458,
      "end": 459,
      "eth": 460,
      "Ġdat": 461,
      "Ġapp": 462,
      "se": 463,
      "Ġob": 464,
      "Ġcs": 465,
      "raph": 466,
      "ine": 467,
      "ys": 468,
      "ap": 469,
      "Ġph": 470,
      "lec": 471,
      "Ġstr": 472,
      "Ġtrans": 473,
      "ance": 474,
      "ĠJ": 475,
      "Ġinter": 476,
      "oin": 477,
      "Ġgener": 478,
      "erm": 479,
      "Ġsyn": 480,
      "ĠWh": 481,
      "Ġsc": 482,
      "age": 483,
      "ple": 484,
      "Ġco": 485,
      "cer": 486,
      "Ġkey": 487,
      "and": 488,
      "ign": 489,
      "ave": 490,
      "ulti": 491,
      "up": 492,
      "ethod": 493,
      "all": 494,
      "Ġshow": 495,
      "ell": 496,
      "Ġper": 497,
      "00": 498,
      "ution": 499,
      "ary": 500,
      "enc": 501,
      "ting": 502,
      "Ġpa": 503,
      "thes": 504,
      "Ġmethod": 505,
      "Ġde": 506,
      "yn": 507,
      "etwork": 508,
      "ace": 509,
      "Ġsynthes": 510,
      "ty": 511,
      "Ġresul": 512,
      "ning": 513,
      "ial": 514,
      "Ġab": 515,
      "SO": 516,
      "Ġr": 517,
      "Ġ\\": 518,
      "ĠDo": 519,
      "Ġappro": 520,
      "Ġad": 521,
      "Ġemit": 522,
      "Ġeff": 523,
      "to": 524,
      "ĠWhat": 525,
      "Ġlimitation": 526,
      "ular": 527,
      "unc": 528,
      "SON": 529,
      "ĠJSON": 530,
      "ak": 531,
      "ties": 532,
      "ĠCite": 533,
      "out": 534,
      "te": 535,
      "etr": 536,
      "ize": 537,
      "ics": 538,
      "Ġtw": 539,
      "vel": 540,
      "Ġdif": 541,
      "blem": 542,
      ").": 543,
      "oint": 544,
      "ech": 545,
      "ility": 546,
      "ati": 547,
      "ase": 548,
      "ise": 549,
      "Ġpropos": 550,
      "Ġdata": 551,
      "cess": 552,
      "uch": 553,
      "ort": 554,
      "ack": 555,
      "Ġstud": 556,
      "earch": 557,
      "ization": 558,
      "Ġnon": 559,
      "Ġproblem": 560,
      "ention": 561,
      "ors": 562,
      "ang": 563,
      "eld": 564,
      "ates": 565,
      "ew": 566,
      "ents": 567,
      "}$": 568,
      "Ġtwo": 569,
      "Ġmore": 570,
      "ature": 571,
      "plic": 572,
      "ime": 573,
      "tical": 574,
      "ong": 575,
      "Ġsim": 576,
      "ield": 577,
      "Ġrec": 578,
      "Ġop": 579,
      "Ġpres": 580,
      "Ġsol": 581,
      "Ġmulti": 582,
      "Ġcons": 583,
      "low": 584,
      "ory": 585,
      "Ġpaper": 586,
      "Ġimp": 587,
      "ard": 588,
      "Ġdo": 589,
      "Ġform": 590,
      "Ġinc": 591,
      "Ġso": 592,
      "ight": 593,
      "trib": 594,
      "ide": 595,
      "ĠThis": 596,
      "Ġmodels": 597,
      "Ġanal": 598,
      "Ġme": 599,
      "ative": 600,
      "Ġmath": 601,
      "duc": 602,
      "vi": 603,
      "Ġhigh": 604,
      "ound": 605,
      "Ġnetwork": 606,
      "Ġfunc": 607,
      "olog": 608,
      "Ġrel": 609,
      "entif": 610,
      "pt": 611,
      "ves": 612,
      "Ġdet": 613,
      "ĠEx": 614,
      "Ġusing": 615,
      "Ġdes": 616,
      "Ġen": 617,
      "Ġhave": 618,
      "ire": 619,
      "ific": 620,
      "ynam": 621,
      "Ġequ": 622,
      "Ġfin": 623,
      "gor": 624,
      "Ġ1": 625,
      "are": 626,
      "ram": 627,
      "ithm": 628,
      "ree": 629,
      "Ġnum": 630,
      "ual": 631,
      "Ġclass": 632,
      "Ġmat": 633,
      "Ġlear": 634,
      "ue": 635,
      "ond": 636,
      "Ġdiffer": 637,
      "Ġhas": 638,
      "Ġpoint": 639,
      "antum": 640,
      "oth": 641,
      "ist": 642,
      "Ġvari": 643,
      "ension": 644,
      "agn": 645,
      "opy": 646,
      "ĠU": 647,
      "Ġsuch": 648,
      "ress": 649,
      "so": 650,
      "Ġtr": 651,
      "Ġconc": 652,
      "Ġmain": 653,
      "Ġidentif": 654,
      "Ġspec": 655,
      "02": 656,
      "ural": 657,
      "ating": 658,
      "ber": 659,
      "Ġresults": 660,
      "Ġresearch": 661,
      "Ġour": 662,
      "Ġextr": 663,
      "Ġsupp": 664,
      "ug": 665,
      "03": 666,
      "Ġ2": 667,
      "Ġapproach": 668,
      "gorithm": 669,
      "Ġrep": 670,
      "Ġse": 671,
      "ized": 672,
      "ability": 673,
      "04": 674,
      "ost": 675,
      "math": 676,
      "serv": 677,
      "Ġabout": 678,
      "Ġneed": 679,
      "Ġro": 680,
      "Ġtime": 681,
      "Ġcor": 682,
      "ill": 683,
      "Ġset": 684,
      "ax": 685,
      "ition": 686,
      "ever": 687,
      "Ġsystems": 688,
      "Ġperform": 689,
      "ici": 690,
      "Ġno": 691,
      "Ġprov": 692,
      "ian": 693,
      "arge": 694,
      "een": 695,
      "_{": 696,
      "Ġap": 697,
      "certain": 698,
      "etween": 699,
      "Ġsub": 700,
      "Ġnew": 701,
      "Ġfield": 702,
      "Ġunder": 703,
      "Ġalgorithm": 704,
      "Ġbetween": 705,
      "Ġcomput": 706,
      "Ġgro": 707,
      "Ġstudy": 708,
      "Ġalso": 709,
      "ip": 710,
      "inear": 711,
      "Ġpos": 712,
      "ucture": 713,
      "Ġbro": 714,
      "Ġuncertain": 715,
      "ark": 716,
      "Ġreg": 717,
      "Ġquantum": 718,
      "Ġidentify": 719,
      "ely": 720,
      "Ġexact": 721,
      "ome": 722,
      ")$": 723,
      "Ġdoes": 724,
      "imension": 725,
      "Ġdev": 726,
      "Ġbased": 727,
      "Ġuser": 728,
      "05": 729,
      "Ġpresent": 730,
      "Ġdisc": 731,
      "dic": 732,
      "ential": 733,
      "epend": 734,
      "Ġover": 735,
      "Ġdec": 736,
      "Ġcont": 737,
      "plain": 738,
      "Ġass": 739,
      "gy": 740,
      "Ġextract": 741,
      "Ġthese": 742,
      "Ġman": 743,
      "lectr": 744,
      "ib": 745,
      "Ġbroad": 746,
      "formation": 747,
      "Ġuncertainty": 748,
      "Ġcomple": 749,
      "yp": 750,
      "Ġits": 751,
      "Ġpr": 752,
      "Ġra": 753,
      "serve": 754,
      "Ġtheir": 755,
      "ied": 756,
      "Ġgeneral": 757,
      "orts": 758,
      "Ġanswer": 759,
      "les": 760,
      "ĠTrans": 761,
      "asure": 762,
      "Ġstate": 763,
      "Ġwhat": 764,
      "Ġlearning": 765,
      "ims": 766,
      "Ġcontr": 767,
      "onstr": 768,
      "Ġprocess": 769,
      "ments": 770,
      "ection": 771,
      "Ġpol": 772,
      "Based": 773,
      "Ġwork": 774,
      "Ġext": 775,
      "Ġout": 776,
      "ational": 777,
      "^{": 778,
      "now": 779,
      "Ġran": 780,
      "ugh": 781,
      "ther": 782,
      "Ġdynam": 783,
      "Ġexp": 784,
      "ĠV": 785,
      "Ġcla": 786,
      "Ġsynthesis": 787,
      "fin": 788,
      "],": 789,
      "].": 790,
      "etric": 791,
      "sc": 792,
      "Ġexactly": 793,
      "perim": 794,
      "Ġtask": 795,
      "ons": 796,
      "Ġdistrib": 797,
      "ub": 798,
      "Ġsupports": 799,
      "Ġsign": 800,
      "dition": 801,
      "alu": 802,
      "Key": 803,
      "ider": 804,
      "Ġacc": 805,
      "The": 806,
      "Ġpartic": 807,
      "Ġsay": 808,
      "Ġconstr": 809,
      "Ġpreserve": 810,
      "Ġmention": 811,
      "istic": 812,
      "Ġmeasure": 813,
      "iqu": 814,
      "ob": 815,
      "Ġsynthesize": 816,
      "Ġclaims": 817,
      "$-": 818,
      "amet": 819,
      "ding": 820,
      "agraph": 821,
      "Ġtit": 822,
      "Ġbroader": 823,
      "ĠExplain": 824,
      "Ġconcise": 825,
      "Ġparagraph": 826,
      "'s": 827,
      "Ġcol": 828,
      "Source": 829,
      "Ġwhere": 830,
      "Ġtitle": 831,
      "ĠCopy": 832,
      "Ġexcer": 833,
      "Ġexcerpt": 834,
      "Ġoptim": 835,
      "]:": 836,
      "]?": 837,
      "ĠGive": 838,
      "ile": 839,
      "pec": 840,
      "Ġes": 841,
      "Ġdifferent": 842,
      "Ġfunction": 843,
      "ysis": 844,
      "resent": 845,
      "ma": 846,
      "ast": 847,
      "Ġstructure": 848,
      "Ġbound": 849,
      "Ġproper": 850,
      "Ġbeen": 851,
      "Ġintr": 852,
      "action": 853,
      "Ġobserv": 854,
      "Ġloc": 855,
      "agne": 856,
      "ted": 857,
      "former": 858,
      "irst": 859,
      "Ġphys": 860,
      "ĠK": 861,
      "ower": 862,
      "Ġapplic": 863,
      "based": 864,
      "Ġall": 865,
      "Ġspace": 866,
      "Ġlarge": 867,
      "Ġsam": 868,
      "Ġcur": 869,
      "anc": 870,
      "ov": 871,
      "ency": 872,
      "Ġgraph": 873,
      "vity": 874,
      "Ġeffec": 875,
      "eng": 876,
      "),": 877,
      "Ġsur": 878,
      "olution": 879,
      "Ġfe": 880,
      "ject": 881,
      "Ġconsider": 882,
      "ulation": 883,
      "of": 884,
      "Ġener": 885,
      "Ġwell": 886,
      "Ġchar": 887,
      "Ġelectr": 888,
      "ism": 889,
      "cri": 890,
      "vers": 891,
      "06": 892,
      "Ġproposed": 893,
      "Ġsuper": 894,
      "ision": 895,
      "Ġcomm": 896,
      "Ġind": 897,
      "sion": 898,
      "Ġuse": 899,
      "Ġboth": 900,
      "ail": 901,
      "Ġexperim": 902,
      "Ġnumber": 903,
      "Ġparamet": 904,
      "aus": 905,
      "utions": 906,
      "ator": 907,
      "ia": 908,
      "ĠRe": 909,
      "Ġused": 910,
      "angu": 911,
      "ible": 912,
      "ĠCon": 913,
      "ust": 914,
      "echn": 915,
      "mm": 916,
      "ĠOur": 917,
      "Ġpropose": 918,
      "Ġinformation": 919,
      "ĠQ": 920,
      "Ġscal": 921,
      "iven": 922,
      "ish": 923,
      "Ġestim": 924,
      "Ġmethods": 925,
      "ently": 926,
      "Ġdem": 927,
      "agnetic": 928,
      "Ġrepresent": 929,
      "ets": 930,
      "ĠAn": 931,
      "Ġperformance": 932,
      "put": 933,
      "Ġtheory": 934,
      "Ġpredic": 935,
      "Ġfram": 936,
      "Ġcontrol": 937,
      "elop": 938,
      "imensional": 939,
      "Ġcond": 940,
      "ose": 941,
      "ord": 942,
      "Ġfl": 943,
      "ik": 944,
      "Ġreal": 945,
      "Ġorder": 946,
      "Ġtyp": 947,
      "ically": 948,
      "Ġmass": 949,
      "Ġtechn": 950,
      "Ġanalysis": 951,
      "Ġoper": 952,
      "acter": 953,
      "ann": 954,
      "Ġfirst": 955,
      "Ġintrod": 956,
      "Ġspectr": 957,
      "atic": 958,
      "Ġsm": 959,
      "uce": 960,
      "Ġenergy": 961,
      "Ġdevelop": 962,
      "atter": 963,
      "Ġinto": 964,
      "Ġknow": 965,
      "ities": 966,
      "$,": 967,
      "Ġmo": 968,
      "Ġ3": 969,
      "Ġgroup": 970,
      "Ġup": 971,
      "art": 972,
      "teg": 973,
      "tig": 974,
      "old": 975,
      "Ġobtain": 976,
      "lud": 977,
      "Ġwhen": 978,
      "Ġcomplex": 979,
      "anguage": 980,
      "ene": 981,
      "ework": 982,
      "Ġsing": 983,
      "ery": 984,
      "Ġimpro": 985,
      "chi": 986,
      "arg": 987,
      "ix": 988,
      "Ġthan": 989,
      "led": 990,
      "ases": 991,
      "ages": 992,
      "bit": 993,
      "ality": 994,
      "owever": 995,
      "irec": 996,
      "Ġcharacter": 997,
      "Ġonly": 998,
      "hem": 999,
      "Ġdemonstr": 1000,
      "ll": 1001,
      "als": 1002,
      "ĠCom": 1003,
      "xim": 1004,
      "ĠPro": 1005,
      "Ġdescri": 1006,
      "cal": 1007,
      "{\\": 1008,
      "ss": 1009,
      "Ġam": 1010,
      "atis": 1011,
      "Ġnetworks": 1012,
      "Ġtra": 1013,
      "iti": 1014,
      "Ġgra": 1015,
      "$.": 1016,
      "echan": 1017,
      "Ġproperties": 1018,
      "ological": 1019,
      "vestig": 1020,
      "Ġsome": 1021,
      "Ġother": 1022,
      "Ġframework": 1023,
      "Ġatt": 1024,
      "Ġdom": 1025,
      "Ġbut": 1026,
      "rough": 1027,
      "Ġaut": 1028,
      "aces": 1029,
      "icient": 1030,
      "Ġcorre": 1031,
      "ification": 1032,
      "Ġdesign": 1033,
      "over": 1034,
      "ained": 1035,
      "Ġeach": 1036,
      "Ġinvestig": 1037,
      "Ġder": 1038,
      "jec": 1039,
      "bed": 1040,
      "geb": 1041,
      "Ġy": 1042,
      "19": 1043,
      "the": 1044,
      "Ġfeature": 1045,
      "Ġachi": 1046,
      "Ġphysics": 1047,
      "elf": 1048,
      "Ġinclud": 1049,
      "Ġcap": 1050,
      "Ġtop": 1051,
      "mat": 1052,
      "dom": 1053,
      "Ġlocal": 1054,
      "ĠMod": 1055,
      "avi": 1056,
      "Ġtem": 1057,
      "Ġdens": 1058,
      "Ġinteg": 1059,
      "upl": 1060,
      "Ġsimul": 1061,
      "anti": 1062,
      "ĠOn": 1063,
      "ology": 1064,
      "Ġterm": 1065,
      "Ġhy": 1066,
      "Ġdepend": 1067,
      "ators": 1068,
      "onic": 1069,
      "ected": 1070,
      "Ġlinear": 1071,
      "con": 1072,
      "av": 1073,
      "Ġtheore": 1074,
      "ental": 1075,
      "Ġexpl": 1076,
      "etry": 1077,
      "ĠSt": 1078,
      "Ġsec": 1079,
      "Ġdatas": 1080,
      "ĠTo": 1081,
      "dimensional": 1082,
      "por": 1083,
      "Ġinv": 1084,
      "astic": 1085,
      "Ġlow": 1086,
      "Ġanaly": 1087,
      "ĠUn": 1088,
      "ness": 1089,
      "Ġhe": 1090,
      "ĠTransformer": 1091,
      "Ġphase": 1092,
      "Ġj": 1093,
      "Ġastr": 1094,
      "Ġmany": 1095,
      "ĠHowever": 1096,
      "ĠEn": 1097,
      "Ġsem": 1098,
      "Ġmin": 1099,
      "Ġprob": 1100,
      "sing": 1101,
      "acy": 1102,
      "vely": 1103,
      "Ġbl": 1104,
      "Ġthere": 1105,
      "Ġstates": 1106,
      "lation": 1107,
      "Ġcal": 1108,
      "ĠFor": 1109,
      "rent": 1110,
      "07": 1111,
      "Ġthrough": 1112,
      "Ġthree": 1113,
      "Ġexam": 1114,
      "Ġmechan": 1115,
      "mathb": 1116,
      "Ġval": 1117,
      "ode": 1118,
      "Ġstar": 1119,
      "Ġdirec": 1120,
      "Ġpower": 1121,
      "face": 1122,
      "Ġdynamics": 1123,
      "Ġapplications": 1124,
      "Ġallow": 1125,
      "Ġfind": 1126,
      "Ġany": 1127,
      "Ġradi": 1128,
      "Ġpot": 1129,
      "Ġ-": 1130,
      "ex": 1131,
      "ions": 1132,
      "Ġapproxim": 1133,
      "Ġdistribution": 1134,
      "ĠIt": 1135,
      "bin": 1136,
      "ft": 1137,
      "Ġlanguage": 1138,
      "Ġstrong": 1139,
      "Ġprovide": 1140,
      "Ġtechniqu": 1141,
      "ful": 1142,
      "oun": 1143,
      "Ġspin": 1144,
      "Ġfunctions": 1145,
      "Ġagent": 1146,
      "ples": 1147,
      "ivers": 1148,
      "Ġsingle": 1149,
      "ross": 1150,
      "Ġincre": 1151,
      "Ġmagnetic": 1152,
      "earning": 1153,
      "Ġaccur": 1154,
      "Ġcase": 1155,
      "Ġsequ": 1156,
      "Ġsens": 1157,
      "Ġbeh": 1158,
      "Ġlat": 1159,
      "par": 1160,
      "Ġfinite": 1161,
      "inc": 1162,
      "itive": 1163,
      "ication": 1164,
      "ward": 1165,
      "Ġprovid": 1166,
      "Ġparticular": 1167,
      "Ġmost": 1168,
      "Ġastro": 1169,
      "Ġposs": 1170,
      "Ġtasks": 1171,
      "rm": 1172,
      "mp": 1173,
      "Ġer": 1174,
      "oci": 1175,
      "Ġneural": 1176,
      "Ġimport": 1177,
      "inu": 1178,
      "ĠLearning": 1179,
      "LG": 1180,
      "ĠMulti": 1181,
      "Ġif": 1182,
      "Ġhow": 1183,
      "Ġproblems": 1184,
      "ole": 1185,
      "Ġsignific": 1186,
      "Ġdist": 1187,
      "ices": 1188,
      "ption": 1189,
      "isting": 1190,
      "entr": 1191,
      "Ġdeterm": 1192,
      "Ġdomain": 1193,
      "ER": 1194,
      "ared": 1195,
      "ission": 1196,
      "mathbb": 1197,
      "ike": 1198,
      "Ġsymm": 1199,
      "ier": 1200,
      "urb": 1201,
      "ĠModel": 1202,
      "Ġcoupl": 1203,
      "Ġfact": 1204,
      "ĠNetwork": 1205,
      "achine": 1206,
      "Ġevalu": 1207,
      "lish": 1208,
      "Ġchall": 1209,
      "ĠCh": 1210,
      "Ġpotential": 1211,
      "ength": 1212,
      "Ġprove": 1213,
      "Ġcr": 1214,
      "its": 1215,
      "ences": 1216,
      "erical": 1217,
      "Ġrandom": 1218,
      "ĠRec": 1219,
      "uster": 1220,
      "Ġresult": 1221,
      "Ġplan": 1222,
      "Ġnovel": 1223,
      "Ġparameters": 1224,
      "Ġvia": 1225,
      "uring": 1226,
      "Ġgiven": 1227,
      "eta": 1228,
      "Ġsmall": 1229,
      "ock": 1230,
      "resp": 1231,
      "Ġcalc": 1232,
      "Ġlead": 1233,
      "ference": 1234,
      "chit": 1235,
      "Ġresp": 1236,
      "Ġequations": 1237,
      "Ġsignificant": 1238,
      "Ġge": 1239,
      "Ġequation": 1240,
      "com": 1241,
      "Ġalgeb": 1242,
      "Ġrob": 1243,
      "fl": 1244,
      "Ġachiev": 1245,
      "time": 1246,
      "everal": 1247,
      "Ġflow": 1248,
      "Ġtraining": 1249,
      "ditions": 1250,
      "Ġbehavi": 1251,
      "Ġdemonstrate": 1252,
      "ector": 1253,
      "Ġalgorithms": 1254,
      "Ġmean": 1255,
      "eg": 1256,
      "Ġtest": 1257,
      "Ġdue": 1258,
      "ĠQu": 1259,
      "duced": 1260,
      "vious": 1261,
      "alax": 1262,
      "Ġag": 1263,
      "iron": 1264,
      "Ġmultiple": 1265,
      "Ġser": 1266,
      "round": 1267,
      "ind": 1268,
      "Ġthen": 1269,
      "linear": 1270,
      "Ġ\"": 1271,
      "requ": 1272,
      "inf": 1273,
      "Ġdiff": 1274,
      "abil": 1275,
      "Ġcombin": 1276,
      "orph": 1277,
      "sp": 1278,
      "Ġconditions": 1279,
      "ĠAl": 1280,
      "Ġlong": 1281,
      "Ġfr": 1282,
      "Ġsolutions": 1283,
      "aw": 1284,
      "Ġminim": 1285,
      "Ġsolution": 1286,
      "Ġenc": 1287,
      "ised": 1288,
      "Ġimprove": 1289,
      "ependent": 1290,
      "ayer": 1291,
      "Ġconn": 1292,
      "Ġwhile": 1293,
      "ĠNe": 1294,
      "Ġdensity": 1295,
      "perature": 1296,
      "annel": 1297,
      "ood": 1298,
      "Ġmay": 1299,
      "ving": 1300,
      "au": 1301,
      "tics": 1302,
      "ĠDe": 1303,
      "Ġphot": 1304,
      "Ġmak": 1305,
      "uld": 1306,
      "respond": 1307,
      "ĠAs": 1308,
      "ten": 1309,
      "ogn": 1310,
      "uction": 1311,
      "viron": 1312,
      "actions": 1313,
      "Ġwas": 1314,
      "chitect": 1315,
      "stand": 1316,
      "Ġav": 1317,
      "Ġprot": 1318,
      "axim": 1319,
      "Ġcommun": 1320,
      "ĠSy": 1321,
      "ĠSp": 1322,
      "ines": 1323,
      "Ġbi": 1324,
      "utr": 1325,
      "Ġimage": 1326,
      "Ġcorrespond": 1327,
      "Ġintegr": 1328,
      "lo": 1329,
      "chitecture": 1330,
      "equ": 1331,
      "ormal": 1332,
      "ved": 1333,
      "ings": 1334,
      "Ġseveral": 1335,
      "duction": 1336,
      "Ġdeep": 1337,
      "Ġrem": 1338,
      "pre": 1339,
      "ditional": 1340,
      "10": 1341,
      "Ġful": 1342,
      "Ġterms": 1343,
      "Ġthey": 1344,
      "atural": 1345,
      "Ġassoci": 1346,
      "rid": 1347,
      "Ġfeatures": 1348,
      "Ġoptimal": 1349,
      "ld": 1350,
      "odes": 1351,
      "Ġrequire": 1352,
      "ie": 1353,
      "ledge": 1354,
      "Ġbec": 1355,
      "Ġdiscus": 1356,
      "Ġver": 1357,
      "Ġspe": 1358,
      "Ġself": 1359,
      "Ġprog": 1360,
      "ler": 1361,
      "Ġconver": 1362,
      "Ġgl": 1363,
      "Ġwave": 1364,
      "Ġquanti": 1365,
      "Ġz": 1366,
      "Ġ0": 1367,
      "Ġdeg": 1368,
      "ances": 1369,
      "Ġimportant": 1370,
      "Ġmon": 1371,
      "ink": 1372,
      "Ġdefin": 1373,
      "Ġschem": 1374,
      "tice": 1375,
      "Ġerr": 1376,
      "Ġbas": 1377,
      "Ġcontinu": 1378,
      "Ġassum": 1379,
      ".,": 1380,
      "app": 1381,
      "Ġmechanism": 1382,
      "lement": 1383,
      "Ġextend": 1384,
      "izing": 1385,
      "Ġgalax": 1386,
      "Ġprevious": 1387,
      "Ġcalcul": 1388,
      "NN": 1389,
      "Ġcoll": 1390,
      "mathcal": 1391,
      "Ġderiv": 1392,
      "Ġhep": 1393,
      "ling": 1394,
      "rix": 1395,
      "uper": 1396,
      "mentation": 1397,
      "Ġintroduce": 1398,
      "Ġenviron": 1399,
      "uted": 1400,
      "icro": 1401,
      "Ġobtained": 1402,
      "Ġtemperature": 1403,
      "ays": 1404,
      "Ġknown": 1405,
      "Ġdetection": 1406,
      "Ġexperiments": 1407,
      "Ġcluster": 1408,
      "Ġinst": 1409,
      "uman": 1410,
      "och": 1411,
      "Ġformul": 1412,
      "Ġarchitecture": 1413,
      "ĠX": 1414,
      "Ġlevel": 1415,
      "Ġstat": 1416,
      "Ġcontext": 1417,
      "_{\\": 1418,
      "ese": 1419,
      "Ġsimple": 1420,
      "Ġsurface": 1421,
      "200": 1422,
      "Ġdr": 1423,
      "(\\": 1424,
      "Ġrecent": 1425,
      "erg": 1426,
      "Ġwithout": 1427,
      "Ġparameter": 1428,
      "Ġincluding": 1429,
      "Ġconstrain": 1430,
      "urther": 1431,
      "12": 1432,
      "Ġtype": 1433,
      "Ġmaxim": 1434,
      "andard": 1435,
      "ps": 1436,
      "ĠAd": 1437,
      "ixed": 1438,
      "Ġrate": 1439,
      "sh": 1440,
      "oy": 1441,
      "ables": 1442,
      "08": 1443,
      "Ġinvestigate": 1444,
      "usion": 1445,
      "irc": 1446,
      "ilar": 1447,
      "Ġflu": 1448,
      "Ġsame": 1449,
      "Ġinput": 1450,
      "CL": 1451,
      "ression": 1452,
      "ron": 1453,
      "Ġvarious": 1454,
      "Ġapproaches": 1455,
      "omial": 1456,
      "Ġwithin": 1457,
      "ces": 1458,
      "cc": 1459,
      "Ġdiscuss": 1460,
      "Ġautom": 1461,
      "ocus": 1462,
      "ray": 1463,
      "Ġlearn": 1464,
      "Ġeffect": 1465,
      "Ġspati": 1466,
      "Ġobserved": 1467,
      "Ġfields": 1468,
      "ĠUsing": 1469,
      "ale": 1470,
      "Ġcurrent": 1471,
      "Ġconv": 1472,
      "Ġdimension": 1473,
      "tivity": 1474,
      "Ġimple": 1475,
      "fficient": 1476,
      "order": 1477,
      "ton": 1478,
      "201": 1479,
      "11": 1480,
      "Ġshown": 1481,
      "tiv": 1482,
      "Ġagents": 1483,
      "reat": 1484,
      "Ġfound": 1485,
      "io": 1486,
      "pro": 1487,
      "Ġfrequ": 1488,
      "not": 1489,
      "Ġclassical": 1490,
      "Ġcompon": 1491,
      "Ġvis": 1492,
      "ice": 1493,
      "plicit": 1494,
      "Ġobjec": 1495,
      "Ġmed": 1496,
      "ĠThese": 1497,
      "09": 1498,
      "agent": 1499,
      "Ġadd": 1500,
      "Ġwill": 1501,
      "Ġstatis": 1502,
      "Ġstrate": 1503,
      "Ġdescrib": 1504,
      "Ġintroduc": 1505,
      "Ġchalleng": 1506,
      "eter": 1507,
      "her": 1508,
      "ĠSystem": 1509,
      "erial": 1510,
      "ĠDis": 1511,
      "Ġconf": 1512,
      "row": 1513,
      "Ġeffective": 1514,
      "Ġattention": 1515,
      "Ġneutr": 1516,
      "ement": 1517,
      "oss": 1518,
      "ching": 1519,
      "Ġrange": 1520,
      "Ġmachine": 1521,
      "Ġ4": 1522,
      "Ġexisting": 1523,
      "tically": 1524,
      "Ġeffects": 1525,
      "oder": 1526,
      "Ġlight": 1527,
      "til": 1528,
      "less": 1529,
      "iter": 1530,
      "onal": 1531,
      "Ġchannel": 1532,
      "ising": 1533,
      "Ġtherm": 1534,
      "Ġiniti": 1535,
      "ata": 1536,
      "Ġknowledge": 1537,
      "Ġcri": 1538,
      "ĠInter": 1539,
      "cl": 1540,
      "18": 1541,
      "Ġtransition": 1542,
      "Ġgeom": 1543,
      "CO": 1544,
      "Ġ5": 1545,
      "ĠOp": 1546,
      "Ġnuc": 1547,
      "Ġfocus": 1548,
      "inary": 1549,
      "Ġnumerical": 1550,
      "Ġdi": 1551,
      "ified": 1552,
      "}\\": 1553,
      "opic": 1554,
      "Ġassociated": 1555,
      "Ġevolution": 1556,
      "amb": 1557,
      "Ġins": 1558,
      "ane": 1559,
      "ival": 1560,
      "epar": 1561,
      "iod": 1562,
      "Ġu": 1563,
      "ĠGener": 1564,
      "oints": 1565,
      "Ġsize": 1566,
      "ERT": 1567,
      "Ġed": 1568,
      "Ġinteraction": 1569,
      "ST": 1570,
      "Ġasy": 1571,
      "Ġdiscre": 1572,
      "Ġpop": 1573,
      "lear": 1574,
      "Ġadv": 1575,
      "Ġlog": 1576,
      "Ġsecond": 1577,
      "Ġpair": 1578,
      "amma": 1579,
      "tively": 1580,
      "ner": 1581,
      "Ġexist": 1582,
      "lection": 1583,
      "Ġsimulations": 1584,
      "Ġthem": 1585,
      "Ġdetermin": 1586,
      "Ġhigher": 1587,
      "Ġcoun": 1588,
      "Ġmap": 1589,
      "Ġhuman": 1590,
      "Ġnatural": 1591,
      "Ġstandard": 1592,
      "ture": 1593,
      "pha": 1594,
      "one": 1595,
      "Ġmem": 1596,
      "man": 1597,
      "ĠFin": 1598,
      "Ġnear": 1599,
      "ablish": 1600,
      "Ġred": 1601,
      "Ġeffici": 1602,
      "Ġint": 1603,
      "oding": 1604,
      "Ġvi": 1605,
      "vari": 1606,
      "Ġpolar": 1607,
      "obal": 1608,
      "Ġpossible": 1609,
      "idual": 1610,
      "Ġmatrix": 1611,
      "Ġmicro": 1612,
      "Ġimages": 1613,
      "ollow": 1614,
      "Ġtechniques": 1615,
      "alues": 1616,
      "Ġembed": 1617,
      "establish": 1618,
      "ĠDeep": 1619,
      "Ġoptimization": 1620,
      "ient": 1621,
      "Ġclassification": 1622,
      "abel": 1623,
      "ploy": 1624,
      "ognition": 1625,
      "ero": 1626,
      "Ġaccuracy": 1627,
      "ants": 1628,
      "Ġgraphs": 1629,
      "ogene": 1630,
      "Ġanalyz": 1631,
      "Ġappl": 1632,
      "Ġ=": 1633,
      "ensive": 1634,
      "alled": 1635,
      "itud": 1636,
      "AI": 1637,
      "CV": 1638,
      "line": 1639,
      "auss": 1640,
      "Ġweak": 1641,
      "Ġback": 1642,
      "Ġcritical": 1643,
      "Ġeven": 1644,
      "ras": 1645,
      "Ġunderstand": 1646,
      "ange": 1647,
      "uil": 1648,
      "ĠAt": 1649,
      "times": 1650,
      "Ġrepresentation": 1651,
      "ins": 1652,
      "Ġmatter": 1653,
      "Ġvery": 1654,
      "Ġbehavior": 1655,
      "right": 1656,
      "sim": 1657,
      "Ġrobust": 1658,
      "Ġsequence": 1659,
      "Ġtransform": 1660,
      "Ġtak": 1661,
      "lying": 1662,
      "Ġconstruct": 1663,
      "ough": 1664,
      "Ġestablish": 1665,
      "ĠPre": 1666,
      "Ġcos": 1667,
      "Ġsearch": 1668,
      "Ġtheorem": 1669,
      "Ġhyper": 1670,
      "Ġvalue": 1671,
      "Ġend": 1672,
      "ochastic": 1673,
      "Ġalgebra": 1674,
      "flu": 1675,
      "Ġfurther": 1676,
      "Ġdatasets": 1677,
      "Ġprocesses": 1678,
      "ĠHere": 1679,
      "Ġtarg": 1680,
      "Ġspaces": 1681,
      "Ġcompar": 1682,
      "ware": 1683,
      "Ġsum": 1684,
      ",\\": 1685,
      "Ġavail": 1686,
      "Ġconst": 1687,
      "alpha": 1688,
      "Ġi": 1689,
      "ules": 1690,
      "poral": 1691,
      "cit": 1692,
      "ynomial": 1693,
      "Ġdirect": 1694,
      "ĠCo": 1695,
      "Ġstochastic": 1696,
      "Ġinterest": 1697,
      "ily": 1698,
      "Ġerror": 1699,
      "Ġinteractions": 1700,
      "Ġprobability": 1701,
      "Ġefficient": 1702,
      "Ġallows": 1703,
      "etter": 1704,
      "Ġgeneration": 1705,
      "red": 1706,
      "Ġcompared": 1707,
      "gg": 1708,
      "Ġrelations": 1709,
      "Ġgrow": 1710,
      "inal": 1711,
      "ories": 1712,
      "ticle": 1713,
      "ĠCl": 1714,
      "Ġdataset": 1715,
      "Ġpoints": 1716,
      "--": 1717,
      "15": 1718,
      "ources": 1719,
      "Ġclos": 1720,
      "Ġmeasurements": 1721,
      "de": 1722,
      "ify": 1723,
      "turb": 1724,
      "$_": 1725,
      "Ġboundary": 1726,
      "Ġmet": 1727,
      "entral": 1728,
      "Ġconverg": 1729,
      "Ġgroups": 1730,
      "vised": 1731,
      "sequ": 1732,
      "asing": 1733,
      "ĠMore": 1734,
      "Ġaddress": 1735,
      "Ġsetting": 1736,
      "Ġparti": 1737,
      "ĠNeural": 1738,
      "imes": 1739,
      "ame": 1740,
      "Ġsimilar": 1741,
      "Ġcer": 1742,
      "Ġgive": 1743,
      "da": 1744,
      "Ġprod": 1745,
      "mpto": 1746,
      "olds": 1747,
      "Ġobservations": 1748,
      "ced": 1749,
      "Ġtransformer": 1750,
      "Ġscen": 1751,
      "Ġconsist": 1752,
      "Ġques": 1753,
      "scale": 1754,
      "Ġwere": 1755,
      "Ġcommon": 1756,
      "amil": 1757,
      "Ġpath": 1758,
      "bitr": 1759,
      "Ġmagn": 1760,
      "Ġregular": 1761,
      "Ġduring": 1762,
      "Ġmom": 1763,
      "Ġprovides": 1764,
      "Ġatom": 1765,
      "ains": 1766,
      "orld": 1767,
      "verage": 1768,
      "Ġmaterial": 1769,
      "Ġopen": 1770,
      "Ġorig": 1771,
      "ns": 1772,
      "Ġmolec": 1773,
      "tex": 1774,
      "14": 1775,
      "Ġapplication": 1776,
      "Ġstructures": 1777,
      "port": 1778,
      "pe": 1779,
      "Ġnonlinear": 1780,
      "ok": 1781,
      "Ġscale": 1782,
      "13": 1783,
      "Ġide": 1784,
      "Ġcorresponding": 1785,
      "tif": 1786,
      "Ġlo": 1787,
      "Ġscheme": 1788,
      "ĠNetworks": 1789,
      "IT": 1790,
      "Ġmodeling": 1791,
      "Ġcontrib": 1792,
      "ount": 1793,
      "Ġdef": 1794,
      "Ġcorrec": 1795,
      "Ġapplied": 1796,
      "Ġsepar": 1797,
      "Ġrepresentations": 1798,
      "verse": 1799,
      "Ġcirc": 1800,
      "aussian": 1801,
      "16": 1802,
      "ety": 1803,
      "Ġfollow": 1804,
      "ambda": 1805,
      "Ġfil": 1806,
      "Ġapproximation": 1807,
      "AS": 1808,
      "Ġbuil": 1809,
      "Ġtopological": 1810,
      "Ġbetter": 1811,
      "Ġadap": 1812,
      "Ġsuc": 1813,
      "}(": 1814,
      "ustr": 1815,
      "ench": 1816,
      "like": 1817,
      "Ġpri": 1818,
      "ols": 1819,
      "Ġelectron": 1820,
      "Ġblack": 1821,
      "Ġexperimental": 1822,
      "Ġavailable": 1823,
      "Ġoptical": 1824,
      "Ġarbitr": 1825,
      "Ġspatial": 1826,
      "ually": 1827,
      "Ġpolynomial": 1828,
      "mu": 1829,
      "mark": 1830,
      "Ġlattice": 1831,
      "Ġstudies": 1832,
      "tation": 1833,
      "cept": 1834,
      "ocal": 1835,
      "eness": 1836,
      "ule": 1837,
      "Ġcontinuous": 1838,
      "ether": 1839,
      "oring": 1840,
      "atisf": 1841,
      "Ġscatter": 1842,
      "ists": 1843,
      "ogeneous": 1844,
      "itions": 1845,
      "Ġ201": 1846,
      "$\\": 1847,
      "Ġprogram": 1848,
      "Ġcases": 1849,
      "olic": 1850,
      "ta": 1851,
      "Ġexplicit": 1852,
      "Ġprinc": 1853,
      "Ġenvironment": 1854,
      "ibility": 1855,
      "oid": 1856,
      "Ġcondition": 1857,
      "fore": 1858,
      "Ġoften": 1859,
      "Ġway": 1860,
      "Ġinitial": 1861,
      "Ġtarget": 1862,
      "Ġgu": 1863,
      "Ġcharacteristic": 1864,
      "Ġinvol": 1865,
      "eV": 1866,
      "ĠRes": 1867,
      "Ġindiv": 1868,
      "Ġent": 1869,
      "ots": 1870,
      "Ġcomputation": 1871,
      "orce": 1872,
      "Ġcomputational": 1873,
      "Ġglobal": 1874,
      "Ġscenari": 1875,
      "arm": 1876,
      "onduct": 1877,
      "Ġrelated": 1878,
      "text": 1879,
      "izes": 1880,
      "ID": 1881,
      "bers": 1882,
      "Ġrele": 1883,
      "Ġprom": 1884,
      "Ġfree": 1885,
      "Ġpers": 1886,
      "Ġsuccess": 1887,
      "aging": 1888,
      "Ġpositive": 1889,
      "Ġcertain": 1890,
      "Ġgo": 1891,
      "Ġloss": 1892,
      "Ġutil": 1893,
      "Ġprac": 1894,
      "Ġcaus": 1895,
      "Ġhom": 1896,
      "level": 1897,
      "dings": 1898,
      "Ġconstraints": 1899,
      "vex": 1900,
      "ffici": 1901,
      "Ġcross": 1902,
      "Ġsets": 1903,
      "Ġgenerated": 1904,
      "Ġformation": 1905,
      "set": 1906,
      "Ġinf": 1907,
      "uture": 1908,
      "Ġshort": 1909,
      "Ġtransfer": 1910,
      "Ġlower": 1911,
      "Ġphysical": 1912,
      "tit": 1913,
      "ĠIm": 1914,
      "ately": 1915,
      "Ġrecently": 1916,
      "ooth": 1917,
      "Ġperiod": 1918,
      "ĠZ": 1919,
      "Ġoperators": 1920,
      "ĠAnal": 1921,
      "Ġestimation": 1922,
      "Ġcy": 1923,
      "Ġvalues": 1924,
      "ute": 1925,
      "Ġword": 1926,
      "Ġexcit": 1927,
      "Ġhand": 1928,
      "Ġwid": 1929,
      "ellar": 1930,
      "ears": 1931,
      "Ġsugg": 1932,
      "till": 1933,
      "aves": 1934,
      "Ġvol": 1935,
      "Ġcomplexity": 1936,
      "ĠPar": 1937,
      "ocial": 1938,
      "perform": 1939,
      "^{-": 1940,
      "Ġcoupling": 1941,
      "AP": 1942,
      "Ġaff": 1943,
      "Ġstudied": 1944,
      "alle": 1945,
      "Ġpolic": 1946,
      "vit": 1947,
      "Ġsatisf": 1948,
      "Ġindividual": 1949,
      "Ġfrequency": 1950,
      "ĠBy": 1951,
      "Ġfour": 1952,
      "Ġenh": 1953,
      "Ġinvari": 1954,
      "Ġpatter": 1955,
      "Ġsymmetry": 1956,
      "ayers": 1957,
      "Ġcode": 1958,
      "ML": 1959,
      "Ġdeveloped": 1960,
      "gies": 1961,
      "Ġstars": 1962,
      "Ġexplore": 1963,
      "Ġquas": 1964,
      "ould": 1965,
      "}^": 1966,
      "Ġconstant": 1967,
      "oper": 1968,
      "}_": 1969,
      "anced": 1970,
      "Ġnoise": 1971,
      "own": 1972,
      "Ġinfin": 1973,
      "Ġcost": 1974,
      "Ġdistributed": 1975,
      "ĠCO": 1976,
      "Ġocc": 1977,
      "ĠSim": 1978,
      "ynamic": 1979,
      "ick": 1980,
      "view": 1981,
      "ĠSpec": 1982,
      "Ġprec": 1983,
      "Ġfactor": 1984,
      "Ġband": 1985,
      "aneous": 1986,
      "Ġperturb": 1987,
      "roup": 1988,
      "ĠPh": 1989,
      "Ġsuggest": 1990,
      "Ġcosm": 1991,
      "Ġspectral": 1992,
      "Ġindic": 1993,
      "Ġasympto": 1994,
      "Ġdynamic": 1995,
      "Ġsoft": 1996,
      "Ġprocessing": 1997,
      "ium": 1998,
      "Ġgalaxies": 1999,
      "Ġconvergence": 2000,
      "dient": 2001,
      "eloc": 2002,
      "tention": 2003,
      "Ġvector": 2004,
      "Ġspectrum": 2005,
      "Ġcontain": 2006,
      "Ġpresented": 2007,
      "Ġregion": 2008,
      "hib": 2009,
      "faces": 2010,
      "therm": 2011,
      "Ġgeneralized": 2012,
      "Ġcommunication": 2013,
      "Ġlarg": 2014,
      "Ġdecision": 2015,
      "Ġthose": 2016,
      "Ġvers": 2017,
      "Ġachieve": 2018,
      "igma": 2019,
      "Ġdetect": 2020,
      "Ġderive": 2021,
      "Ġfew": 2022,
      "Ġnan": 2023,
      "reg": 2024,
      "ĠData": 2025,
      "Ġcorrel": 2026,
      "Ġexpon": 2027,
      "aj": 2028,
      "ste": 2029,
      "tropy": 2030,
      "Ġsimulation": 2031,
      "Ġtechnique": 2032,
      "ĠStr": 2033,
      "ult": 2034,
      "Ġsample": 2035,
      "Ġpub": 2036,
      "ensor": 2037,
      "inforce": 2038,
      "Ġdel": 2039,
      "Ġconsidered": 2040,
      "ĠGaussian": 2041,
      "scill": 2042,
      "Ġdiscrete": 2043,
      "\\'": 2044,
      "Ġreport": 2045,
      "Ġprediction": 2046,
      "AR": 2047,
      "ĠY": 2048,
      "Ġabs": 2049,
      "Ġexistence": 2050,
      "Ġfuture": 2051,
      "dro": 2052,
      "Ġlength": 2053,
      "allel": 2054,
      "inforcement": 2055,
      "ĠAc": 2056,
      "undam": 2057,
      "Ġsignal": 2058,
      "onom": 2059,
      "Ġline": 2060,
      "hip": 2061,
      "Ġproof": 2062,
      "Ġspecific": 2063,
      "fr": 2064,
      "Ġtri": 2065,
      "ĠSch": 2066,
      "Ġcar": 2067,
      "Ġdark": 2068,
      "Ġstep": 2069,
      "fter": 2070,
      "ĠFinally": 2071,
      "Ġscattering": 2072,
      "iss": 2073,
      "Ġimplement": 2074,
      "Ġnormal": 2075,
      "Ġ--": 2076,
      "Ġcell": 2077,
      "Ġcre": 2078,
      "iform": 2079,
      "Ġexamples": 2080,
      "Ġinterpre": 2081,
      "Ġamong": 2082,
      "Ġfixed": 2083,
      "Ġquant": 2084,
      "Ġaddition": 2085,
      "Ġveloc": 2086,
      "Ġpart": 2087,
      "Ġprotoc": 2088,
      "Ġintroduced": 2089,
      "Ġcate": 2090,
      "trained": 2091,
      "ody": 2092,
      "Ġens": 2093,
      "Ġdefined": 2094,
      "Ġgas": 2095,
      "ope": 2096,
      "Ġhel": 2097,
      "ination": 2098,
      "Ġmoment": 2099,
      "Ġscalar": 2100,
      "ompos": 2101,
      "Ġtheoretical": 2102,
      "ĠSystems": 2103,
      "Ġefficiency": 2104,
      "mathrm": 2105,
      "Ġalong": 2106,
      "Ġoutperform": 2107,
      "Ġacross": 2108,
      "}$,": 2109,
      "Ġreson": 2110,
      "mission": 2111,
      "Ġang": 2112,
      "ĠWith": 2113,
      "tices": 2114,
      "MA": 2115,
      "Ġquality": 2116,
      "Ġcalled": 2117,
      "Ġarbitrary": 2118,
      "Ġunivers": 2119,
      "rec": 2120,
      "ĠAr": 2121,
      "Ġexperiment": 2122,
      "25": 2123,
      "Ġdescribe": 2124,
      "rem": 2125,
      "Ġ10": 2126,
      "Ġet": 2127,
      "pag": 2128,
      "Ġvalid": 2129,
      "Ġdistributions": 2130,
      "omorph": 2131,
      "ĠDet": 2132,
      "ideo": 2133,
      "jecture": 2134,
      "urrent": 2135,
      "Ġsignificantly": 2136,
      "tional": 2137,
      "med": 2138,
      "Ġill": 2139,
      "enom": 2140,
      "Ġtransport": 2141,
      "Ġoperator": 2142,
      "ajor": 2143,
      "Ġchang": 2144,
      "enchmark": 2145,
      "ĠAut": 2146,
      "Ġpresence": 2147,
      "ĠQuantum": 2148,
      "Ġseries": 2149,
      "Ġexpress": 2150,
      "know": 2151,
      "ĠApp": 2152,
      "ecess": 2153,
      "ired": 2154,
      "ibri": 2155,
      "Ġel": 2156,
      "upervised": 2157,
      "Ġevery": 2158,
      "Ġ6": 2159,
      "Ġderived": 2160,
      "Ġbest": 2161,
      "val": 2162,
      "Ġtypes": 2163,
      "ights": 2164,
      "\\\"": 2165,
      "Ġmanif": 2166,
      "ĠOptim": 2167,
      "ground": 2168,
      "Ġlayer": 2169,
      "Ġimpact": 2170,
      "Ġincreasing": 2171,
      "ream": 2172,
      "ason": 2173,
      "eck": 2174,
      "Ġcollec": 2175,
      "ade": 2176,
      "Ġwhose": 2177,
      "Ġfundam": 2178,
      "ograph": 2179,
      "Ġrati": 2180,
      "back": 2181,
      "95": 2182,
      "ires": 2183,
      "celer": 2184,
      "Ġlink": 2185,
      "ift": 2186,
      "rees": 2187,
      "atively": 2188,
      "Ġcoe": 2189,
      "Ġdetail": 2190,
      "Ġrecognition": 2191,
      "Ġyield": 2192,
      "Ġequival": 2193,
      "Ġdistance": 2194,
      "ĠMoreover": 2195,
      "ĠNon": 2196,
      "Ġsmooth": 2197,
      "ape": 2198,
      "tal": 2199,
      "auge": 2200,
      "Ġrole": 2201,
      "uble": 2202,
      "Ġseg": 2203,
      "Ġcapture": 2204,
      "Ġsl": 2205,
      "Ġblock": 2206,
      "Ġdynamical": 2207,
      "ĠTransform": 2208,
      "Ġcollision": 2209,
      "zation": 2210,
      "onse": 2211,
      "Ġdep": 2212,
      "ilibri": 2213,
      "Ġoscill": 2214,
      "Ġrelation": 2215,
      "Ġaction": 2216,
      "Ġquestion": 2217,
      "GA": 2218,
      "Ġ$(": 2219,
      "arch": 2220,
      "Ġmemory": 2221,
      "Ġlimited": 2222,
      "MP": 2223,
      "uning": 2224,
      "Ġsupport": 2225,
      "DE": 2226,
      "Ġcompact": 2227,
      "ĠTw": 2228,
      "23": 2229,
      "Ġparticles": 2230,
      "Ġparticle": 2231,
      "Ġcomponents": 2232,
      "active": 2233,
      "ĠSh": 2234,
      "vey": 2235,
      "yst": 2236,
      "Ġexample": 2237,
      "Ġseman": 2238,
      "Ġunderstanding": 2239,
      "Ġbeam": 2240,
      "Ġdifferential": 2241,
      "Ġtoward": 2242,
      "Ġcompos": 2243,
      "Ġprior": 2244,
      "Ġprinci": 2245,
      "DS": 2246,
      "urtherm": 2247,
      "iving": 2248,
      "urthermore": 2249,
      "24": 2250,
      "Ġthus": 2251,
      "mod": 2252,
      "}$.": 2253,
      "Ġfull": 2254,
      "Ġentang": 2255,
      "ptions": 2256,
      "Ġindependent": 2257,
      "ither": 2258,
      "Ġbel": 2259,
      "ues": 2260,
      "ince": 2261,
      "ĠBERT": 2262,
      "Ġstability": 2263,
      "Ġproduc": 2264,
      "Ġemission": 2265,
      "Ġzero": 2266,
      "tries": 2267,
      "entially": 2268,
      "Ġgr": 2269,
      "tern": 2270,
      "Ġemploy": 2271,
      "Ġenti": 2272,
      "ably": 2273,
      "Ġtranslation": 2274,
      "ument": 2275,
      "enomen": 2276,
      "Ġbeing": 2277,
      "known": 2278,
      "Ġul": 2279,
      "Ġvisual": 2280,
      "Ġreve": 2281,
      "Ġobjects": 2282,
      "99": 2283,
      "Ġtimes": 2284,
      "Ġreconstr": 2285,
      "Ġlike": 2286,
      "Ġmotion": 2287,
      "Ġstatistical": 2288,
      "ming": 2289,
      "75": 2290,
      "Ġpe": 2291,
      "Ġfundamental": 2292,
      "osc": 2293,
      "Ġhal": 2294,
      "itude": 2295,
      "Ġcentral": 2296,
      "ibr": 2297,
      "osph": 2298,
      "Ġchallenging": 2299,
      "20": 2300,
      "Ġfraction": 2301,
      "Ġphenomen": 2302,
      "Ġneg": 2303,
      "lic": 2304,
      "Ġinference": 2305,
      "ĠEv": 2306,
      "free": 2307,
      "Ġmake": 2308,
      "Ġrespect": 2309,
      "Ġnecess": 2310,
      "Ġcoupled": 2311,
      "Ġcomputing": 2312,
      "ars": 2313,
      "Ġthermal": 2314,
      "Ġstrategy": 2315,
      "33": 2316,
      "wise": 2317,
      "Ġorbit": 2318,
      "Ġbenchmark": 2319,
      "Ġele": 2320,
      "ĠFurthermore": 2321,
      "Ġgenerate": 2322,
      "ior": 2323,
      "ĠPl": 2324,
      "dependent": 2325,
      "ĠMo": 2326,
      "NA": 2327,
      "Ġobject": 2328,
      "conduct": 2329,
      "ynamics": 2330,
      "ience": 2331,
      "Ġprim": 2332,
      "ĠContr": 2333,
      "Ġgravit": 2334,
      "reak": 2335,
      "hema": 2336,
      "Ġground": 2337,
      "Ġview": 2338,
      "28": 2339,
      "Ġq": 2340,
      "ash": 2341,
      "olar": 2342,
      "Ġsocial": 2343,
      "Ġcould": 2344,
      "Ġmetric": 2345,
      "Ġpul": 2346,
      "read": 2347,
      "abilities": 2348,
      "Ġhighly": 2349,
      "acking": 2350,
      "Ġproperty": 2351,
      "Ġeess": 2352,
      "Ġiss": 2353,
      "amilton": 2354,
      "Ġ{\\": 2355,
      "taneous": 2356,
      "Ġyears": 2357,
      "CD": 2358,
      "ilon": 2359,
      "elta": 2360,
      "26": 2361,
      "Ġapply": 2362,
      "ks": 2363,
      "SP": 2364,
      "ĠGraph": 2365,
      "Ġformula": 2366,
      "Ġunit": 2367,
      "Ġlabel": 2368,
      "Ġuniqu": 2369,
      "Ġspecial": 2370,
      "Ġable": 2371,
      "Ġconjecture": 2372,
      "Ġfast": 2373,
      "Ġaround": 2374,
      "ĠDes": 2375,
      "OC": 2376,
      "Ġref": 2377,
      "Ġrespec": 2378,
      "ially": 2379,
      "Ġweight": 2380,
      "Ġresulting": 2381,
      "Ġstill": 2382,
      "sy": 2383,
      "Ġoutput": 2384,
      "versari": 2385,
      "Ġmuch": 2386,
      "Ġexhib": 2387,
      "Ġshows": 2388,
      "ierarch": 2389,
      "Ġformal": 2390,
      "Ġclo": 2391,
      "27": 2392,
      "actic": 2393,
      "ox": 2394,
      "Ġnam": 2395,
      "Ġgreat": 2396,
      "ans": 2397,
      "Ġsolve": 2398,
      "ĠMark": 2399,
      "LP": 2400,
      "pr": 2401,
      "ead": 2402,
      "98": 2403,
      "Ġbounds": 2404,
      "Ġdiffic": 2405,
      "_\\": 2406,
      "Ġmeasurement": 2407,
      "ĠTransformers": 2408,
      "af": 2409,
      "Ġbinary": 2410,
      "Ġprof": 2411,
      "Ġsymmetric": 2412,
      "ometric": 2413,
      "Ġusers": 2414,
      "Ġtemporal": 2415,
      "Ġdevices": 2416,
      "ino": 2417,
      "Ġcompute": 2418,
      "Ġaccess": 2419,
      "ges": 2420,
      "Ġselec": 2421,
      "SR": 2422,
      "ii": 2423,
      "SY": 2424,
      "ilibrium": 2425,
      "Ġrun": 2426,
      "Ġproced": 2427,
      "Ġ8": 2428,
      "Ġfully": 2429,
      "Ġmassive": 2430,
      "esian": 2431,
      "Ġgauge": 2432,
      "Ġcho": 2433,
      "Ġedge": 2434,
      "Ġtrained": 2435,
      "Ġrelev": 2436,
      "brid": 2437,
      "ĠMon": 2438,
      "omal": 2439,
      "Ġparallel": 2440,
      "Ġattack": 2441,
      "Ġleads": 2442,
      "Ġpredict": 2443,
      "enge": 2444,
      "Ġflux": 2445,
      "Ġvelocity": 2446,
      "Ġclosed": 2447,
      "Ġoccur": 2448,
      "stein": 2449,
      "44": 2450,
      "ove": 2451,
      "Ġeither": 2452,
      "ĠDec": 2453,
      "Ġfam": 2454,
      "seud": 2455,
      "Ġwide": 2456,
      "dr": 2457,
      "ĠModels": 2458,
      "pling": 2459,
      "Ġprocedure": 2460,
      "Ġuniform": 2461,
      "rices": 2462,
      "encies": 2463,
      "ded": 2464,
      "Ġestimates": 2465,
      "Ġmaximum": 2466,
      "Ġjoint": 2467,
      "96": 2468,
      "urity": 2469,
      "Ġampl": 2470,
      "Ġbounded": 2471,
      "Ġgrowth": 2472,
      "Ġvariables": 2473,
      "Ġcharge": 2474,
      "Ġdevelopment": 2475,
      "Ġfunctional": 2476,
      "Ġlaw": 2477,
      ")$,": 2478,
      "ĠWhile": 2479,
      "supervised": 2480,
      "air": 2481,
      "Ġsuit": 2482,
      "Ġgap": 2483,
      "Ġdual": 2484,
      "Ġspeech": 2485,
      "ĠAppro": 2486,
      "igen": 2487,
      "ying": 2488,
      "Ġanalyze": 2489,
      "ĠAnalysis": 2490,
      "Ġdown": 2491,
      "Ġliter": 2492,
      "ĠBased": 2493,
      "olutional": 2494,
      "Ġgravity": 2495,
      "ause": 2496,
      "Ġultr": 2497,
      "97": 2498,
      "Ġelement": 2499,
      "Ġgradient": 2500,
      "ĠHamilton": 2501,
      "Ġmaterials": 2502,
      "beta": 2503,
      "ĠBay": 2504,
      "Ġsources": 2505,
      "iting": 2506,
      "ĠOb": 2507,
      "abor": 2508,
      "Ġpoly": 2509,
      "Ġcoher": 2510,
      "Ġresponse": 2511,
      "Ġhol": 2512,
      "uctu": 2513,
      "Ġspeed": 2514,
      "igur": 2515,
      "Ġcomplete": 2516,
      "Ġautomatic": 2517,
      "Ġdimensional": 2518,
      "Ġpropag": 2519,
      "Ġvariety": 2520,
      "Ġcore": 2521,
      "spec": 2522,
      "Ġfine": 2523,
      "Ġsk": 2524,
      "Ġconstruction": 2525,
      "versarial": 2526,
      "Ġevaluation": 2527,
      "Ġlayers": 2528,
      "Ġdomains": 2529,
      "36": 2530,
      "Ġcent": 2531,
      "Ġreduction": 2532,
      "Ġdouble": 2533,
      "pid": 2534,
      "Ġexplain": 2535,
      "Ġconsistent": 2536,
      "ater": 2537,
      "Ġemp": 2538,
      "ĠLanguage": 2539,
      "Ġanti": 2540,
      "Ġachieved": 2541,
      "Ġeng": 2542,
      "Ġmolecular": 2543,
      "Ġtotal": 2544,
      "Ġplas": 2545,
      "Ġillustr": 2546,
      "aries": 2547,
      "Ġrequires": 2548,
      "Ġliterature": 2549,
      "Ġclasses": 2550,
      "ifically": 2551,
      "Ġextension": 2552,
      "Ġdecompos": 2553,
      "Ġagain": 2554,
      "Ġpolicy": 2555,
      "Ġarticle": 2556,
      "ĠHigh": 2557,
      "Ġhard": 2558,
      "frac": 2559,
      "Ġexpected": 2560,
      "by": 2561,
      "Ġadditional": 2562,
      "Ġreason": 2563,
      "Ġratio": 2564,
      "Ġdiv": 2565,
      "Ġestimate": 2566,
      "Ġarg": 2567,
      "ĠThere": 2568,
      "Ġmaps": 2569,
      "Ġsph": 2570,
      "PR": 2571,
      "VID": 2572,
      "Ġexplo": 2573,
      "ĠSc": 2574,
      "Ġconduct": 2575,
      "igg": 2576,
      "Ġsw": 2577,
      "Ġgalaxy": 2578,
      "ison": 2579,
      "Ġchem": 2580,
      "Ġpriv": 2581,
      "Ġmajor": 2582,
      "log": 2583,
      "mmetric": 2584,
      "IR": 2585,
      "ighb": 2586,
      "Ġconnected": 2587,
      "Ġfeed": 2588,
      "^{\\": 2589,
      "Ġnumbers": 2590,
      "Ġiter": 2591,
      "Ġsuperconduct": 2592,
      "IM": 2593,
      "Ġeigen": 2594,
      "Ġsqu": 2595,
      "47": 2596,
      "II": 2597,
      "Ġextrem": 2598,
      "ĠTr": 2599,
      "Ġunderlying": 2600,
      "Ġrank": 2601,
      "ĠMan": 2602,
      "Ġoff": 2603,
      "Ġfamily": 2604,
      "35": 2605,
      "Ġelements": 2606,
      "Ġax": 2607,
      "Ġsamples": 2608,
      "Ġextended": 2609,
      "Ġrelative": 2610,
      "Ġaverage": 2611,
      "ĠSur": 2612,
      "ĠMat": 2613,
      "Ġinequ": 2614,
      "Ġafter": 2615,
      "Ġmodes": 2616,
      "Ġstrongly": 2617,
      "itting": 2618,
      "Ġreview": 2619,
      "Ġwaves": 2620,
      "Ġheter": 2621,
      "vature": 2622,
      "ĠDif": 2623,
      "45": 2624,
      "omm": 2625,
      "Ġdependence": 2626,
      "Ġdimensions": 2627,
      "Ġreach": 2628,
      "Ġear": 2629,
      "oll": 2630,
      "Ġdegree": 2631,
      "type": 2632,
      "ĠPr": 2633,
      "Ġupper": 2634,
      "arant": 2635,
      "38": 2636,
      "ects": 2637,
      "Ġproduct": 2638,
      "Ġinflu": 2639,
      "ives": 2640,
      "Net": 2641,
      "Ġalgebras": 2642,
      "Ġemerg": 2643,
      "jective": 2644,
      "Ġdiag": 2645,
      "hic": 2646,
      "Ġconcept": 2647,
      "pi": 2648,
      "Ġpublic": 2649,
      "Ġstellar": 2650,
      "Ġasymptotic": 2651,
      "Ġtowards": 2652,
      "Ġgravitational": 2653,
      "Ġcloud": 2654,
      "Ġfluctu": 2655,
      "acity": 2656,
      "arrow": 2657,
      "pm": 2658,
      "Ġdetermine": 2659,
      "arante": 2660,
      "Ġdecay": 2661,
      "aster": 2662,
      "Ġincor": 2663,
      "Ġ${\\": 2664,
      "Ġcorrelation": 2665,
      "Ġess": 2666,
      "Ġquad": 2667,
      "Ġradio": 2668,
      "ansion": 2669,
      "isk": 2670,
      "Ġgoal": 2671,
      "MT": 2672,
      "gan": 2673,
      "eline": 2674,
      "Ġless": 2675,
      "ĠFe": 2676,
      "Ġactive": 2677,
      "ĠExperim": 2678,
      "Ġtheories": 2679,
      "ensity": 2680,
      "wave": 2681,
      "Ġrespectively": 2682,
      "emic": 2683,
      "iral": 2684,
      "Ġacceler": 2685,
      "Ġtool": 2686,
      "Ġuseful": 2687,
      "46": 2688,
      "Ġevaluate": 2689,
      "Ġconvex": 2690,
      "Ġmatrices": 2691,
      "Ġrequired": 2692,
      "field": 2693,
      "ĠClass": 2694,
      "Ġpatterns": 2695,
      "Ġbackground": 2696,
      "ĠBayesian": 2697,
      "Ġsent": 2698,
      "lambda": 2699,
      "ĠLet": 2700,
      "Ġcomponent": 2701,
      "ativ": 2702,
      "Ġsurfaces": 2703,
      "ume": 2704,
      "Ġfail": 2705,
      "ids": 2706,
      "obile": 2707,
      "ĠNew": 2708,
      "Ġprovided": 2709,
      "gamma": 2710,
      "Ġ($": 2711,
      "Ġcounter": 2712,
      "Ġvariable": 2713,
      "ĠCOVID": 2714,
      "Ġreduc": 2715,
      "ĠOne": 2716,
      "acting": 2717,
      "Ġcoord": 2718,
      "Ġtensor": 2719,
      "Ġregime": 2720,
      "Ġstable": 2721,
      "Ġaltern": 2722,
      "Ġrelationship": 2723,
      "Ġagainst": 2724,
      "Ġentropy": 2725,
      "Ġwidely": 2726,
      "Ġreduce": 2727,
      "off": 2728,
      "rang": 2729,
      "ologies": 2730,
      "Ġfore": 2731,
      "war": 2732,
      "fficients": 2733,
      "48": 2734,
      "Ġnodes": 2735,
      "Ġempir": 2736,
      "Ġir": 2737,
      "Ġhole": 2738,
      "atur": 2739,
      "Ġperformed": 2740,
      "Ġdesigned": 2741,
      ")\\": 2742,
      "Ġproduction": 2743,
      "Ġleast": 2744,
      "ME": 2745,
      "Ġspectra": 2746,
      "ĠFirst": 2747,
      "entional": 2748,
      "Ġbecome": 2749,
      "ĠReg": 2750,
      "Ġaccurate": 2751,
      "lex": 2752,
      "ided": 2753,
      "ne": 2754,
      "Ġnature": 2755,
      "ĠDistrib": 2756,
      "ĠMe": 2757,
      "otr": 2758,
      "Ġhydro": 2759,
      "Ġchanges": 2760,
      "Ġbecause": 2761,
      "jection": 2762,
      "ignment": 2763,
      "CA": 2764,
      "Ġevents": 2765,
      "Ġvideo": 2766,
      "Ġentanglement": 2767,
      "Ġinfinite": 2768,
      "Ġfac": 2769,
      "Ġanomal": 2770,
      "ering": 2771,
      "ĠSec": 2772,
      "avy": 2773,
      "abilistic": 2774,
      "Ġgeometry": 2775,
      "Ġchallenge": 2776,
      "Ġpass": 2777,
      "chron": 2778,
      "Ġadvant": 2779,
      "Ġgood": 2780,
      "infty": 2781,
      "Ġchallenges": 2782,
      "37": 2783,
      "ĠHamiltonian": 2784,
      "ensus": 2785,
      "ĠMachine": 2786,
      "Ġtransmission": 2787,
      "Ġresolution": 2788,
      "Ġdiscover": 2789,
      "Ġmeasured": 2790,
      "ĠLie": 2791,
      "Ġselection": 2792,
      "Ġregions": 2793,
      "most": 2794,
      "Ġpseud": 2795,
      "arse": 2796,
      "left": 2797,
      "cep": 2798,
      "rel": 2799,
      "Ġsolving": 2800,
      "atform": 2801,
      "Ġmark": 2802,
      "ĠHy": 2803,
      "Ġdescription": 2804,
      "Ġachieves": 2805,
      "ĠComp": 2806,
      "Ġevent": 2807,
      "DM": 2808,
      "atch": 2809,
      "Ġpopulation": 2810,
      "uctural": 2811,
      "Ġpopular": 2812,
      "atory": 2813,
      "ĠMarkov": 2814,
      "resh": 2815,
      "Ġdirectly": 2816,
      "Ġcomputer": 2817,
      "CR": 2818,
      "present": 2819,
      "Ġconfigur": 2820,
      "alth": 2821,
      "itivity": 2822,
      "ring": 2823,
      "Ġren": 2824,
      "Ġexpansion": 2825,
      "ĠDir": 2826,
      "Ġcompare": 2827,
      "Ġmes": 2828,
      "Ġpolarization": 2829,
      "SI": 2830,
      "Ġguarante": 2831,
      "Ġonline": 2832,
      "ĠAp": 2833,
      "005": 2834,
      "Ġsumm": 2835,
      "Ġact": 2836,
      "Ġposition": 2837,
      "Ġincorpor": 2838,
      "Ġrelevant": 2839,
      "ections": 2840,
      "},": 2841,
      "den": 2842,
      "Ġcryst": 2843,
      "Ġindex": 2844,
      "Ġlik": 2845,
      "Ġcoefficients": 2846,
      "ĠUnder": 2847,
      "Ġchange": 2848,
      "pose": 2849,
      "Ġbasis": 2850,
      "mes": 2851,
      "Ġincrease": 2852,
      "hood": 2853,
      "Ġmomentum": 2854,
      "Ġcurves": 2855,
      "hom": 2856,
      "001": 2857,
      "ĠHe": 2858,
      "Ġmathema": 2859,
      "izations": 2860,
      "ellig": 2861,
      "Ġaim": 2862,
      "Ġadop": 2863,
      "ativistic": 2864,
      "Ġstrategies": 2865,
      "SE": 2866,
      "Ġnucle": 2867,
      "stric": 2868,
      "Ġinduced": 2869,
      "Ġdivers": 2870,
      "Ġcurvature": 2871,
      "Ġkernel": 2872,
      "Ġreli": 2873,
      "Ġreveal": 2874,
      "Ġpur": 2875,
      "Ġord": 2876,
      "Ġlarger": 2877,
      "ense": 2878,
      "Ġgeometric": 2879,
      "Ġscenarios": 2880,
      "Ġpresents": 2881,
      "ames": 2882,
      "Ġwhether": 2883,
      "Ġbreak": 2884,
      "Ġdomin": 2885,
      "tific": 2886,
      "Ġte": 2887,
      "alactic": 2888,
      "Ġquasi": 2889,
      "Ġclusters": 2890,
      "olation": 2891,
      "Ġsit": 2892,
      "imin": 2893,
      "Ġrates": 2894,
      "AG": 2895,
      "inos": 2896,
      "esc": 2897,
      "Ġhierarch": 2898,
      "let": 2899,
      "ĠSuper": 2900,
      "LO": 2901,
      "ging": 2902,
      "Ġstrength": 2903,
      "Ġorigin": 2904,
      "Ġx": 2905,
      "Ġexper": 2906,
      "Ġability": 2907,
      "021": 2908,
      "unction": 2909,
      "Ġnecessary": 2910,
      "geq": 2911,
      ")$.": 2912,
      "apping": 2913,
      "HE": 2914,
      "Ġanalog": 2915,
      "}}": 2916,
      "Hz": 2917,
      "Ġmatching": 2918,
      "Ġhelp": 2919,
      "berg": 2920,
      "Ġuses": 2921,
      "ched": 2922,
      "plications": 2923,
      "Ġsemi": 2924,
      "Ġdescribed": 2925,
      "ĠProcess": 2926,
      "Ġminimal": 2927,
      "Ġcalculations": 2928,
      "eti": 2929,
      "urn": 2930,
      "Ġscaling": 2931,
      "medi": 2932,
      "Ġmade": 2933,
      "Ġcannot": 2934,
      "ega": 2935,
      "ĠRob": 2936,
      "ake": 2937,
      "sigma": 2938,
      "for": 2939,
      "we": 2940,
      "ĠComput": 2941,
      "Ġsemantic": 2942,
      "ises": 2943,
      "Ġsuitable": 2944,
      "PS": 2945,
      "Ġcategor": 2946,
      "though": 2947,
      "bert": 2948,
      "ĠDetection": 2949,
      "ĠGeneral": 2950,
      "Ġinclude": 2951,
      "29": 2952,
      "Ġeas": 2953,
      "space": 2954,
      "ĠWhen": 2955,
      "ides": 2956,
      "Ġoutperforms": 2957,
      "ms": 2958,
      "Ġgeneralization": 2959,
      "Ġassumptions": 2960,
      "Ġconcern": 2961,
      "alities": 2962,
      "Ġsystematic": 2963,
      "Ġplatform": 2964,
      "Ġabove": 2965,
      "ĠOr": 2966,
      "ital": 2967,
      "Ġ7": 2968,
      "ather": 2969,
      "Ġconsequ": 2970,
      "isation": 2971,
      "Ġformulation": 2972,
      "body": 2973,
      "odal": 2974,
      "Ġrestric": 2975,
      "ĠPer": 2976,
      "tiveness": 2977,
      "ĠImp": 2978,
      "ĠRel": 2979,
      "$)": 2980,
      "Ġmechanisms": 2981,
      "int": 2982,
      "ĠLarge": 2983,
      "Ġmetr": 2984,
      "Ġgame": 2985,
      "ametric": 2986,
      "Ġarchitectures": 2987,
      "Ġshe": 2988,
      "Ġinvestigated": 2989,
      "urst": 2990,
      "enef": 2991,
      "Ġsignals": 2992,
      "Ġmeans": 2993,
      "Ġshape": 2994,
      "emb": 2995,
      "ffic": 2996,
      "agneti": 2997,
      "Ġsimultaneous": 2998,
      "Ġinvariant": 2999,
      "Ġsoftware": 3000,
      "Ġmodul": 3001,
      "Ġsampling": 3002,
      "ry": 3003,
      "ernal": 3004,
      "Ġenvironments": 3005,
      "008": 3006,
      "mega": 3007,
      "Ġhybrid": 3008,
      "Ġpractical": 3009,
      "Ġforms": 3010,
      "DP": 3011,
      "Ġrot": 3012,
      "Ġoriginal": 3013,
      "Ġdoc": 3014,
      "Ġsufficient": 3015,
      "Ġmeasures": 3016,
      "Ġquark": 3017,
      "Ġworks": 3018,
      "Ġneighb": 3019,
      "ectors": 3020,
      "otic": 3021,
      "bolic": 3022,
      "Ġclose": 3023,
      "ĠEqu": 3024,
      "Ġelectric": 3025,
      "Ġpredictions": 3026,
      "ivial": 3027,
      "Ġsingular": 3028,
      "aving": 3029,
      "Ġshould": 3030,
      "lin": 3031,
      "Ġbran": 3032,
      "oriz": 3033,
      "Ġworld": 3034,
      "BERT": 3035,
      "Ġphases": 3036,
      "Ġencoder": 3037,
      "Ġprotocol": 3038,
      "Ġbos": 3039,
      "ading": 3040,
      "ĠControl": 3041,
      "Ġequivalent": 3042,
      "Ġelectronic": 3043,
      "Ġtraject": 3044,
      "Ġdisper": 3045,
      "urbul": 3046,
      "Ġproduce": 3047,
      "ull": 3048,
      "world": 3049,
      "Ġpartial": 3050,
      "Ġquantif": 3051,
      "ures": 3052,
      "Ġversion": 3053,
      "group": 3054,
      "Ġcontrast": 3055,
      "ĠTwo": 3056,
      "Ġintegral": 3057,
      "Ġschemes": 3058,
      "ored": 3059,
      "Ġunique": 3060,
      "Ġbo": 3061,
      "co": 3062,
      "Ġnotion": 3063,
      "armonic": 3064,
      "Ġimproved": 3065,
      "Ġ<": 3066,
      "ĠLa": 3067,
      "Ġ+": 3068,
      "026": 3069,
      "Ġbenef": 3070,
      "plan": 3071,
      "bar": 3072,
      "ressive": 3073,
      "FT": 3074,
      "Ġleading": 3075,
      "iquid": 3076,
      "otropic": 3077,
      "Ġcodes": 3078,
      "Ġsegmentation": 3079,
      "Ġpairs": 3080,
      "Ġappear": 3081,
      "Ġpromising": 3082,
      "PT": 3083,
      "Ġpreviously": 3084,
      "phys": 3085,
      "Ġplay": 3086,
      "Ġcapacity": 3087,
      "other": 3088,
      "Ġion": 3089,
      "dis": 3090,
      "}{": 3091,
      "triev": 3092,
      "006": 3093,
      "electr": 3094,
      "gra": 3095,
      "Ġaccount": 3096,
      "Ġrecover": 3097,
      "aser": 3098,
      "Ġimplementation": 3099,
      "qc": 3100,
      "ĠII": 3101,
      "Ġrece": 3102,
      "Ġanis": 3103,
      "Ġauth": 3104,
      "$_{": 3105,
      "AN": 3106,
      "change": 3107,
      "Ġdetermined": 3108,
      "Ġhere": 3109,
      "Ġlif": 3110,
      "048": 3111,
      "isms": 3112,
      "Ġtopology": 3113,
      "Ġreduced": 3114,
      "Ġpress": 3115,
      "Ġeffectiveness": 3116,
      "Ġcharacteristics": 3117,
      "Ġshar": 3118,
      "78": 3119,
      "Omega": 3120,
      "mer": 3121,
      "Ġve": 3122,
      "Ġferm": 3123,
      "Ġnumer": 3124,
      "pecially": 3125,
      "point": 3126,
      "038": 3127,
      "esis": 3128,
      "028": 3129,
      "plex": 3130,
      "Ġneutron": 3131,
      "036": 3132,
      "IS": 3133,
      "net": 3134,
      "Ġmagnet": 3135,
      "Ġtor": 3136,
      "ratic": 3137,
      "driven": 3138,
      "mit": 3139,
      "did": 3140,
      "gen": 3141,
      "ĠBl": 3142,
      "020": 3143,
      "Ġcontent": 3144,
      "-$": 3145,
      "ĠSelf": 3146,
      "Ġdistinc": 3147,
      "Ġplane": 3148,
      "ĠRepresent": 3149,
      "Ġactions": 3150,
      "sci": 3151,
      "Ġsuccessful": 3152,
      "local": 3153,
      "055": 3154,
      "Ġcandid": 3155,
      "Ġfluid": 3156,
      "Ġengine": 3157,
      "emporal": 3158,
      "Ġrapid": 3159,
      "Ġhowever": 3160,
      "Ġenhance": 3161,
      "Ġexternal": 3162,
      "pite": 3163,
      "Ġcurr": 3164,
      "ĠNum": 3165,
      "arily": 3166,
      "Ġlevels": 3167,
      "Ġespecially": 3168,
      "Ġapproximate": 3169,
      "Ġsequences": 3170,
      "Ġscore": 3171,
      "Ġexce": 3172,
      "Ġmaking": 3173,
      "band": 3174,
      "}^{": 3175,
      "Ġtree": 3176,
      "arying": 3177,
      "035": 3178,
      "Ġannot": 3179,
      "iver": 3180,
      "oor": 3181,
      "NNs": 3182,
      "Ġalmost": 3183,
      "}_{": 3184,
      "ilbert": 3185,
      "Ġarea": 3186,
      "Ġfactors": 3187,
      "Ġcollisions": 3188,
      "Ġheavy": 3189,
      "Ġnegative": 3190,
      "nu": 3191,
      "elian": 3192,
      "ording": 3193,
      "ĠMethod": 3194,
      "place": 3195,
      "Ġsimpl": 3196,
      "ĠThen": 3197,
      "Ġsince": 3198,
      "Ġalgebraic": 3199,
      "Ġtun": 3200,
      "Ġprinciple": 3201,
      "ĠSuch": 3202,
      "015": 3203,
      "Ġmis": 3204,
      "cent": 3205,
      "ah": 3206,
      "trl": 3207,
      "Ġfilter": 3208,
      "ĠElectr": 3209,
      "mtrl": 3210,
      "zed": 3211,
      "Ġcomparison": 3212,
      "AT": 3213,
      "Ġcircu": 3214,
      "Ġnorm": 3215,
      "Ġconventional": 3216,
      "ret": 3217,
      "Ġhyp": 3218,
      "Ġtreat": 3219,
      "Ġsolar": 3220,
      "ĠRecent": 3221,
      "Ġmakes": 3222,
      "tivated": 3223,
      "HC": 3224,
      "Ġmust": 3225,
      "^+": 3226,
      "ĠEff": 3227,
      "Ġassess": 3228,
      "Ġscenario": 3229,
      "Ġbin": 3230,
      "Ġfar": 3231,
      "ict": 3232,
      "Ġheat": 3233,
      "Ġfluctuations": 3234,
      "Ġatomic": 3235,
      "Ġscales": 3236,
      "class": 3237,
      "Ġpure": 3238,
      "Ġyet": 3239,
      "Ġchemical": 3240,
      "Ġspectrosc": 3241,
      "Ġthresh": 3242,
      "Ġdiffusion": 3243,
      "Ġturbul": 3244,
      "Ġcyc": 3245,
      "Ġcontains": 3246,
      "Ġdemonstrated": 3247,
      "emble": 3248,
      "=\\": 3249,
      "Ġreconstruction": 3250,
      "Ġlines": 3251,
      "hall": 3252,
      "graph": 3253,
      "son": 3254,
      "016": 3255,
      "ĠEng": 3256,
      "state": 3257,
      "Ġcombination": 3258,
      "Ġprivacy": 3259,
      "Ġuniversal": 3260,
      "ĠCar": 3261,
      "025": 3262,
      "Ġreinforcement": 3263,
      "IC": 3264,
      "tinu": 3265,
      "comp": 3266,
      "Ġperm": 3267,
      "sub": 3268,
      "Ġcorrect": 3269,
      "unctions": 3270,
      "Ġdiscussed": 3271,
      "Ġspl": 3272,
      "Ġconfir": 3273,
      "Ġtrain": 3274,
      "018": 3275,
      "Ġequilibrium": 3276,
      "76": 3277,
      "fined": 3278,
      "ump": 3279,
      "Ġdifficult": 3280,
      "reen": 3281,
      "Ġminimum": 3282,
      "ĠPredic": 3283,
      "Ġwind": 3284,
      "Ġradiation": 3285,
      "formal": 3286,
      "ĠNo": 3287,
      "phi": 3288,
      "Ġdirection": 3289,
      "ĠSm": 3290,
      "Ġdefine": 3291,
      "agement": 3292,
      "ĠEs": 3293,
      "Ġpropagation": 3294,
      "Ġempirical": 3295,
      "Ġtransitions": 3296,
      "version": 3297,
      "Ġobjective": 3298,
      "yond": 3299,
      "Ġbeyond": 3300,
      "Ġregard": 3301,
      "Ġchannels": 3302,
      "Ġdecre": 3303,
      "Ġnuclear": 3304,
      "045": 3305,
      "utes": 3306,
      "ott": 3307,
      "algeb": 3308,
      "Ġtools": 3309,
      "fra": 3310,
      "ireless": 3311,
      "Ġremains": 3312,
      "attention": 3313,
      "Ġvac": 3314,
      "Ġdepth": 3315,
      "Ġamount": 3316,
      "Ġcompeti": 3317,
      "insic": 3318,
      "ĠImage": 3319,
      "Ġessential": 3320,
      "Ġvehic": 3321,
      "Ġenables": 3322,
      "anguages": 3323,
      "93": 3324,
      "Ġsubject": 3325,
      "Ġphoton": 3326,
      "Ġimportance": 3327,
      "Ġfollowing": 3328,
      "Ġprobabilistic": 3329,
      "Ġvir": 3330,
      "nov": 3331,
      "Ġimaging": 3332,
      "ĠConv": 3333,
      "Ġmode": 3334,
      "ĠGra": 3335,
      "pective": 3336,
      "bio": 3337,
      "046": 3338,
      "Ġvision": 3339,
      "Ġlimits": 3340,
      "Ġcruc": 3341,
      "ĠVari": 3342,
      "ĠEm": 3343,
      "Ġrisk": 3344,
      "pri": 3345,
      "layer": 3346,
      "Ġbecom": 3347,
      "ocation": 3348,
      "ĠAlgorithm": 3349,
      "Ġcorrelations": 3350,
      "orizon": 3351,
      "Ġsecurity": 3352,
      "Ġcontribution": 3353,
      "Ġholes": 3354,
      "RO": 3355,
      "Ġadj": 3356,
      "ĠSub": 3357,
      "Ġvolume": 3358,
      "olved": 3359,
      "Ġrig": 3360,
      "Ġexhibit": 3361,
      "94": 3362,
      "Ġperiodic": 3363,
      "Ġstatistics": 3364,
      "sk": 3365,
      "ĠText": 3366,
      "ĠComm": 3367,
      "leq": 3368,
      "ogen": 3369,
      "Ġinvolving": 3370,
      "Ġmi": 3371,
      "Ġfeedback": 3372,
      "ameter": 3373,
      "ively": 3374,
      "Ġlogic": 3375,
      "mass": 3376,
      "Ġgives": 3377,
      "ixing": 3378,
      "Ġimprovement": 3379,
      "Ġembedding": 3380,
      "Ġthermod": 3381,
      "AC": 3382,
      "ĠEstim": 3383,
      "Ġrepro": 3384,
      "Ġconcentr": 3385,
      "Ġmixed": 3386,
      "rt": 3387,
      "omp": 3388,
      "tificial": 3389,
      "ommend": 3390,
      "yl": 3391,
      "reement": 3392,
      "Ġflex": 3393,
      "Ġwould": 3394,
      "Ġdiagram": 3395,
      "instein": 3396,
      "Ġinfluence": 3397,
      "mosph": 3398,
      "ĠReinforcement": 3399,
      "Ġtraffic": 3400,
      "Ġavoid": 3401,
      "Ġstructural": 3402,
      "Ġdelay": 3403,
      "Ġgen": 3404,
      "ĠSpecifically": 3405,
      "Ġsurvey": 3406,
      "Ġmicrosc": 3407,
      "Ġgames": 3408,
      "ialog": 3409,
      "variant": 3410,
      "agnos": 3411,
      "Ġcat": 3412,
      "Ġplasma": 3413,
      "Ġconsists": 3414,
      "LE": 3415,
      "orption": 3416,
      "Ġbase": 3417,
      "llip": 3418,
      "Ġinverse": 3419,
      "Ġexists": 3420,
      "Ms": 3421,
      "qrt": 3422,
      "Ġmedia": 3423,
      "Ġmetrics": 3424,
      "serving": 3425,
      "ĠUnivers": 3426,
      "ĠApproach": 3427,
      "Ġdifference": 3428,
      "ered": 3429,
      "Ġconnection": 3430,
      "ĠAss": 3431,
      "Ġangular": 3432,
      "Ġsparse": 3433,
      "Ġcombined": 3434,
      "ĠSem": 3435,
      "Ġpressure": 3436,
      "Ġchain": 3437,
      "Ġfractional": 3438,
      "ometry": 3439,
      "Ġdecomposition": 3440,
      "Lambda": 3441,
      "Ġflows": 3442,
      "Ġorient": 3443,
      "plication": 3444,
      "Ġobserve": 3445,
      "flow": 3446,
      "Ġtypically": 3447,
      "rop": 3448,
      "Ġpack": 3449,
      "Ġring": 3450,
      "Ġillustrate": 3451,
      "2010": 3452,
      "Ġlearned": 3453,
      "Ġmathematical": 3454,
      "way": 3455,
      "play": 3456,
      "RL": 3457,
      "Ġvan": 3458,
      "Ġusually": 3459,
      "gory": 3460,
      "Ġbr": 3461,
      "ĠExt": 3462,
      "ĠAutom": 3463,
      "Ġcoordin": 3464,
      "22": 3465,
      "Ġface": 3466,
      "ote": 3467,
      "Ġpuls": 3468,
      "Ġmobile": 3469,
      "Ġcriter": 3470,
      "ĠRev": 3471,
      "emann": 3472,
      "ifying": 3473,
      "Ġhad": 3474,
      "come": 3475,
      "fect": 3476,
      "Ġtraditional": 3477,
      "Ġembeddings": 3478,
      "Ġmagnitude": 3479,
      "Ġsubst": 3480,
      "Ġsensitivity": 3481,
      "Ġbul": 3482,
      "Ġconsensus": 3483,
      "Ġdiss": 3484,
      "/\\": 3485,
      "Ġbuild": 3486,
      "ho": 3487,
      "Ġdense": 3488,
      "Ġconvolutional": 3489,
      "Ġcarri": 3490,
      "Ġoperations": 3491,
      "ulations": 3492,
      "eps": 3493,
      "ellman": 3494,
      "Ġmedium": 3495,
      "ationary": 3496,
      "ography": 3497,
      "Delta": 3498,
      "thetic": 3499,
      "Ġexplicitly": 3500,
      "ged": 3501,
      "Ġweighted": 3502,
      "Ġwords": 3503,
      "AM": 3504,
      "sqrt": 3505,
      "Ġcosmological": 3506,
      "Ġgrid": 3507,
      "SS": 3508,
      "ĠCor": 3509,
      "Ġgenerating": 3510,
      "eli": 3511,
      "pping": 3512,
      "Ġdepends": 3513,
      "Ġupd": 3514,
      "Ġtransformation": 3515,
      "cale": 3516,
      "000": 3517,
      "ĠConstr": 3518,
      "ited": 3519,
      "ĠBi": 3520,
      "fact": 3521,
      "Ġlatter": 3522,
      "Ġcurve": 3523,
      "77": 3524,
      "king": 3525,
      "Ġresource": 3526,
      "ands": 3527,
      "Ġrobustness": 3528,
      "Ġprogress": 3529,
      "NT": 3530,
      "ĠFrom": 3531,
      "Ġcrucial": 3532,
      "Ġactivity": 3533,
      "mediate": 3534,
      "Ġattr": 3535,
      "Ġatoms": 3536,
      "raw": 3537,
      "ĠTheory": 3538,
      "Ġbasic": 3539,
      "Ġyields": 3540,
      "iemann": 3541,
      "Ġinters": 3542,
      "Ġregression": 3543,
      "tial": 3544,
      "Ġmodule": 3545,
      "Ġresources": 3546,
      "onomous": 3547,
      "Ġdistinct": 3548,
      "ults": 3549,
      "Ġhist": 3550,
      "Ġdisk": 3551,
      "Ġdeploy": 3552,
      "Ġneutrino": 3553,
      "Ġlanguages": 3554,
      "standing": 3555,
      "Ġhypoth": 3556,
      "Ġlaser": 3557,
      "istance": 3558,
      "ype": 3559,
      "thog": 3560,
      "mann": 3561,
      "Ġrelax": 3562,
      "Ġaug": 3563,
      "ĠCons": 3564,
      "dif": 3565,
      "Ġpowerful": 3566,
      "Ġagg": 3567,
      "Ġdriven": 3568,
      "Ġorgan": 3569,
      "Ġdetailed": 3570,
      "Ġdetector": 3571,
      "Ġvertices": 3572,
      "ĠDiffer": 3573,
      "ken": 3574,
      "Ġappropri": 3575,
      "ĠLinear": 3576,
      "ĠPo": 3577,
      "itter": 3578,
      "Ġopp": 3579,
      "Ġadversarial": 3580,
      "Ġincreases": 3581,
      "tative": 3582,
      "Ġmorph": 3583,
      "Ġhealth": 3584,
      "Ġexchange": 3585,
      "ĠTime": 3586,
      "Ġforce": 3587,
      "Ġperturbation": 3588,
      "34": 3589,
      "Ġprogramming": 3590,
      "ĠRad": 3591,
      "tz": 3592,
      "Ġlatent": 3593,
      "anning": 3594,
      "Ġden": 3595,
      "bo": 3596,
      "Ġnamely": 3597,
      "pects": 3598,
      "Ġattrib": 3599,
      "Ġcover": 3600,
      "Ġquery": 3601,
      "ĠBe": 3602,
      "Ġsitu": 3603,
      "RB": 3604,
      "Ġreflec": 3605,
      "det": 3606,
      "Ġvertex": 3607,
      "30": 3608,
      "Ġstatic": 3609,
      "ultim": 3610,
      "Ġchoice": 3611,
      "ĠQCD": 3612,
      "Ġcoherent": 3613,
      "asting": 3614,
      "Ġcontact": 3615,
      "Ġbias": 3616,
      "ĠFerm": 3617,
      "Ġmasses": 3618,
      "Ġsettings": 3619,
      "isted": 3620,
      "eries": 3621,
      "Ġfinding": 3622,
      "Ġreasoning": 3623,
      "Ġunknown": 3624,
      "ĠModeling": 3625,
      "ĠTheore": 3626,
      "ĠHilbert": 3627,
      "plac": 3628,
      "Ġmonit": 3629,
      "ares": 3630,
      "ĠRecently": 3631,
      "iggs": 3632,
      "light": 3633,
      "inter": 3634,
      "Ġweights": 3635,
      "Ġliquid": 3636,
      "utative": 3637,
      "ĠIf": 3638,
      "etries": 3639,
      "Ġcosmic": 3640,
      "itt": 3641,
      "Ġclassif": 3642,
      "omorphic": 3643,
      "ĠTra": 3644,
      "50": 3645,
      "Ġcharacterization": 3646,
      "Ġproved": 3647,
      "Ġtransformers": 3648,
      "Ġefficiently": 3649,
      "Ġhomogeneous": 3650,
      "range": 3651,
      "Ġgeneric": 3652,
      "\\%": 3653,
      "Ġpredicted": 3654,
      "Ġplanning": 3655,
      "ĠSpectr": 3656,
      "warf": 3657,
      "trieval": 3658,
      "ĠRecognition": 3659,
      "Ġstabil": 3660,
      "go": 3661,
      "reed": 3662,
      "Ġhaving": 3663,
      "Ġdiscr": 3664,
      "Ġsci": 3665,
      "Ġellip": 3666,
      "Ġtechnology": 3667,
      "ards": 3668,
      "Ġanalys": 3669,
      "Ġcharacterize": 3670,
      "ulator": 3671,
      "ulated": 3672,
      "term": 3673,
      "ĠFour": 3674,
      "tructure": 3675,
      "trivial": 3676,
      "idden": 3677,
      "Ġmagneti": 3678,
      "Ġinterpret": 3679,
      "frak": 3680,
      "ĠTow": 3681,
      "Ġissues": 3682,
      "Ġagreement": 3683,
      "ĠAll": 3684,
      "Ġeffectively": 3685,
      "Ġsmaller": 3686,
      "Ġswit": 3687,
      "Ġbund": 3688,
      "orous": 3689,
      "isual": 3690,
      "GT": 3691,
      "Ġdise": 3692,
      "requency": 3693,
      "Ġfindings": 3694,
      "Ġtake": 3695,
      "Ġpolynomials": 3696,
      "uments": 3697,
      "amp": 3698,
      "Ġobservation": 3699,
      "nal": 3700,
      "ĠGeneration": 3701,
      "Ġerrors": 3702,
      "Ġquadratic": 3703,
      "Ġaspects": 3704,
      "Ġupon": 3705,
      "ĠDynamic": 3706,
      "Ġbehaviour": 3707,
      "Ġloop": 3708,
      "tt": 3709,
      "})$": 3710,
      "Ġdetected": 3711,
      "Ġchiral": 3712,
      "ductivity": 3713,
      "ĠEner": 3714,
      "Ġtesting": 3715,
      "Ġproducts": 3716,
      "MC": 3717,
      "Ġaccre": 3718,
      "Ġintellig": 3719,
      "Ġphon": 3720,
      "}$-": 3721,
      "aking": 3722,
      "Ġnode": 3723,
      "Ġspread": 3724,
      "Ġexponential": 3725,
      "Ġsubstanti": 3726,
      "oling": 3727,
      "Ġevaluated": 3728,
      "ĠAI": 3729,
      "Ġdispersion": 3730,
      "ild": 3731,
      "Ġsubset": 3732,
      "mmetry": 3733,
      "DC": 3734,
      "Ġconsidering": 3735,
      "rable": 3736,
      "oration": 3737,
      "Ġlife": 3738,
      "Ġsensing": 3739,
      "spired": 3740,
      "Ġpost": 3741,
      "Ġlack": 3742,
      "Ġprecision": 3743,
      "ĠMonte": 3744,
      "Ġsaf": 3745,
      "Ġrelativistic": 3746,
      "Ġinteresting": 3747,
      "Ġmanifolds": 3748,
      "energy": 3749,
      "Ġimplemented": 3750,
      "NI": 3751,
      "ĠGe": 3752,
      "Ġinteracting": 3753,
      "Ġrotation": 3754,
      "Ġalternative": 3755,
      "Ġsense": 3756,
      "ĠDirac": 3757,
      "Ġcomplement": 3758,
      "elihood": 3759,
      "OS": 3760,
      "tual": 3761,
      "Ġideal": 3762,
      "Ġthreshold": 3763,
      "Ġtog": 3764,
      "Ġaims": 3765,
      "Ġproviding": 3766,
      "Ġbaseline": 3767,
      "Ġentire": 3768,
      "ious": 3769,
      "ishing": 3770,
      "Ġdegener": 3771,
      "oT": 3772,
      "Ġanother": 3773,
      "ĠAdap": 3774,
      "gu": 3775,
      "Ġdig": 3776,
      "Ġtogether": 3777,
      "ĠLocal": 3778,
      "Ġbal": 3779,
      "Ġrational": 3780,
      "Ġstream": 3781,
      "Ġintegrated": 3782,
      "Ġestablished": 3783,
      "isson": 3784,
      "Ġconstructed": 3785,
      "avel": 3786,
      "taining": 3787,
      "EC": 3788,
      "Ġgeneralize": 3789,
      "stream": 3790,
      "90": 3791,
      "gr": 3792,
      "ecting": 3793,
      "Ġcalculate": 3794,
      "Ġheterogeneous": 3795,
      "onical": 3796,
      "Ġfa": 3797,
      "ived": 3798,
      "Ġpurpose": 3799,
      "GN": 3800,
      "SD": 3801,
      "Ġaggreg": 3802,
      "oving": 3803,
      "Ġflat": 3804,
      "Ġcooper": 3805,
      "Ġpast": 3806,
      "Ġattacks": 3807,
      "elesc": 3808,
      "icity": 3809,
      "Ġincludes": 3810,
      "Ġdependent": 3811,
      "Ġfer": 3812,
      "variate": 3813,
      "posed": 3814,
      "Ġsubs": 3815,
      "Ġidentification": 3816,
      "Ġenergies": 3817,
      "Ġtypical": 3818,
      "Ġatmosph": 3819,
      "Ġembedded": 3820,
      "Ġprotocols": 3821,
      "Ġ~": 3822,
      "Ġedges": 3823,
      "Ġidenti": 3824,
      "Ġsynchron": 3825,
      "Ġissue": 3826,
      "ĠEnergy": 3827,
      "Ġpeak": 3828,
      "psilon": 3829,
      "Ġmerg": 3830,
      "Ġmanifold": 3831,
      "ĠObserv": 3832,
      "dec": 3833,
      "reh": 3834,
      "ĠDisc": 3835,
      "ads": 3836,
      "ĠPhys": 3837,
      "Ġcharacterized": 3838,
      "ĠEar": 3839,
      "ĠAlthough": 3840,
      "epsilon": 3841,
      "Ġexamine": 3842,
      "Ġseparation": 3843,
      "Ġkind": 3844,
      "istent": 3845,
      "Ġrespons": 3846,
      "Ġthin": 3847,
      "Ġconditional": 3848,
      "ĠLow": 3849,
      "ĠProblem": 3850,
      "Ġsimultaneously": 3851,
      "omagnetic": 3852,
      "Ġanalytical": 3853,
      "Ġrely": 3854,
      "ĠAttention": 3855,
      "Ġcategory": 3856,
      "hat": 3857,
      "Ġkine": 3858,
      "Ġdatab": 3859,
      "Ġextraction": 3860,
      "az": 3861,
      "ĠEfficient": 3862,
      "ĠMin": 3863,
      "Ġinstr": 3864,
      "Ġslow": 3865,
      "Ġimproves": 3866,
      "ĠSecond": 3867,
      "QA": 3868,
      "Ġecon": 3869,
      "Ġpattern": 3870,
      "Ġcommunity": 3871,
      "Ġrather": 3872,
      "Ġdisorder": 3873,
      "andom": 3874,
      "avelength": 3875,
      "Ġrules": 3876,
      "arities": 3877,
      "Ġextensive": 3878,
      "Ġoperation": 3879,
      "Ġrev": 3880,
      "ective": 3881,
      "iation": 3882,
      "Ġfaster": 3883,
      "oustic": 3884,
      "ixel": 3885,
      "Ġearly": 3886,
      "Ġenhanced": 3887,
      "Ġcompreh": 3888,
      "Ġproduced": 3889,
      "Ġcommunic": 3890,
      "ĠSpe": 3891,
      "Ġclustering": 3892,
      "Ġsuperconducting": 3893,
      "urr": 3894,
      "Ġelastic": 3895,
      "ga": 3896,
      "ĠRiemann": 3897,
      "Ġfacil": 3898,
      "tor": 3899,
      "Ġrequirements": 3900,
      "Ġcall": 3901,
      "Ġinfer": 3902,
      "uler": 3903,
      "ople": 3904,
      "ĠPol": 3905,
      "ĠGiven": 3906,
      "Ġfinal": 3907,
      "-\\": 3908,
      "Ġidea": 3909,
      "ĠLag": 3910,
      "Ġenable": 3911,
      "ĠStud": 3912,
      "tage": 3913,
      "Ġhyperbolic": 3914,
      "gram": 3915,
      "ways": 3916,
      "eric": 3917,
      "ĠMany": 3918,
      "DG": 3919,
      "Ġfusion": 3920,
      "eties": 3921,
      "ĠLe": 3922,
      "mathfrak": 3923,
      "Ġsentence": 3924,
      "Ġadvantage": 3925,
      "Ġplace": 3926,
      "ĠHiggs": 3927,
      "007": 3928,
      "Ġparad": 3929,
      "Ġrich": 3930,
      "Ġproject": 3931,
      "Ġmodified": 3932,
      "Ġshowing": 3933,
      "Ġones": 3934,
      "ĠNatural": 3935,
      "Ġanalytic": 3936,
      "iers": 3937,
      "Ġwireless": 3938,
      "Ġvariation": 3939,
      "use": 3940,
      "igned": 3941,
      "ĠSto": 3942,
      "Ġdriving": 3943,
      "Ġconserv": 3944,
      "aps": 3945,
      "ĠOptimization": 3946,
      "ĠDistributed": 3947,
      "Ġappropriate": 3948,
      "physical": 3949,
      "cite": 3950,
      "ĠTranslation": 3951,
      "Ġcolor": 3952,
      "Ġimprovements": 3953,
      "ensing": 3954,
      "atives": 3955,
      "Ġcollective": 3956,
      "Ġlum": 3957,
      "ĠNLP": 3958,
      "ativity": 3959,
      "itely": 3960,
      "ĠSyn": 3961,
      "Ġmanner": 3962,
      "ĠRobust": 3963,
      "aling": 3964,
      "etary": 3965,
      "MS": 3966,
      "Ġperturbations": 3967,
      "thogonal": 3968,
      "Ġneeded": 3969,
      "psi": 3970,
      "Ġlocally": 3971,
      "ĠProb": 3972,
      "Ġconstraint": 3973,
      "Ġbelow": 3974,
      "Ġdiverse": 3975,
      "Ġtrees": 3976,
      "ĠSe": 3977,
      "isy": 3978,
      "Ġparticularly": 3979,
      "Ġformalism": 3980,
      "Ġinteger": 3981,
      "pped": 3982,
      "Ġrealistic": 3983,
      "Ġcontributions": 3984,
      "Ġow": 3985,
      "Ġdraw": 3986,
      "Ġnucl": 3987,
      "Ġaccording": 3988,
      "Ġwater": 3989,
      "Ġqubit": 3990,
      "Ġelectrons": 3991,
      "Ġensemble": 3992,
      "Ġbuilding": 3993,
      "Ġadaptive": 3994,
      "iles": 3995,
      "Ġbulk": 3996,
      "Ġcomputed": 3997,
      "induced": 3998,
      "Ġframe": 3999,
      "tegr": 4000,
      "Ġacqu": 4001,
      "Ġradius": 4002,
      "Ġinequality": 4003,
      "Ġep": 4004,
      "Ġhorizon": 4005,
      "In": 4006,
      "ĠLog": 4007,
      "called": 4008,
      "tives": 4009,
      "Ġidentified": 4010,
      "Ġharmonic": 4011,
      "Ġsquare": 4012,
      "Ġforward": 4013,
      "ET": 4014,
      "pton": 4015,
      "Ġassumption": 4016,
      "Ġmetal": 4017,
      "Ġorders": 4018,
      "ĠEnglish": 4019,
      "ressed": 4020,
      "Ġ($\\": 4021,
      "Ġimpl": 4022,
      "Ġrenormal": 4023,
      "}(\\": 4024,
      "orage": 4025,
      "Ġmill": 4026,
      "Ġcells": 4027,
      "istr": 4028,
      "Ġrelatively": 4029,
      "Ġtherefore": 4030,
      "alog": 4031,
      "Ġvor": 4032,
      "Ġsuff": 4033,
      "shift": 4034,
      "weight": 4035,
      "Ġhierarchical": 4036,
      "IV": 4037,
      "SM": 4038,
      "rup": 4039,
      "Ġrecommend": 4040,
      "Ġconstrained": 4041,
      "ĠField": 4042,
      "Ġright": 4043,
      "Ġresonance": 4044,
      "Ġexperimentally": 4045,
      "Ġcomposition": 4046,
      "^*": 4047,
      "Ġoverall": 4048,
      "Ġmechanics": 4049,
      "ky": 4050,
      "finite": 4051,
      "Ġpossibility": 4052,
      "min": 4053,
      "ĠOptimal": 4054,
      "017": 4055,
      "iber": 4056,
      "Ġhalf": 4057,
      "usive": 4058,
      "Ġexpression": 4059,
      "shot": 4060,
      "Ġfit": 4061,
      "avor": 4062,
      "Ġsensor": 4063,
      "Ġcommonly": 4064,
      "udio": 4065,
      "omega": 4066,
      "Ġcalculated": 4067,
      "Ġforec": 4068,
      "elines": 4069,
      "Ġparts": 4070,
      "Ġgenerative": 4071,
      "Ġconsum": 4072,
      "Ġangle": 4073,
      "ĠSome": 4074,
      "Ġdegrees": 4075,
      "Ġbecomes": 4076,
      "ortun": 4077,
      "027": 4078,
      "ĠRandom": 4079,
      "ĠTask": 4080,
      "ĠGl": 4081,
      "Ġdevice": 4082,
      "ĠEuler": 4083,
      "Ġfamil": 4084,
      "ĠInt": 4085,
      "As": 4086,
      "specific": 4087,
      "Ġreported": 4088,
      "Ġstring": 4089,
      "Ġdiscrimin": 4090,
      "ĠSing": 4091,
      "atorial": 4092,
      "037": 4093,
      "ibly": 4094,
      "Ġrecurrent": 4095,
      "Ġperspective": 4096,
      "ĠFram": 4097,
      "romagnetic": 4098,
      "Ġmatch": 4099,
      "Ġcondens": 4100,
      "sive": 4101,
      "Ġanalyzed": 4102,
      "ĠClassification": 4103,
      "Ġnumerically": 4104,
      "Ġmut": 4105,
      "Ġexec": 4106,
      "bound": 4107,
      "Ġvariational": 4108,
      "alued": 4109,
      "Ġnote": 4110,
      "Ġintermediate": 4111,
      "068": 4112,
      "Ġclear": 4113,
      "aware": 4114,
      "40": 4115,
      "ux": 4116,
      "yc": 4117,
      "Gamma": 4118,
      "stat": 4119,
      "STM": 4120,
      "Ġseen": 4121,
      "appro": 4122,
      "Ġinstability": 4123,
      "oh": 4124,
      "Ġ$^{": 4125,
      "MR": 4126,
      "Ġlocalization": 4127,
      "DEs": 4128,
      "Ġintrinsic": 4129,
      "Ġphenomena": 4130,
      "Ġreaction": 4131,
      "ĠCa": 4132,
      "Ġgenerally": 4133,
      "ĠSurvey": 4134,
      "Ġdocument": 4135,
      "Ġsynthetic": 4136,
      "Ġparticip": 4137,
      "Ġmechanical": 4138,
      "process": 4139,
      "ĠAcc": 4140,
      "Ġcalculation": 4141,
      "Ġquestions": 4142,
      "idth": 4143,
      "ucl": 4144,
      "Ġunc": 4145,
      "Ġsummar": 4146,
      "^\\": 4147,
      "ĠAb": 4148,
      "ĠFermi": 4149,
      "ĠThey": 4150,
      "Ġrise": 4151,
      "Ġphenomenon": 4152,
      "ĠFl": 4153,
      "LS": 4154,
      "angle": 4155,
      "Ġwr": 4156,
      "Ġemployed": 4157,
      "Ġreference": 4158,
      "Ġshared": 4159,
      "textit": 4160,
      "ĠSol": 4161,
      "Ġinterface": 4162,
      "iding": 4163,
      "EP": 4164,
      "ĠCarlo": 4165,
      "wh": 4166,
      "Ġdwarf": 4167,
      "Ġinternal": 4168,
      "lingual": 4169,
      "Ġdeform": 4170,
      "Ġmove": 4171,
      "Ġsubgroup": 4172,
      "Ġcheck": 4173,
      "uum": 4174,
      "ters": 4175,
      "Ġlocation": 4176,
      "ĠTherefore": 4177,
      "acro": 4178,
      "irectional": 4179,
      "mb": 4180,
      "Ġallowing": 4181,
      "Ġinstead": 4182,
      "Ġtracking": 4183,
      "ĠSearch": 4184,
      "mech": 4185,
      "oton": 4186,
      "Ġalignment": 4187,
      "ĠSince": 4188,
      "ticles": 4189,
      "structure": 4190,
      "Ġmolecules": 4191,
      "Ġscience": 4192,
      "Ġpolicies": 4193,
      "label": 4194,
      "Ġpseudo": 4195,
      "+\\": 4196,
      "Ġread": 4197,
      "Ġcalibr": 4198,
      "Ġ`": 4199,
      "Ġpati": 4200,
      "era": 4201,
      "Ġsemic": 4202,
      "enberg": 4203,
      "ĠExperimental": 4204,
      "Ġmarket": 4205,
      "ĠPers": 4206,
      "Ġpeople": 4207,
      "Ġhost": 4208,
      "direc": 4209,
      "Ġhalo": 4210,
      "Ġmixing": 4211,
      "ĠInformation": 4212,
      "ĠPoisson": 4213,
      "Ġmight": 4214,
      "ancy": 4215,
      "GC": 4216,
      "Ġabund": 4217,
      "tein": 4218,
      "004": 4219,
      "tau": 4220,
      "alk": 4221,
      "Ġ'": 4222,
      "Ġproposes": 4223,
      ")-": 4224,
      "finement": 4225,
      "Ġcategories": 4226,
      "Ġtransverse": 4227,
      "ditionally": 4228,
      "optim": 4229,
      "DA": 4230,
      "Ġcollection": 4231,
      "Ġspacetime": 4232,
      "ĠSpace": 4233,
      "SC": 4234,
      "ird": 4235,
      "esting": 4236,
      "Ġconstit": 4237,
      "vice": 4238,
      "delta": 4239,
      "Ġexpect": 4240,
      "Ġmaximal": 4241,
      "Ġindicate": 4242,
      "Ġvariations": 4243,
      "ening": 4244,
      "Ġautomatically": 4245,
      "\\,": 4246,
      "ank": 4247,
      "Ġartificial": 4248,
      "Ġvectors": 4249,
      "ĠForm": 4250,
      "dot": 4251,
      "ĠReal": 4252,
      "ĠSchr": 4253,
      "bf": 4254,
      "Fe": 4255,
      "emph": 4256,
      "Ġcorrection": 4257,
      "En": 4258,
      "atom": 4259,
      "Ġmapping": 4260,
      "iant": 4261,
      "Ġrest": 4262,
      "ĠTop": 4263,
      "Ġconformal": 4264,
      "Ġcorrelated": 4265,
      "ĠGa": 4266,
      "orbit": 4267,
      "overn": 4268,
      "ĠSpati": 4269,
      "047": 4270,
      "Ġbuilt": 4271,
      "sm": 4272,
      "Ġside": 4273,
      "Ġoscillations": 4274,
      "Ġnext": 4275,
      "odot": 4276,
      "head": 4277,
      "Ġcomb": 4278,
      "Ġmodules": 4279,
      "003": 4280,
      "Ġweakly": 4281,
      "}}$": 4282,
      "Ġdust": 4283,
      "Ġmetall": 4284,
      "ipar": 4285,
      "Ġtechnologies": 4286,
      "Ġspectroscopy": 4287,
      "Ġlever": 4288,
      "ĠDespite": 4289,
      "Ġequal": 4290,
      "clic": 4291,
      "Ġlast": 4292,
      "Ġtransl": 4293,
      "Ġsequential": 4294,
      "adic": 4295,
      "NE": 4296,
      "Ġirre": 4297,
      "Ġcontroll": 4298,
      "comm": 4299,
      "058": 4300,
      "//": 4301,
      "Ġelliptic": 4302,
      "ĠFourier": 4303,
      "Ġoffer": 4304,
      "Ġdemand": 4305,
      "ley": 4306,
      "ĠColl": 4307,
      "ĠMeasure": 4308,
      "ĠImpro": 4309,
      "tuning": 4310,
      "Ġmarg": 4311,
      "ĠFast": 4312,
      "ĠTowards": 4313,
      ")$-": 4314,
      "Ġgraphene": 4315,
      "Ġinputs": 4316,
      "Ġamplitude": 4317,
      "Ġdepending": 4318,
      "Co": 4319,
      "uth": 4320,
      "ĠNumerical": 4321,
      "conn": 4322,
      "Ġimm": 4323,
      "056": 4324,
      "MB": 4325,
      "oph": 4326,
      "Ġsolid": 4327,
      "FA": 4328,
      "Ġsteps": 4329,
      "ĠLy": 4330,
      "rightarrow": 4331,
      "://": 4332,
      "ĠInd": 4333,
      "entific": 4334,
      "Ġalways": 4335,
      "Ġconfiguration": 4336,
      "Ġcausal": 4337,
      "Ġwidth": 4338,
      "Ġtreatment": 4339,
      "Ġtransformations": 4340,
      "Ġfacilit": 4341,
      "Ġcovari": 4342,
      "Ġabsorption": 4343,
      "Ġmodern": 4344,
      "Ġ100": 4345,
      "Ġquantitative": 4346,
      "Ġtakes": 4347,
      "ED": 4348,
      "ĠThus": 4349,
      "exp": 4350,
      "Ġdialog": 4351,
      "Ġapplying": 4352,
      "ĠCommun": 4353,
      "ultimodal": 4354,
      "ĠEnc": 4355,
      "cepts": 4356,
      "}=": 4357,
      "ube": 4358,
      "herent": 4359,
      "Ġmodelling": 4360,
      "Ġcomparable": 4361,
      "Ġradial": 4362,
      "avity": 4363,
      "ĠHall": 4364,
      "ĠStructure": 4365,
      "uz": 4366,
      "ĠDesign": 4367,
      "Ġdissip": 4368,
      "Ġbar": 4369,
      "Ġengineering": 4370,
      "Ġevol": 4371,
      "ended": 4372,
      "CT": 4373,
      "ilic": 4374,
      "ĠEr": 4375,
      "Ġpartition": 4376,
      "Ġcrystal": 4377,
      "Ġanalyses": 4378,
      "ites": 4379,
      "Ġtaking": 4380,
      "ĠSequ": 4381,
      "trial": 4382,
      "Ġstationary": 4383,
      "ĠLong": 4384,
      "rangian": 4385,
      "Ġcandidate": 4386,
      "Ġstress": 4387,
      "learning": 4388,
      "ipal": 4389,
      "Ġsignature": 4390,
      "PU": 4391,
      "Ġ>": 4392,
      "err": 4393,
      "Ġrefer": 4394,
      "Ġbefore": 4395,
      "Ġunsupervised": 4396,
      "Ġsensitive": 4397,
      "idirectional": 4398,
      "Ġenab": 4399,
      "Ġdifferenti": 4400,
      "Ġexploit": 4401,
      "Ġplanar": 4402,
      "ends": 4403,
      "ĠKnow": 4404,
      "ĠMost": 4405,
      "apse": 4406,
      "Ġestimated": 4407,
      "Ġcanonical": 4408,
      "Ġcharged": 4409,
      "tinuous": 4410,
      "92": 4411,
      "Ġvarieties": 4412,
      "024": 4413,
      "Ġsymmetries": 4414,
      "Ġinequalities": 4415,
      "uro": 4416,
      "ideos": 4417,
      "Ġincreased": 4418,
      "cell": 4419,
      "Ġselected": 4420,
      "Ġfamilies": 4421,
      "rho": 4422,
      "Ġdecoder": 4423,
      "Ġorbital": 4424,
      "Ġmanip": 4425,
      "rared": 4426,
      "ĠDi": 4427,
      "des": 4428,
      "Ġdecoding": 4429,
      "Ġcenter": 4430,
      "Ġlikelihood": 4431,
      "CC": 4432,
      "oinc": 4433,
      "Ġtrajectories": 4434,
      "Ġabelian": 4435,
      "Ġnamed": 4436,
      "aturally": 4437,
      "Ġprofile": 4438,
      "me": 4439,
      "get": 4440,
      "eres": 4441,
      "Ġjet": 4442,
      "Sigma": 4443,
      "Ġbright": 4444,
      "Ġvarying": 4445,
      "ĠOver": 4446,
      "ĠOpen": 4447,
      "})": 4448,
      "}.": 4449,
      "resolution": 4450,
      "Ġaffine": 4451,
      "Ġconnections": 4452,
      "Ġaccretion": 4453,
      "ivari": 4454,
      "asc": 4455,
      "aged": 4456,
      "Ġmacro": 4457,
      "Ġgovern": 4458,
      "particle": 4459,
      "Ġmainly": 4460,
      "Ġperfect": 4461,
      "Ġdeterministic": 4462,
      "rete": 4463,
      "Ġprojection": 4464,
      "Ġeigenv": 4465,
      "Ġvacuum": 4466,
      "Ġkinetic": 4467,
      "Ġeasily": 4468,
      "Ph": 4469,
      "uting": 4470,
      "Ġweb": 4471,
      "Ġinduc": 4472,
      "Ġunits": 4473,
      "Ġconsisting": 4474,
      "066": 4475,
      "Ġinstance": 4476,
      "2012": 4477,
      "bility": 4478,
      "itz": 4479,
      "iring": 4480,
      "ĠHyper": 4481,
      "Ġanisotropic": 4482,
      "ĠFramework": 4483,
      "Ġturn": 4484,
      "Ġprinciples": 4485,
      "uclide": 4486,
      "Ġdecays": 4487,
      "Ġtight": 4488,
      "reedom": 4489,
      "ĠCal": 4490,
      "elescope": 4491,
      "ĠFurther": 4492,
      "uclidean": 4493,
      "Ġlet": 4494,
      "Ġvariance": 4495,
      "Ġautonomous": 4496,
      "uish": 4497,
      "Ġconcepts": 4498,
      "Ġmodular": 4499,
      "ustom": 4500,
      "Ġfermion": 4501,
      "Ġinner": 4502,
      "Ġreconstruct": 4503,
      "ĠCNN": 4504,
      "Ġstage": 4505,
      "rays": 4506,
      "Ġdifferences": 4507,
      "Ġbehaviors": 4508,
      "Ġintegration": 4509,
      "Ġdiagnos": 4510,
      "ĠDev": 4511,
      "Ġintensity": 4512,
      "forward": 4513,
      "entralized": 4514,
      "Ġprimary": 4515,
      "zy": 4516,
      "ematic": 4517,
      "Ġcomputationally": 4518,
      "Ġlinks": 4519,
      "ci": 4520,
      "Ġmanagement": 4521,
      "Ġultra": 4522,
      "GR": 4523,
      "mented": 4524,
      "ĠDynamics": 4525,
      "Ġmeaning": 4526,
      "position": 4527,
      "009": 4528,
      "ttps": 4529,
      "symmetric": 4530,
      "width": 4531,
      "Ġsus": 4532,
      "Ġsmart": 4533,
      "Ġstead": 4534,
      "emory": 4535,
      "ae": 4536,
      "ĠId": 4537,
      "Ġtrade": 4538,
      "omorphism": 4539,
      "Ġstorage": 4540,
      "arithm": 4541,
      "Ġdescribes": 4542,
      "imal": 4543,
      "Ġfeas": 4544,
      "ou": 4545,
      "Ġreward": 4546,
      "ĠConvolutional": 4547,
      "Ġcompetitive": 4548,
      "Ns": 4549,
      "fficiently": 4550,
      "PE": 4551,
      "Ġstrict": 4552,
      "Ġtrue": 4553,
      "vent": 4554,
      "Ġcreate": 4555,
      "Ġmess": 4556,
      "Ġfrequencies": 4557,
      "Ġteam": 4558,
      "Ġfive": 4559,
      "abolic": 4560,
      "Ġdensities": 4561,
      "ounts": 4562,
      "Ġlikely": 4563,
      "Ġdip": 4564,
      "eep": 4565,
      "pus": 4566,
      "044": 4567,
      "Ġtaken": 4568,
      "Ġareas": 4569,
      "Ġparadig": 4570,
      "Ġnaturally": 4571,
      "Ġpractice": 4572,
      "lat": 4573,
      "iders": 4574,
      "Ġconstruc": 4575,
      "Ġdisting": 4576,
      "ĠAdversarial": 4577,
      "Ġdetectors": 4578,
      "uon": 4579,
      "Ġmethodology": 4580,
      "Ġaccurately": 4581,
      "Ġpen": 4582,
      "Ġcontinuum": 4583,
      "Ġded": 4584,
      "ĠExpl": 4585,
      "domain": 4586,
      "ĠLagrangian": 4587,
      "Ġretrieval": 4588,
      "iction": 4589,
      "ĠMed": 4590,
      "Ġmedical": 4591,
      "Ġneeds": 4592,
      "Ġexplan": 4593,
      "Ġdisease": 4594,
      "avig": 4595,
      "Ġcaused": 4596,
      "rich": 4597,
      "Ġinterference": 4598,
      "ĠEstimation": 4599,
      "loud": 4600,
      "Ġtemperatures": 4601,
      "Ġinterpretation": 4602,
      "sum": 4603,
      "Ġparametric": 4604,
      "Ġmultiplic": 4605,
      "Ġsimulated": 4606,
      "Ġimproving": 4607,
      "Ġart": 4608,
      "Ġensure": 4609,
      "invariant": 4610,
      "chastic": 4611,
      "Ġdirections": 4612,
      "Ġintroducing": 4613,
      "Ġreduces": 4614,
      "ĠEinstein": 4615,
      "aker": 4616,
      "Ġtests": 4617,
      "Ġsensors": 4618,
      "ĠMass": 4619,
      "ĠGeV": 4620,
      "Ġinterv": 4621,
      "034": 4622,
      "ĠComplex": 4623,
      "Ġcapable": 4624,
      "optics": 4625,
      "Ġsimilarity": 4626,
      "Ġencoding": 4627,
      "big": 4628,
      "tely": 4629,
      "RT": 4630,
      "ĠVisual": 4631,
      "Ġdirected": 4632,
      "Ġholds": 4633,
      "Ġadvances": 4634,
      "task": 4635,
      "Ġcontaining": 4636,
      "Ġelectromagnetic": 4637,
      "Ġsupervised": 4638,
      "ĠApproxim": 4639,
      "Ġargue": 4640,
      "Ġsolved": 4641,
      "mathbf": 4642,
      "ĠQuanti": 4643,
      "Ġhydrod": 4644,
      "upr": 4645,
      "plete": 4646,
      "Ġdistances": 4647,
      "Ġcut": 4648,
      "Ġbody": 4649,
      "SL": 4650,
      "Ġacoustic": 4651,
      "cor": 4652,
      "ĠBellman": 4653,
      "Ġpip": 4654,
      "Ġmultivariate": 4655,
      "Ġsubsequ": 4656,
      "065": 4657,
      "Ġsuperior": 4658,
      "Ġresol": 4659,
      "Ġsizes": 4660,
      "Ġmeas": 4661,
      "Ġindepend": 4662,
      "Ġcollabor": 4663,
      "ancing": 4664,
      "91": 4665,
      "ĠKnowledge": 4666,
      "Ġtheoretically": 4667,
      "Ġsteady": 4668,
      "nel": 4669,
      "Ġattem": 4670,
      "Ġinside": 4671,
      "Ġsharp": 4672,
      "Ġenough": 4673,
      "Ġcontrolled": 4674,
      "ĠSU": 4675,
      "related": 4676,
      "Ġsuccessfully": 4677,
      "ĠStochastic": 4678,
      "CE": 4679,
      "Ġtail": 4680,
      "Ġhypothesis": 4681,
      "LA": 4682,
      "Ġrule": 4683,
      "Ġcoefficient": 4684,
      "ittle": 4685,
      "bon": 4686,
      "ularities": 4687,
      "inosity": 4688,
      "dients": 4689,
      "Ġrelationships": 4690,
      "andemic": 4691,
      "Ġcomprehensive": 4692,
      "itudes": 4693,
      "subset": 4694,
      "Ġwhole": 4695,
      "ĠRed": 4696,
      "Ġfiber": 4697,
      "EM": 4698,
      "Ġcare": 4699,
      "Ġ16": 4700,
      "Ġguarantees": 4701,
      "Ġfreedom": 4702,
      "Ġclin": 4703,
      "value": 4704,
      "023": 4705,
      "Ġfair": 4706,
      "Ġpartially": 4707,
      "vities": 4708,
      "oti": 4709,
      "Ġqual": 4710,
      "Ġcoherence": 4711,
      "elling": 4712,
      "rown": 4713,
      "Ġprecise": 4714,
      "31": 4715,
      "Ġtack": 4716,
      "Ġgain": 4717,
      "var": 4718,
      "Ġpixel": 4719,
      "ception": 4720,
      "period": 4721,
      "Ġextracted": 4722,
      "ĠThrough": 4723,
      "sur": 4724,
      "Ġmask": 4725,
      ")=": 4726,
      "Ġrelies": 4727,
      "043": 4728,
      "Ġcustom": 4729,
      "soft": 4730,
      "ourse": 4731,
      "Ġitself": 4732,
      "ĠDr": 4733,
      "Ġpredictive": 4734,
      "onent": 4735,
      "Ġviol": 4736,
      "Ġpulse": 4737,
      "Ġsched": 4738,
      "Ġdro": 4739,
      "Ġhot": 4740,
      "Ġnow": 4741,
      "atell": 4742,
      "ĠBo": 4743,
      "Ġdescribing": 4744,
      "Ġconducted": 4745,
      "Ġmonitoring": 4746,
      "gener": 4747,
      "Ġvehicles": 4748,
      "Ġgamma": 4749,
      "ermin": 4750,
      "ĠMicro": 4751,
      "Ġprograms": 4752,
      "Ġthermodynamic": 4753,
      "ips": 4754,
      "algebra": 4755,
      "Ġ20": 4756,
      "ords": 4757,
      "Ġimplies": 4758,
      "Ġprefer": 4759,
      "vare": 4760,
      "Ġret": 4761,
      "ĠBound": 4762,
      "Ġhidden": 4763,
      "Ġburst": 4764,
      "PC": 4765,
      "Ġasymptotically": 4766,
      "Ġconfigurations": 4767,
      "cos": 4768,
      "orsion": 4769,
      "ĠSign": 4770,
      "forming": 4771,
      "aluation": 4772,
      "ĠResults": 4773,
      "Ġexpressions": 4774,
      "varepsilon": 4775,
      "EE": 4776,
      "Ġinform": 4777,
      "Ġsatisfy": 4778,
      "Ġcombinatorial": 4779,
      "Ġincreasingly": 4780,
      "Ġplays": 4781,
      "ĠInternet": 4782,
      "tite": 4783,
      "Ġexcitation": 4784,
      "stellar": 4785,
      "Ġcount": 4786,
      "elastic": 4787,
      "ĠLHC": 4788,
      "Ġown": 4789,
      "eff": 4790,
      "entiment": 4791,
      "Ġdesired": 4792,
      "ours": 4793,
      "Ġautomorph": 4794,
      "rad": 4795,
      "ĠPower": 4796,
      "jects": 4797,
      "Ġnuclei": 4798,
      "Ġbreaking": 4799,
      "Ġtrack": 4800,
      "Ġdefinition": 4801,
      "Ġanomalous": 4802,
      "mon": 4803,
      "Ġprojective": 4804,
      "osp": 4805,
      "Ġsufficiently": 4806,
      "Ġshift": 4807,
      "Ġachieving": 4808,
      "Ġcorrespondence": 4809,
      "Ġconsequence": 4810,
      "well": 4811,
      "Ġlimitations": 4812,
      "Ġpolarized": 4813,
      "ĠSN": 4814,
      "iness": 4815,
      "stable": 4816,
      "054": 4817,
      "Ġphotons": 4818,
      "Ġorthogonal": 4819,
      "Ġinvestigation": 4820,
      "ĠApplications": 4821,
      "Ġconcentration": 4822,
      "ifts": 4823,
      "acob": 4824,
      "Ġestimating": 4825,
      "Ġtested": 4826,
      "Ġerg": 4827,
      "Ġmeta": 4828,
      "Ġdone": 4829,
      "014": 4830,
      "ĠLat": 4831,
      "ĠCluster": 4832,
      "Ġproton": 4833,
      "ĠEd": 4834,
      "Ġshock": 4835,
      "istence": 4836,
      "Ġdownstream": 4837,
      "ĠChar": 4838,
      "Ġequivalence": 4839,
      "oltz": 4840,
      "Ġreliable": 4841,
      "32": 4842,
      "ush": 4843,
      "ĠSpeech": 4844,
      "Ġ2020": 4845,
      "Ġcompletely": 4846,
      "Ġremark": 4847,
      "kes": 4848,
      "ĠGal": 4849,
      "Ġassumed": 4850,
      "Ġabsol": 4851,
      "Ġdiscreti": 4852,
      "Ġrelaxation": 4853,
      "Ġarise": 4854,
      "Ġnearly": 4855,
      "tun": 4856,
      "Ġinsights": 4857,
      "frequency": 4858,
      "Ġprobe": 4859,
      "cons": 4860,
      "opes": 4861,
      "ĠEarth": 4862,
      "Ġaudio": 4863,
      "eless": 4864,
      "Ġcomparing": 4865,
      "Ġadvantages": 4866,
      "Ġscientific": 4867,
      "ades": 4868,
      "ĠGalax": 4869,
      "Ġbary": 4870,
      "Ġregularity": 4871,
      "oped": 4872,
      "Ġdatabase": 4873,
      "Ġbott": 4874,
      "Ġvoltage": 4875,
      "Ġhardware": 4876,
      "Te": 4877,
      "Ġcompati": 4878,
      "Ġfocused": 4879,
      "ulating": 4880,
      "Ġchains": 4881,
      "Ġadm": 4882,
      "odinger": 4883,
      "ĠExperiments": 4884,
      "Ġcavity": 4885,
      "ducible": 4886,
      "Ġcombining": 4887,
      "Ġcurrently": 4888,
      "Ġmoments": 4889,
      "yle": 4890,
      "ĠGroup": 4891,
      "Ġencod": 4892,
      "Ġvideos": 4893,
      "olograph": 4894,
      "Ġget": 4895,
      "ĠVideo": 4896,
      "Ġbranch": 4897,
      "Ġconfirm": 4898,
      "ĠDom": 4899,
      "053": 4900,
      "Ġpublish": 4901,
      "Ġpotentially": 4902,
      "ĠIoT": 4903,
      "manif": 4904,
      "pot": 4905,
      "Ġproofs": 4906,
      "ror": 4907,
      "Ġextremely": 4908,
      "Ġvirtual": 4909,
      "Ġtim": 4910,
      "ills": 4911,
      "Ġnoisy": 4912,
      "ĠMagnetic": 4913,
      "ĠSpin": 4914,
      "Ġlook": 4915,
      "Ġeconom": 4916,
      "ĠDat": 4917,
      "loop": 4918,
      "estion": 4919,
      "ĠLi": 4920,
      "Ġdeformation": 4921,
      "Ġstudying": 4922,
      "rowd": 4923,
      "Ġprofiles": 4924,
      "Ġdependencies": 4925,
      "onomy": 4926,
      "deg": 4927,
      "Ġsubstr": 4928,
      "ĠGalactic": 4929,
      "Ġautomated": 4930,
      "Ġtriang": 4931,
      "Ġsafety": 4932,
      "rank": 4933,
      "Ġpropor": 4934,
      "Ġinterval": 4935,
      "Ġvariants": 4936,
      "col": 4937,
      "Ġhence": 4938,
      "ĠSingle": 4939,
      "Ġextreme": 4940,
      "ĠCol": 4941,
      "^{+": 4942,
      "Ġsupercon": 4943,
      "xture": 4944,
      "convex": 4945,
      "ergence": 4946,
      "Ġintroduces": 4947,
      "gressive": 4948,
      "Ġarray": 4949,
      "Se": 4950,
      "Ġcircuits": 4951,
      "inci": 4952,
      "OT": 4953,
      "uristic": 4954,
      "019": 4955,
      "ĠIR": 4956,
      "Ġspecifically": 4957,
      "la": 4958,
      "Ġlaws": 4959,
      "Ġforces": 4960,
      "Ġleft": 4961,
      "ĠSimulation": 4962,
      "uk": 4963,
      "Ġpotentials": 4964,
      "Ġcohom": 4965,
      "Ġrecogn": 4966,
      "ithme": 4967,
      "Ġexpand": 4968,
      "Ġturbulence": 4969,
      "ĠTheorem": 4970,
      "Ġresonant": 4971,
      "pol": 4972,
      "oted": 4973,
      "ĠBrown": 4974,
      "Ġtheorems": 4975,
      "vices": 4976,
      "ometer": 4977,
      "ĠExp": 4978,
      "Ġsphere": 4979,
      "trans": 4980,
      "ĠEuclidean": 4981,
      "Ġresearchers": 4982,
      "049": 4983,
      "Ġjust": 4984,
      "otropy": 4985,
      "Ġthick": 4986,
      "ems": 4987,
      "be": 4988,
      "Ġqualit": 4989,
      "Ġdiscovery": 4990,
      "ili": 4991,
      "econd": 4992,
      "Ġshowed": 4993,
      "ĠState": 4994,
      "ĠTeV": 4995,
      "aching": 4996,
      "Ġunderst": 4997,
      "58": 4998,
      "Ġcosts": 4999,
      "Ġresidual": 5000,
      "Ġverification": 5001,
      "Ġcontextual": 5002,
      "Ġetc": 5003,
      "Ġlabels": 5004,
      "Ġnarrow": 5005,
      "ĠProgram": 5006,
      "Ġcompan": 5007,
      "Ġperforming": 5008,
      "Ġexcited": 5009,
      "Ġbenchmarks": 5010,
      "Ġthough": 5011,
      "Ġgrowing": 5012,
      "80": 5013,
      "Ġgenerators": 5014,
      "Ġcam": 5015,
      "lier": 5016,
      "Ġprobabilities": 5017,
      "ĠSu": 5018,
      "Ġcorpus": 5019,
      "Ġcontroller": 5020,
      "Ġenhancement": 5021,
      "optimal": 5022,
      "Ġcollected": 5023,
      "Ġpose": 5024,
      "ographic": 5025,
      "Ġhttps": 5026,
      "Ġimplications": 5027,
      "ĠUl": 5028,
      "MF": 5029,
      "Ġcapabilities": 5030,
      "omb": 5031,
      "Ġextends": 5032,
      "zero": 5033,
      "ĠGeneralized": 5034,
      "chain": 5035,
      "comes": 5036,
      "dd": 5037,
      "ulner": 5038,
      "Ġprime": 5039,
      "Ġphoto": 5040,
      "Ġexponent": 5041,
      "ĠRL": 5042,
      "Ġuniverse": 5043,
      "ready": 5044,
      "zing": 5045,
      "Ġsuggests": 5046,
      "Ġsetup": 5047,
      "Ġcircuit": 5048,
      "ectivity": 5049,
      "Ġformed": 5050,
      "illing": 5051,
      "Ġinstances": 5052,
      "ĠLor": 5053,
      "Ġverify": 5054,
      "erman": 5055,
      "Ġspatially": 5056,
      "Ġland": 5057,
      "Ġknot": 5058,
      "ef": 5059,
      "ĠScal": 5060,
      "Ġcatalog": 5061,
      "phase": 5062,
      "Ġallocation": 5063,
      "etal": 5064,
      "Ġredshift": 5065,
      "ĠHub": 5066,
      "Ġsatisfying": 5067,
      "commutative": 5068,
      "pc": 5069,
      "emperature": 5070,
      "izer": 5071,
      "Ġdeveloping": 5072,
      "Ġcoding": 5073,
      "Ġcry": 5074,
      "ĠLo": 5075,
      "achines": 5076,
      "ĠRepresentations": 5077,
      "Ġflexible": 5078,
      "ĠUnderstanding": 5079,
      "ĠAm": 5080,
      "Ġhandle": 5081,
      "Ġreveals": 5082,
      "Ġsentences": 5083,
      "Ġstack": 5084,
      "theta": 5085,
      "Ġstructured": 5086,
      "wide": 5087,
      "tild": 5088,
      "Ġwavelength": 5089,
      "ĠHow": 5090,
      "ĠDue": 5091,
      "plet": 5092,
      "ĠRepresentation": 5093,
      "fusion": 5094,
      "tivities": 5095,
      "umul": 5096,
      "Ġapproximations": 5097,
      "Ġacceleration": 5098,
      "ithub": 5099,
      "Ġassume": 5100,
      "Ġformulas": 5101,
      "Ġtrajectory": 5102,
      "ĠCos": 5103,
      "Ġsolit": 5104,
      "Ġpandemic": 5105,
      "Ġturbulent": 5106,
      "Ġabstract": 5107,
      "ĠST": 5108,
      "Ġoccurs": 5109,
      "ief": 5110,
      "Ġinvariance": 5111,
      "Ġdistinguish": 5112,
      "Ġbenefits": 5113,
      "Ġidentity": 5114,
      "side": 5115,
      "imeter": 5116,
      "isely": 5117,
      "Ġgene": 5118,
      "Ġqueries": 5119,
      "Ġrobot": 5120,
      "regular": 5121,
      "Ġjointly": 5122,
      "Ġspherical": 5123,
      "Ġremain": 5124,
      "Ġarising": 5125,
      "ĠCompar": 5126,
      "Ġplanets": 5127,
      "Ġsatisfies": 5128,
      "ĠIdentif": 5129,
      "MM": 5130,
      "Ġextra": 5131,
      "ĠContext": 5132,
      "Ġduality": 5133,
      "ĠAfter": 5134,
      "tilde": 5135,
      "Ġcompression": 5136,
      "2005": 5137,
      "Ġcommunications": 5138,
      "kin": 5139,
      "ĠDark": 5140,
      "Ġframes": 5141,
      "Ġanomaly": 5142,
      "Ġparadigm": 5143,
      "part": 5144,
      "osen": 5145,
      "Ġnews": 5146,
      "ĠSw": 5147,
      "Ġvariant": 5148,
      "Ġsky": 5149,
      "ermiti": 5150,
      "ermitian": 5151,
      "ontaneous": 5152,
      "Ġlearns": 5153,
      "ample": 5154,
      "Ġsee": 5155,
      "mode": 5156,
      "Ġimplicit": 5157,
      "Ġfrag": 5158,
      "SA": 5159,
      "Ġair": 5160,
      "erc": 5161,
      "ĠWave": 5162,
      "Ġprincipal": 5163,
      "Ġmoduli": 5164,
      "valued": 5165,
      "Ġ15": 5166,
      "RI": 5167,
      "idel": 5168,
      "Ġentity": 5169,
      "100": 5170,
      "ni": 5171,
      "fluid": 5172,
      "Ġtransient": 5173,
      "ĠAnd": 5174,
      "ested": 5175,
      "aut": 5176,
      "Ġalready": 5177,
      "Ġidentifying": 5178,
      "Ġrepresented": 5179,
      "Ġlabeled": 5180,
      "Ġexhibits": 5181,
      "Ġmissing": 5182,
      "terior": 5183,
      "Ġexpressed": 5184,
      "013": 5185,
      "Ġcold": 5186,
      "Ġadaptation": 5187,
      "ĠDecision": 5188,
      "Ġmesh": 5189,
      "ĠBrownian": 5190,
      "Ps": 5191,
      "uling": 5192,
      "Ġcriterion": 5193,
      "ze": 5194,
      "Ġwho": 5195,
      "Ġexpensive": 5196,
      "Ġunified": 5197,
      "Ġelectrical": 5198,
      "Ġinflation": 5199,
      "Ġways": 5200,
      "Ġguarantee": 5201,
      "Ġclassifier": 5202,
      "rob": 5203,
      "Ġbiological": 5204,
      "Ġformulate": 5205,
      "Ġiterative": 5206,
      "ĠPrediction": 5207,
      "ĠTransfer": 5208,
      "tra": 5209,
      "033": 5210,
      "ulty": 5211,
      "ĠCap": 5212,
      "Ġmodeled": 5213,
      "parameter": 5214,
      "ĠAnaly": 5215,
      "Ġcombine": 5216,
      "Ġsharing": 5217,
      "plane": 5218,
      "|\\": 5219,
      "Ġparabolic": 5220,
      "Ġhighlight": 5221,
      "ĠMeV": 5222,
      "ĠIntegr": 5223,
      "obility": 5224,
      "Ġquantization": 5225,
      "utter": 5226,
      "Ġinterfer": 5227,
      "theore": 5228,
      "Ġtok": 5229,
      "Ġdeal": 5230,
      "Ġuncertainties": 5231,
      "lusion": 5232,
      "Ġformulated": 5233,
      "Ġ&": 5234,
      "ĠRam": 5235,
      "AD": 5236,
      "ustrial": 5237,
      "br": 5238,
      "ĠStar": 5239,
      "Ġconsistency": 5240,
      "rier": 5241,
      "Ġorbits": 5242,
      "Ġpoor": 5243,
      "orth": 5244,
      "Ġtrace": 5245,
      "idal": 5246,
      "ĠStatis": 5247,
      "agonal": 5248,
      "ĠAdditionally": 5249,
      "ĠAutomatic": 5250,
      "ĠFlow": 5251,
      "Ġmotivated": 5252,
      "ĠBoth": 5253,
      "Ġpredicting": 5254,
      "Ġallowed": 5255,
      "Ġpretrained": 5256,
      "Ġpaths": 5257,
      "Ġcorrections": 5258,
      "Ġsemiconduct": 5259,
      "uli": 5260,
      "ĠRo": 5261,
      "Ġindividuals": 5262,
      "Ġrotating": 5263,
      "Ġquantify": 5264,
      "Ġcycle": 5265,
      "Ġrigorous": 5266,
      "ithmetic": 5267,
      "Ġunderstood": 5268,
      "Ġshap": 5269,
      "bl": 5270,
      "ĠSi": 5271,
      "appa": 5272,
      "ressible": 5273,
      "Ġfo": 5274,
      "ĠProcessing": 5275,
      "ĠStudy": 5276,
      "usions": 5277,
      "ditive": 5278,
      "Ġreducing": 5279,
      "olicy": 5280,
      "Ġrigid": 5281,
      "box": 5282,
      "Ġobservational": 5283,
      "Ġderivative": 5284,
      "Ġintelligence": 5285,
      "oys": 5286,
      "entz": 5287,
      "pler": 5288,
      "Ġmaintain": 5289,
      "Ġsupernov": 5290,
      "Ġmagnetization": 5291,
      "42": 5292,
      "Ġbil": 5293,
      "Ġcarried": 5294,
      "Ġluminosity": 5295,
      "Ġsynt": 5296,
      "equilibrium": 5297,
      "Ġaffect": 5298,
      "Ġabsolute": 5299,
      "Ġapplicable": 5300,
      "avigation": 5301,
      "Ġgeneralizes": 5302,
      "Ġobservables": 5303,
      "Ġproduces": 5304,
      "Ġattract": 5305,
      "Sh": 5306,
      "alse": 5307,
      "Ġconclud": 5308,
      "Ġbrain": 5309,
      "60": 5310,
      "ĠBose": 5311,
      "ĠChern": 5312,
      "Ġdetermining": 5313,
      "ynamical": 5314,
      "github": 5315,
      "ĠCr": 5316,
      "Ġcomputations": 5317,
      "oft": 5318,
      "ichlet": 5319,
      "critical": 5320,
      "Ġinvariants": 5321,
      "Ġblocks": 5322,
      "Ġ12": 5323,
      "Ġboundaries": 5324,
      "ident": 5325,
      "Ġdiscon": 5326,
      "2004": 5327,
      "St": 5328,
      "039": 5329,
      "Ġassuming": 5330,
      "Ġanalyzing": 5331,
      "Ġutility": 5332,
      "iew": 5333,
      "radi": 5334,
      "upled": 5335,
      "ĠDirec": 5336,
      "Ġsemantics": 5337,
      "down": 5338,
      "ĠMultiple": 5339,
      "Ġdigital": 5340,
      "ĠLand": 5341,
      "Ġshear": 5342,
      "Ġrare": 5343,
      "Ġcombines": 5344,
      "Ġfract": 5345,
      "Ġload": 5346,
      "Ġfermions": 5347,
      "Ġemer": 5348,
      "cing": 5349,
      "pled": 5350,
      "Ġrecur": 5351,
      "ply": 5352,
      "Ġâ": 5353,
      "umm": 5354,
      "2011": 5355,
      "ĠGlobal": 5356,
      "Ġ50": 5357,
      "Ġmicroscopic": 5358,
      "thers": 5359,
      "Ġconstants": 5360,
      "Ġswitching": 5361,
      "Ġleverage": 5362,
      "ĠUV": 5363,
      "tivation": 5364,
      "Ġexcitations": 5365,
      "ĠDistribution": 5366,
      "uistic": 5367,
      "}_{\\": 5368,
      "Ġaver": 5369,
      "ĠSocial": 5370,
      "jections": 5371,
      "day": 5372,
      "Ġprecisely": 5373,
      "Ġbundles": 5374,
      "Ġmoving": 5375,
      "ĠHuman": 5376,
      "acing": 5377,
      "Ġpossess": 5378,
      "ĠSeveral": 5379,
      "echanical": 5380,
      "IMO": 5381,
      "Ġtuning": 5382,
      "urns": 5383,
      "dle": 5384,
      "Ġsection": 5385,
      "urate": 5386,
      "Ġreliability": 5387,
      "ĠBack": 5388,
      "Ġlattices": 5389,
      "LT": 5390,
      "Ġauto": 5391,
      "ĠWeyl": 5392,
      "Ġcha": 5393,
      "Ġuniformly": 5394,
      "Ġcub": 5395,
      "Ġappears": 5396,
      "LU": 5397,
      "vision": 5398,
      "ĠTemporal": 5399,
      "ĠIs": 5400,
      "Ġnonlocal": 5401,
      "Ġestimators": 5402,
      "Ġservices": 5403,
      "defined": 5404,
      "Ġdetails": 5405,
      "Ġpublicly": 5406,
      "88": 5407,
      "Ġvulner": 5408,
      "oung": 5409,
      "ĠAsy": 5410,
      "Ġmitig": 5411,
      "Ġquantities": 5412,
      "Trans": 5413,
      "ana": 5414,
      "Ġonto": 5415,
      "Ġovercome": 5416,
      "ES": 5417,
      "odic": 5418,
      "Ġlogarithm": 5419,
      "itudinal": 5420,
      "39": 5421,
      "Ġneutral": 5422,
      "ski": 5423,
      "ĠFr": 5424,
      "Ġcomposed": 5425,
      "^-": 5426,
      "ee": 5427,
      "oregressive": 5428,
      "Ġconvers": 5429,
      "Ġheuristic": 5430,
      "Ġchanging": 5431,
      "Ġsilic": 5432,
      "Ġgran": 5433,
      "Ġdecisions": 5434,
      "Ġutilize": 5435,
      "ĠTherm": 5436,
      "Ġeigenvalues": 5437,
      "LM": 5438,
      "ĠSeg": 5439,
      "ĠCloud": 5440,
      "Ġvalidate": 5441,
      "cho": 5442,
      "Ġradiative": 5443,
      "Ġinvolves": 5444,
      "BH": 5445,
      "Ġestimator": 5446,
      "Ġlocalized": 5447,
      "ĠOut": 5448,
      "Ġcollapse": 5449,
      "Ġgenerates": 5450,
      "Ġsplitting": 5451,
      "placian": 5452,
      "AV": 5453,
      "Ġhistory": 5454,
      "Ġsix": 5455,
      "ĠFeature": 5456,
      "Ġthird": 5457,
      "neg": 5458,
      "Ġothers": 5459,
      "Ġsecure": 5460,
      "Ġextensions": 5461,
      "Ġrequiring": 5462,
      "olographic": 5463,
      "Ġfib": 5464,
      "scopic": 5465,
      "Ġ{": 5466,
      "ulate": 5467,
      "approx": 5468,
      "processing": 5469,
      "Ġpic": 5470,
      "Ġrenormalization": 5471,
      "iom": 5472,
      "Ġinsulator": 5473,
      "ĠPhase": 5474,
      "Ġdetecting": 5475,
      "ĠLogic": 5476,
      "ĠSpatial": 5477,
      "DF": 5478,
      "ĠOper": 5479,
      "Ġsingularities": 5480,
      "Ġrobots": 5481,
      "ĠNeutr": 5482,
      "43": 5483,
      "Ġperforms": 5484,
      "with": 5485,
      "Ġnlin": 5486,
      "eting": 5487,
      "Ġpositions": 5488,
      "Ġrepe": 5489,
      "Ġ30": 5490,
      "Ġanswering": 5491,
      "Ġforecasting": 5492,
      "Ġhumans": 5493,
      "Ġexponentially": 5494,
      "orting": 5495,
      "dyn": 5496,
      "Ġwall": 5497,
      "ĠAgent": 5498,
      "Ġbaselines": 5499,
      "Ġregularization": 5500,
      "Ġmer": 5501,
      "Ġbig": 5502,
      "Ġodd": 5503,
      "ĠMotivated": 5504,
      "Ġcohomology": 5505,
      "agnet": 5506,
      "ĠVal": 5507,
      "Ġelementary": 5508,
      "GB": 5509,
      "tang": 5510,
      "Ġextens": 5511,
      "Ġdominant": 5512,
      "Ġrestricted": 5513,
      "acts": 5514,
      "057": 5515,
      "Ġcouplings": 5516,
      "Ġclinical": 5517,
      "ĠDel": 5518,
      "ĠQuestion": 5519,
      "Ġauthor": 5520,
      "ĠAdaptive": 5521,
      "pass": 5522,
      "ented": 5523,
      "ucle": 5524,
      "Ġtopic": 5525,
      "xy": 5526,
      "Ġinsight": 5527,
      "ĠEnd": 5528,
      "Ġencode": 5529,
      "Ġfollows": 5530,
      "ĠBlack": 5531,
      "ĠLight": 5532,
      "versal": 5533,
      "Ġneighbor": 5534,
      "bran": 5535,
      "Ġsurv": 5536,
      "Ġcoverage": 5537,
      "ĠDirichlet": 5538,
      "Ġrapidly": 5539,
      "cdot": 5540,
      "Ġsal": 5541,
      "Ġsoci": 5542,
      "Ġservice": 5543,
      "photon": 5544,
      "Ġmembers": 5545,
      "kappa": 5546,
      "Ġlatency": 5547,
      "ĠTechn": 5548,
      "Ġtunnel": 5549,
      "Ġintersection": 5550,
      "Ġ13": 5551,
      "ĠCharacter": 5552,
      "Ġposterior": 5553,
      "Ġthereby": 5554,
      "Ġregarding": 5555,
      "Ġrecommendation": 5556,
      "ĠCosm": 5557,
      "PA": 5558,
      "oplan": 5559,
      "Ġ$(\\": 5560,
      "ĠPriv": 5561,
      "85": 5562,
      "resents": 5563,
      "Ġspecies": 5564,
      "Ġexplored": 5565,
      "Ġantifer": 5566,
      "Ġoptimized": 5567,
      "Ġboson": 5568,
      "Ġcycles": 5569,
      "eds": 5570,
      "Ġideas": 5571,
      "Ġcooperative": 5572,
      "029": 5573,
      "Ġrepresents": 5574,
      "Ġsector": 5575,
      "Ġstrain": 5576,
      "Ġintu": 5577,
      "Ġsatur": 5578,
      "ologically": 5579,
      "Ġrepresenting": 5580,
      "Ġhydrogen": 5581,
      "DR": 5582,
      "inger": 5583,
      "ĠAnswer": 5584,
      "aced": 5585,
      "Ġvariability": 5586,
      "ĠChall": 5587,
      "law": 5588,
      "no": 5589,
      "Ġwhereas": 5590,
      "2009": 5591,
      "uration": 5592,
      "Ġoptimize": 5593,
      "Ġadapt": 5594,
      "Ġeigenvalue": 5595,
      "algebras": 5596,
      "tw": 5597,
      "ĠConstrain": 5598,
      "Ġlittle": 5599,
      "utation": 5600,
      "ilities": 5601,
      "Ġcandidates": 5602,
      "Ġrunning": 5603,
      "Ġemploying": 5604,
      "classical": 5605,
      "bi": 5606,
      "max": 5607,
      "Ġregimes": 5608,
      "Ġintegrals": 5609,
      "Ġcompound": 5610,
      "Ġoperating": 5611,
      "ldots": 5612,
      "ĠType": 5613,
      "Ġiden": 5614,
      "Ġapproximately": 5615,
      "Ġled": 5616,
      "Ġpreserving": 5617,
      "Ġrings": 5618,
      "Ġsolv": 5619,
      "bal": 5620,
      "Ġcop": 5621,
      "Ġlabor": 5622,
      "ĠExisting": 5623,
      "Ġlocations": 5624,
      "Ġemerging": 5625,
      "Ġpublished": 5626,
      "ĠIntr": 5627,
      "..": 5628,
      "iable": 5629,
      "isenberg": 5630,
      "Ġisol": 5631,
      "otonic": 5632,
      "ĠYang": 5633,
      "Ġdiversity": 5634,
      "ĠMethods": 5635,
      "AE": 5636,
      "Ġsurve": 5637,
      "Ġclouds": 5638,
      "CY": 5639,
      "SU": 5640,
      "joint": 5641,
      "Ġpump": 5642,
      "Ġmid": 5643,
      "ĠGreen": 5644,
      "ĠGenerative": 5645,
      "Ġentities": 5646,
      "Ġemo": 5647,
      "Ġintegers": 5648,
      "Ġcause": 5649,
      "ĠExtr": 5650,
      "Ġearlier": 5651,
      "formance": 5652,
      "Ġlargest": 5653,
      "ighting": 5654,
      "rastructure": 5655,
      "Ġplatforms": 5656,
      "hed": 5657,
      "Ġneutrinos": 5658,
      "Ġpackage": 5659,
      "Ġcriteria": 5660,
      "ones": 5661,
      "erated": 5662,
      "Ġcalculus": 5663,
      "Ġage": 5664,
      "graphs": 5665,
      "IN": 5666,
      "functions": 5667,
      "Ġtre": 5668,
      "Ġscene": 5669,
      "Ġenvironmental": 5670,
      "Ġcoordination": 5671,
      "epth": 5672,
      "ĠTraining": 5673,
      "Ġcurrents": 5674,
      "Ġtackle": 5675,
      "link": 5676,
      "ĠLSTM": 5677,
      "Ġplanet": 5678,
      "Ġutilizing": 5679,
      "Ġbinaries": 5680,
      "Ġresponses": 5681,
      "Ġvanishing": 5682,
      "varphi": 5683,
      "86": 5684,
      "yr": 5685,
      "oles": 5686,
      "MD": 5687,
      "connected": 5688,
      "2020": 5689,
      "Ġ9": 5690,
      "Ġarithmetic": 5691,
      "Ġspontaneous": 5692,
      "ognitive": 5693,
      "Ġentangled": 5694,
      "Ġgreater": 5695,
      "ĠMean": 5696,
      "gl": 5697,
      "Ġstri": 5698,
      "ĠAL": 5699,
      "Ġderivatives": 5700,
      "grained": 5701,
      "fold": 5702,
      "Ġchosen": 5703,
      "axwell": 5704,
      "Ġeasy": 5705,
      "Ġcoordinate": 5706,
      "CG": 5707,
      "ĠSolar": 5708,
      "ĠMajor": 5709,
      "adow": 5710,
      "ĠVer": 5711,
      "uality": 5712,
      "aring": 5713,
      "Ġpossibly": 5714,
      "ashion": 5715,
      "FR": 5716,
      "ric": 5717,
      "ĠGr": 5718,
      "Ġdependency": 5719,
      "2006": 5720,
      "ametri": 5721,
      "Ġadopted": 5722,
      "bounded": 5723,
      "Ġconnectivity": 5724,
      "ĠBr": 5725,
      "Ġphotonic": 5726,
      "Ġqubits": 5727,
      "Ġabsence": 5728,
      "Ġopportun": 5729,
      "Ġunitary": 5730,
      "65": 5731,
      "Ġlinearly": 5732,
      "tenn": 5733,
      "sequence": 5734,
      "periodic": 5735,
      "$^{-": 5736,
      "urg": 5737,
      "067": 5738,
      "ĠCombin": 5739,
      "Ġprotot": 5740,
      "ending": 5741,
      "Ġanalytically": 5742,
      "Ġexcess": 5743,
      "Ġmoder": 5744,
      "ĠProper": 5745,
      "Ġdesigns": 5746,
      "Ġsections": 5747,
      "Ġinvolved": 5748,
      "Sch": 5749,
      "asm": 5750,
      "Ġexploration": 5751,
      "ounter": 5752,
      "Ġgeodes": 5753,
      "Ġdiagonal": 5754,
      "oltzmann": 5755,
      "BS": 5756,
      "sch": 5757,
      "ĠBes": 5758,
      "duct": 5759,
      "stage": 5760,
      "system": 5761,
      "Ġanisotropy": 5762,
      "Ġfinitely": 5763,
      "Ġadvanced": 5764,
      "PI": 5765,
      "ĠEmbed": 5766,
      "arp": 5767,
      "ĠMemory": 5768,
      "Ġstudents": 5769,
      "modal": 5770,
      "fill": 5771,
      "Ġincom": 5772,
      "ĠStandard": 5773,
      "Ġrelease": 5774,
      "Ġdiagrams": 5775,
      "Ġsynchronization": 5776,
      "ĠRiemannian": 5777,
      "Ġabstr": 5778,
      "ender": 5779,
      "Ġefforts": 5780,
      "Ġoffers": 5781,
      "channel": 5782,
      "}$)": 5783,
      "Ġrecon": 5784,
      "Ġrealized": 5785,
      "Ġpersonal": 5786,
      "Ġexcell": 5787,
      "ele": 5788,
      "itten": 5789,
      "electron": 5790,
      "Ġactivities": 5791,
      "Ġfron": 5792,
      "Ġsystematically": 5793,
      "55": 5794,
      "87": 5795,
      "Ġconj": 5796,
      "Ġsubstantial": 5797,
      "inning": 5798,
      "ampling": 5799,
      "Ġseparate": 5800,
      "sl": 5801,
      "Ġinversion": 5802,
      "Ġdemonstrates": 5803,
      "Ġmonol": 5804,
      "Ġfailure": 5805,
      "Ġpie": 5806,
      "inguistic": 5807,
      "ulomb": 5808,
      "umann": 5809,
      "Ġtransmit": 5810,
      "Ġbiom": 5811,
      "Ġreactions": 5812,
      "Ġcircum": 5813,
      "acc": 5814,
      "ĠMil": 5815,
      "ĠFinite": 5816,
      "hy": 5817,
      "Ġordinary": 5818,
      "Ġarr": 5819,
      "Ġdeviation": 5820,
      "PL": 5821,
      "Ġgate": 5822,
      "ores": 5823,
      "Ġfilms": 5824,
      "ĠStrong": 5825,
      "Ġcellular": 5826,
      "Ġhierarchy": 5827,
      "Ġouter": 5828,
      "Ġordered": 5829,
      "Ġmeasuring": 5830,
      "ĠMobile": 5831,
      "ĠPos": 5832,
      "TH": 5833,
      "ĠSoft": 5834,
      "Ġmal": 5835,
      "acle": 5836,
      "igroup": 5837,
      "Ġbeams": 5838,
      "uxili": 5839,
      "Ġcrypt": 5840,
      "uxiliary": 5841,
      "FL": 5842,
      "Ġ:": 5843,
      "Ġtrigg": 5844,
      "ustry": 5845,
      "ĠTopological": 5846,
      "ĠFace": 5847,
      "Ġclassify": 5848,
      "Ġfilam": 5849,
      "ĠApplication": 5850,
      "uming": 5851,
      "Ġlonger": 5852,
      "lim": 5853,
      "Ġdespite": 5854,
      "tron": 5855,
      "Ġcircular": 5856,
      "Ġiteration": 5857,
      "Ġinspired": 5858,
      "Ġproven": 5859,
      "Ġoutcomes": 5860,
      "independent": 5861,
      "Ġauthors": 5862,
      "Ġbalance": 5863,
      "ĠAuto": 5864,
      "Ġincorporate": 5865,
      "Ġobservable": 5866,
      "homogeneous": 5867,
      "inated": 5868,
      "Ġcoinc": 5869,
      "su": 5870,
      "Ġlongitudinal": 5871,
      "Ġcounting": 5872,
      "Ġconstructing": 5873,
      "Ġinvolve": 5874,
      "Ġcomplementary": 5875,
      "Ġcapability": 5876,
      "Ġphonon": 5877,
      "Ġ21": 5878,
      "Ġdecrease": 5879,
      "Ġirreducible": 5880,
      "Ġconclude": 5881,
      "Ġsentiment": 5882,
      "Ġscalable": 5883,
      "Ġsimulate": 5884,
      "ounting": 5885,
      "Ġlater": 5886,
      "ĠCT": 5887,
      "Ġoppos": 5888,
      "Ġprice": 5889,
      "Ġbands": 5890,
      "ĠIntellig": 5891,
      "idelity": 5892,
      "seen": 5893,
      "Ġsums": 5894,
      "Ġpay": 5895,
      "Ġeffort": 5896,
      "063": 5897,
      "ostructure": 5898,
      "ĠSeman": 5899,
      "ĠCur": 5900,
      "ĠUncertain": 5901,
      "Ġreceived": 5902,
      "Ġsatell": 5903,
      "Ġcreated": 5904,
      "Ġcompatible": 5905,
      "\",": 5906,
      "Ġasymmetric": 5907,
      "Ġbenefit": 5908,
      "ĠAlso": 5909,
      "Ġargument": 5910,
      "Ġconsumption": 5911,
      "irable": 5912,
      "tioning": 5913,
      "ĠLorentz": 5914,
      "uation": 5915,
      "phas": 5916,
      "Ġcalibration": 5917,
      "Ad": 5918,
      "ĠPath": 5919,
      "Ġcompr": 5920,
      "stead": 5921,
      "ĠPrevious": 5922,
      "Ġtargets": 5923,
      "ĠComputing": 5924,
      "ĠAlgorithms": 5925,
      "efficient": 5926,
      "ĠHeisenberg": 5927,
      "41": 5928,
      "polar": 5929,
      "ĠBoltzmann": 5930,
      "Ġexcellent": 5931,
      "ĠBa": 5932,
      "Ġspeaker": 5933,
      "Ġsingularity": 5934,
      "book": 5935,
      "ĠAug": 5936,
      "Ġsound": 5937,
      "Ġusual": 5938,
      "Ġlargely": 5939,
      "Ġamplitudes": 5940,
      "hemical": 5941,
      "Ġprocedures": 5942,
      "Ġemergence": 5943,
      "Ġpipeline": 5944,
      "56": 5945,
      "NLP": 5946,
      "Ġmobility": 5947,
      "Ġhighest": 5948,
      "Ġdeco": 5949,
      "Ġdiscovered": 5950,
      "Ġmodalities": 5951,
      "Ġaccom": 5952,
      "Ġconverge": 5953,
      "Ġfocuses": 5954,
      "omorphisms": 5955,
      "Ġrecovery": 5956,
      "Ġstarting": 5957,
      "Ġconsequences": 5958,
      "Ġmostly": 5959,
      "Ġpruning": 5960,
      "operator": 5961,
      "Ġincorporating": 5962,
      "Ġalthough": 5963,
      "Ġsubstantially": 5964,
      "eed": 5965,
      "Ġsimplic": 5966,
      "Ġvelocities": 5967,
      "Ġenabling": 5968,
      "Ġgalactic": 5969,
      "ĠSet": 5970,
      "Ġtravel": 5971,
      "Ġevolutionary": 5972,
      "Ġinfinity": 5973,
      "Ġupdate": 5974,
      "Ġhold": 5975,
      "Ġconverges": 5976,
      "Ġ2019": 5977,
      "roll": 5978,
      "Ġnull": 5979,
      "circ": 5980,
      "Ġsev": 5981,
      "Ġbox": 5982,
      ")}": 5983,
      "ĠFunction": 5984,
      "RA": 5985,
      "orn": 5986,
      "Ġiner": 5987,
      "Ġspars": 5988,
      "lectic": 5989,
      "lecular": 5990,
      "Ġranging": 5991,
      "Ġwhite": 5992,
      "Ġadditive": 5993,
      "Ġhar": 5994,
      "ĠHI": 5995,
      "BM": 5996,
      "ĠLang": 5997,
      "itively": 5998,
      "Ġindicates": 5999,
      "Ġconsiders": 6000,
      "ĠEnh": 6001,
      "ĠLaplacian": 6002,
      "TS": 6003,
      "Ġdecentralized": 6004,
      "ĠEnviron": 6005,
      "49": 6006,
      "Ġkin": 6007,
      "ancial": 6008,
      "Ġpredicts": 6009,
      "partial": 6010,
      "placement": 6011,
      "]$": 6012,
      "opping": 6013,
      "Ġconvolution": 6014,
      "ĠLimit": 6015,
      "Ġdecades": 6016,
      "Ġsuggested": 6017,
      "anck": 6018,
      "Ġbandwidth": 6019,
      "70": 6020,
      "Ġub": 6021,
      "Ġcumul": 6022,
      "Ġfalse": 6023,
      "Ġrecord": 6024,
      "normal": 6025,
      "icci": 6026,
      "ĠCan": 6027,
      "ĠGraphs": 6028,
      "Ġsuperconductors": 6029,
      "Ġaxiom": 6030,
      "odynamics": 6031,
      "Ġtorus": 6032,
      "Ġsuperconductivity": 6033,
      "ĠOnline": 6034,
      "Ġsecondary": 6035,
      "electric": 6036,
      "Ġsituations": 6037,
      "Ġmission": 6038,
      "Ġdynamically": 6039,
      "Ġcorresponds": 6040,
      "ĠDM": 6041,
      "Ġperturbative": 6042,
      "Ġdimensionality": 6043,
      "ĠRegular": 6044,
      "Ġsummarization": 6045,
      "ĠLev": 6046,
      "ifications": 6047,
      "Ġdiffr": 6048,
      "Ġdil": 6049,
      "ĠMechan": 6050,
      "ĠGu": 6051,
      "ĠHierarch": 6052,
      "Ġdocuments": 6053,
      "astive": 6054,
      "Ġbond": 6055,
      "Ġlist": 6056,
      "ĠCode": 6057,
      "Ġratios": 6058,
      "Ġubiqu": 6059,
      "ĠMatter": 6060,
      "ĠMaxim": 6061,
      "Ġheating": 6062,
      "temperature": 6063,
      "Ġimpos": 6064,
      "Ġgradients": 6065,
      "ĠOrder": 6066,
      "ĠProt": 6067,
      "Ġarbitrarily": 6068,
      "source": 6069,
      "chitz": 6070,
      "ipschitz": 6071,
      "Ġtrunc": 6072,
      "Ġexperience": 6073,
      "istry": 6074,
      "Ġlens": 6075,
      "ĠASR": 6076,
      "aton": 6077,
      "Ġprescri": 6078,
      "Ġoverl": 6079,
      "Ġextending": 6080,
      "ĠEquations": 6081,
      "Ġdipole": 6082,
      "ĠDomain": 6083,
      "ym": 6084,
      "soc": 6085,
      "Ġtension": 6086,
      "abatic": 6087,
      "Ġ18": 6088,
      "Ġexecution": 6089,
      "aight": 6090,
      "ĠGo": 6091,
      "ĠUnlike": 6092,
      "ĠPerformance": 6093,
      "Ġmacroscopic": 6094,
      "ulators": 6095,
      "izable": 6096,
      "contr": 6097,
      "Ġpicture": 6098,
      "Ġfashion": 6099,
      "ĠCross": 6100,
      "romatic": 6101,
      "ĠAGN": 6102,
      "Ġaccept": 6103,
      "ogeneity": 6104,
      "embles": 6105,
      "Ġproportional": 6106,
      "ifies": 6107,
      "Ġmodulation": 6108,
      "Ġglob": 6109,
      "Ġconcerning": 6110,
      "Ġusage": 6111,
      "Ġ11": 6112,
      "prising": 6113,
      "ĠSegmentation": 6114,
      "ral": 6115,
      "Ġmultimodal": 6116,
      "overline": 6117,
      "ĠArchitecture": 6118,
      "CNN": 6119,
      "Ġtoken": 6120,
      "ĠGHz": 6121,
      "Ġroot": 6122,
      "Ġminimize": 6123,
      "Ġlepton": 6124,
      "Ġobjectives": 6125,
      "Ġperson": 6126,
      "Ġparticipants": 6127,
      "ĠSpar": 6128,
      "ured": 6129,
      "Ġshare": 6130,
      "Ġcooling": 6131,
      "plicated": 6132,
      "Ġanalyse": 6133,
      "Ġkernels": 6134,
      "urrence": 6135,
      "Ġexploiting": 6136,
      "Ġscores": 6137,
      "Ġattributes": 6138,
      "Ġquoti": 6139,
      "Ġtwisted": 6140,
      "Ġsimply": 6141,
      "Ġordering": 6142,
      "theoretic": 6143,
      "PO": 6144,
      "ius": 6145,
      "Ġamounts": 6146,
      "Ġcubic": 6147,
      "ai": 6148,
      "Ġshell": 6149,
      "ĠConsider": 6150,
      "Ġadding": 6151,
      "onsense": 6152,
      "Ġsuffer": 6153,
      "Ġtokens": 6154,
      "Ġmodification": 6155,
      "ĠNGC": 6156,
      "upling": 6157,
      "Ġinterpreted": 6158,
      "Ġgiant": 6159,
      "Ġsupported": 6160,
      "Ġatmospheric": 6161,
      "Ġstrictly": 6162,
      "Ġnewly": 6163,
      "Ġdesigning": 6164,
      "Ġranking": 6165,
      "Ġdominated": 6166,
      "ĠUp": 6167,
      "ĠAlgeb": 6168,
      "ĠEffect": 6169,
      "57": 6170,
      "Ġcounterpart": 6171,
      "Ġign": 6172,
      "Ġtorsion": 6173,
      "edge": 6174,
      "Ġbelief": 6175,
      "Ġstraight": 6176,
      "Ġdifficulty": 6177,
      "Ġmutual": 6178,
      "labeled": 6179,
      "itous": 6180,
      "ĠChannel": 6181,
      "ĠCoulomb": 6182,
      "Ġinfrastructure": 6183,
      "ements": 6184,
      "Ġexplained": 6185,
      "Ġdialogue": 6186,
      "ĠStatistical": 6187,
      "052": 6188,
      "negative": 6189,
      "Ġdoub": 6190,
      "ĠCont": 6191,
      "ĠReconstr": 6192,
      "Ġaddresses": 6193,
      "Ġmixture": 6194,
      "Ġtend": 6195,
      "Ġspreading": 6196,
      "Ġindustrial": 6197,
      "CS": 6198,
      "Ġnearby": 6199,
      "Ġdissipation": 6200,
      "ĠTelescope": 6201,
      "ĠAdS": 6202,
      "Ġaugmentation": 6203,
      "2007": 6204,
      "Ġcaptured": 6205,
      "ĠSequence": 6206,
      "68": 6207,
      "Ġoffl": 6208,
      "tribution": 6209,
      "ĠEvaluation": 6210,
      "Ġbundle": 6211,
      "Ġauxiliary": 6212,
      "dial": 6213,
      "gas": 6214,
      "arest": 6215,
      "Ġideals": 6216,
      "ĠNewton": 6217,
      "Ġrevealed": 6218,
      "ĠEncoder": 6219,
      "Ġcareful": 6220,
      "^-$": 6221,
      "Ġgeometr": 6222,
      "relation": 6223,
      "ĠIts": 6224,
      "ovi": 6225,
      "ynchron": 6226,
      "oidal": 6227,
      "Ġcovariance": 6228,
      "ĠLandau": 6229,
      "wr": 6230,
      "que": 6231,
      "mplectic": 6232,
      "Ġpolymer": 6233,
      "ĠTwitter": 6234,
      "Ġoriented": 6235,
      "cm": 6236,
      "utive": 6237,
      "actable": 6238,
      "Ġmultilingual": 6239,
      "Ġuniqueness": 6240,
      "TL": 6241,
      "els": 6242,
      "opf": 6243,
      "Ġopin": 6244,
      "vil": 6245,
      "Ġantenn": 6246,
      "icing": 6247,
      "Ġdisks": 6248,
      "Ġroom": 6249,
      "Ġcm": 6250,
      "Ġbipar": 6251,
      "Ġimag": 6252,
      "Ġtechnical": 6253,
      "Ġastrophysical": 6254,
      "operative": 6255,
      "022": 6256,
      "Ġplasm": 6257,
      "oders": 6258,
      "Ġunstable": 6259,
      "ĠPy": 6260,
      "ĠNP": 6261,
      "Ġdivergence": 6262,
      "itch": 6263,
      "ĠSitter": 6264,
      "Ġalign": 6265,
      "Ġinterplay": 6266,
      "Ġdrive": 6267,
      "limit": 6268,
      "Ġdiscussion": 6269,
      "uchy": 6270,
      "Ġrow": 6271,
      "ĠActive": 6272,
      "ĠDiff": 6273,
      "ĠHybrid": 6274,
      "Ġprivate": 6275,
      "Ġmanipulation": 6276,
      "ano": 6277,
      "Ġgenerator": 6278,
      "Ġslight": 6279,
      "Ġsubsequent": 6280,
      "ĠAsympto": 6281,
      "burst": 6282,
      "Ġsemim": 6283,
      "Ġrandomly": 6284,
      "ĠCauchy": 6285,
      "ĠInference": 6286,
      "Ġhypersur": 6287,
      "Ġdamp": 6288,
      "Ġbosons": 6289,
      "Ġpurely": 6290,
      "Ġions": 6291,
      "Ġtoo": 6292,
      "67": 6293,
      "ita": 6294,
      "032": 6295,
      "ĠVir": 6296,
      "Ġdegrad": 6297,
      "Ġfacilitate": 6298,
      "ĠWi": 6299,
      "ovian": 6300,
      "Ġbrid": 6301,
      "ĠPart": 6302,
      "tification": 6303,
      "gravity": 6304,
      "ĠAnswering": 6305,
      "Ġbus": 6306,
      "ĠGaia": 6307,
      "64": 6308,
      "eration": 6309,
      "Ġbeg": 6310,
      "Ġlimiting": 6311,
      "Ġsurround": 6312,
      "Ġoscillation": 6313,
      "Ġdeployment": 6314,
      "ĠTensor": 6315,
      "002": 6316,
      "decoder": 6317,
      "Ġmachines": 6318,
      "resolved": 6319,
      "Ġball": 6320,
      "Ġquick": 6321,
      "Ġyoung": 6322,
      "Ġsemigroup": 6323,
      "ĠSimple": 6324,
      "Ġcaptures": 6325,
      "non": 6326,
      "Ġinsp": 6327,
      "Or": 6328,
      "Ġdays": 6329,
      "osing": 6330,
      "ude": 6331,
      "Ġmaximize": 6332,
      "arc": 6333,
      "ĠBS": 6334,
      "Ġvehicle": 6335,
      "53": 6336,
      "tile": 6337,
      "Ġcasc": 6338,
      "Ġpapers": 6339,
      "Ġfocusing": 6340,
      "Ġlosses": 6341,
      "Ġhomology": 6342,
      "Ġsites": 6343,
      "Ġmicroscopy": 6344,
      "Ġpatients": 6345,
      "tors": 6346,
      "oping": 6347,
      "ĠBro": 6348,
      "Ġmetallic": 6349,
      "name": 6350,
      "Ġmultipl": 6351,
      "Ġrough": 6352,
      "Ġvortex": 6353,
      "Al": 6354,
      "Si": 6355,
      "aff": 6356,
      "Ġclosely": 6357,
      "Ġextensively": 6358,
      "Ġtag": 6359,
      "Ġholographic": 6360,
      "ĠPoint": 6361,
      "Ġintra": 6362,
      "ĠDifferential": 6363,
      "Ġsubgroups": 6364,
      "ĠSupp": 6365,
      "Sim": 6366,
      "quark": 6367,
      "Ġsubspace": 6368,
      "Ġbranching": 6369,
      "Ġadjac": 6370,
      "tible": 6371,
      "Ġoptimality": 6372,
      "Ġexamin": 6373,
      "Ġpairwise": 6374,
      "Ġclosure": 6375,
      "ĠUniversal": 6376,
      "Ġexpectation": 6377,
      "Ġpenal": 6378,
      "Ġrequirement": 6379,
      "supr": 6380,
      "tur": 6381,
      "Ġunseen": 6382,
      "Ġjets": 6383,
      "lesssim": 6384,
      "Ġqualitative": 6385,
      "operatorname": 6386,
      "Ġphotometric": 6387,
      "ĠMatrix": 6388,
      "ĠRegression": 6389,
      "iations": 6390,
      "Ġspecified": 6391,
      "ĠJacob": 6392,
      "Ġnm": 6393,
      "Ġdisplay": 6394,
      "Ġquite": 6395,
      "rief": 6396,
      "overs": 6397,
      "Ġbosonic": 6398,
      "Ġflexibility": 6399,
      "Ġcircle": 6400,
      "Ġstabilization": 6401,
      "ensitive": 6402,
      "ĠRecurrent": 6403,
      "Ġvalidation": 6404,
      "Ġhydrodynamic": 6405,
      "opar": 6406,
      "ĠAtt": 6407,
      "Ġsegment": 6408,
      "ĠEach": 6409,
      "Ġubiquitous": 6410,
      "hal": 6411,
      "ĠBer": 6412,
      "ĠPhysics": 6413,
      "Ġpor": 6414,
      "usic": 6415,
      "Ġkeep": 6416,
      "042": 6417,
      "Ġrotational": 6418,
      "ĠMajorana": 6419,
      "entic": 6420,
      "quad": 6421,
      "ĠBinary": 6422,
      "Ġassign": 6423,
      "ĠNonlinear": 6424,
      "duce": 6425,
      "ehic": 6426,
      "Ġstyle": 6427,
      "ĠNext": 6428,
      "Ġfilm": 6429,
      "Ġversus": 6430,
      "Ġapplicability": 6431,
      "OA": 6432,
      "Ġfitting": 6433,
      "Ġequi": 6434,
      "$-$": 6435,
      "ĠGalaxy": 6436,
      "Ne": 6437,
      "Ġobst": 6438,
      "avier": 6439,
      "Ġmarginal": 6440,
      "Con": 6441,
      "grid": 6442,
      "vol": 6443,
      "Ġ17": 6444,
      "proton": 6445,
      "ĠUniverse": 6446,
      "Ġrevis": 6447,
      "ĠHierarchical": 6448,
      "Ch": 6449,
      "Ġoutcome": 6450,
      "ĠSmart": 6451,
      "imer": 6452,
      "Ġscreen": 6453,
      "ĠResearch": 6454,
      "Ġvalidated": 6455,
      "ĠObject": 6456,
      "tition": 6457,
      "Ġneur": 6458,
      "ĠWay": 6459,
      "Ġarc": 6460,
      "ĠConn": 6461,
      "ĠCompared": 6462,
      "\".": 6463,
      "Ġcombinations": 6464,
      "Ġbelong": 6465,
      "Ġreproduce": 6466,
      "dor": 6467,
      "mography": 6468,
      "turing": 6469,
      "Ġaway": 6470,
      "Ġgains": 6471,
      "ordial": 6472,
      "umn": 6473,
      "Ġalgorithmic": 6474,
      "embly": 6475,
      "varying": 6476,
      "Ġwalk": 6477,
      "lev": 6478,
      "etch": 6479,
      "served": 6480,
      "Th": 6481,
      "cap": 6482,
      "dots": 6483,
      "Ġconductivity": 6484,
      "Ġindustry": 6485,
      "Ġscheduling": 6486,
      "ĠSemantic": 6487,
      "owers": 6488,
      "Ġbursts": 6489,
      "Ġspins": 6490,
      "going": 6491,
      "Ġidentical": 6492,
      "Ġcone": 6493,
      "Ġarises": 6494,
      "Ġ14": 6495,
      "ĠNeumann": 6496,
      "CI": 6497,
      "ederated": 6498,
      "Ġproxim": 6499,
      "Ġremarkable": 6500,
      "DL": 6501,
      "inent": 6502,
      "012": 6503,
      "Ġextent": 6504,
      "Ġdivis": 6505,
      "Ġfault": 6506,
      "Ġconfidence": 6507,
      "bul": 6508,
      "pect": 6509,
      "ronic": 6510,
      "Ġcontribute": 6511,
      "potent": 6512,
      "Ġthickness": 6513,
      "super": 6514,
      "ĠRem": 6515,
      "Ġvisible": 6516,
      "Ġstim": 6517,
      "Ġmeson": 6518,
      "ĠLeg": 6519,
      "Ġspectroscopic": 6520,
      "ĠMilky": 6521,
      "Ga": 6522,
      "Ġisotropic": 6523,
      "064": 6524,
      "Ġsplit": 6525,
      "Ġdie": 6526,
      "Ġbroken": 6527,
      "onstrained": 6528,
      "ught": 6529,
      "Ġinfrared": 6530,
      "Ġcrystals": 6531,
      "ĠHom": 6532,
      "Ġderivation": 6533,
      "Ġdefects": 6534,
      "Ġnormalization": 6535,
      "Aware": 6536,
      "Ġconversion": 6537,
      "ĠEmp": 6538,
      "Ġparity": 6539,
      "Ġrealization": 6540,
      "Ġframeworks": 6541,
      "Ġcyclic": 6542,
      "Ġgenus": 6543,
      "ĠProblems": 6544,
      "Ġevaluating": 6545,
      "Ġapplies": 6546,
      "$).": 6547,
      "Ġday": 6548,
      "Ġexoplan": 6549,
      "ĠVol": 6550,
      "inity": 6551,
      "Ġorientation": 6552,
      "Ġpatient": 6553,
      "site": 6554,
      "attering": 6555,
      "Ġannotation": 6556,
      "72": 6557,
      "73": 6558,
      "Ġpo": 6559,
      "Ġwavegu": 6560,
      "ĠPoly": 6561,
      "Ġshapes": 6562,
      "Ġcovering": 6563,
      "Ġversions": 6564,
      "Ġkinematic": 6565,
      "ander": 6566,
      "Ġprevent": 6567,
      "ĠCP": 6568,
      "Ġshall": 6569,
      "ĠRNN": 6570,
      "Ġbinding": 6571,
      "Ġmessage": 6572,
      "Ġsilicon": 6573,
      "Ġinherent": 6574,
      "ĠGAN": 6575,
      "ĠHard": 6576,
      "Ġtwist": 6577,
      "Ġlinguistic": 6578,
      "Ġ19": 6579,
      "tillation": 6580,
      "52": 6581,
      "pts": 6582,
      "Ġnontrivial": 6583,
      "len": 6584,
      "uge": 6585,
      "}-": 6586,
      "enced": 6587,
      "unctional": 6588,
      "Ġreproduc": 6589,
      "making": 6590,
      "orov": 6591,
      "ĠLipschitz": 6592,
      "ĠPri": 6593,
      "Ġemphas": 6594,
      "Ġinstant": 6595,
      "osphere": 6596,
      "ĠEvolution": 6597,
      "Ġthermodynamics": 6598,
      "Ġdegradation": 6599,
      "MI": 6600,
      "aly": 6601,
      "olean": 6602,
      "Ġaxis": 6603,
      "Ġassessment": 6604,
      "ĠRadio": 6605,
      "Ġray": 6606,
      "LEU": 6607,
      "igr": 6608,
      "ĠAg": 6609,
      "uzzy": 6610,
      "Ġbipartite": 6611,
      "}{\\": 6612,
      "ivity": 6613,
      "Ġglass": 6614,
      "At": 6615,
      "Sto": 6616,
      "iability": 6617,
      "Ġisomorphic": 6618,
      "ĠProcesses": 6619,
      "Ġnumerous": 6620,
      "Ġbarrier": 6621,
      "ĠBesides": 6622,
      "62": 6623,
      "Einstein": 6624,
      "ĠCurrent": 6625,
      "ĠGPU": 6626,
      "ĠRicci": 6627,
      "Ġinteractive": 6628,
      "Ġrelevance": 6629,
      "Ġcoordinates": 6630,
      "ĠRaman": 6631,
      "Ġempirically": 6632,
      "arget": 6633,
      "Ġgoals": 6634,
      "oS": 6635,
      "Ġparametri": 6636,
      "Ġincluded": 6637,
      "81": 6638,
      "eloper": 6639,
      "Ġstages": 6640,
      "Ġcomputers": 6641,
      "Ġinvestigating": 6642,
      "Ġacting": 6643,
      "ometries": 6644,
      "CH": 6645,
      "Ġdrop": 6646,
      "ĠTri": 6647,
      "Ġvalu": 6648,
      "ĠPot": 6649,
      "Ġselect": 6650,
      "Ġconcerns": 6651,
      "Ġappearance": 6652,
      "Ġsubsets": 6653,
      "Ġindependently": 6654,
      "Ġ,": 6655,
      "Ġcard": 6656,
      "chang": 6657,
      "Ġinterstellar": 6658,
      "Ġrad": 6659,
      "Ġcamera": 6660,
      "Ġreplac": 6661,
      "ĠDatas": 6662,
      "Ġlogarithmic": 6663,
      "%,": 6664,
      "Mills": 6665,
      "owski": 6666,
      "Ġeffic": 6667,
      "Ġdescent": 6668,
      "Ġquantity": 6669,
      "quality": 6670,
      "thesis": 6671,
      "Ġbottom": 6672,
      "DB": 6673,
      "ĠMIMO": 6674,
      "Ġoutflow": 6675,
      "073": 6676,
      "Ġbehind": 6677,
      "ĠHigher": 6678,
      "Ġfeasible": 6679,
      "eak": 6680,
      "Ġcrowd": 6681,
      "lean": 6682,
      "Ġdescriptions": 6683,
      "54": 6684,
      "Ġcontrolling": 6685,
      "uniform": 6686,
      "Ġwhy": 6687,
      "Ġformer": 6688,
      "ĠCy": 6689,
      "ĠAstr": 6690,
      "Ġcome": 6691,
      "Ġeduc": 6692,
      "Ġ2017": 6693,
      "Ġconservation": 6694,
      "Ġing": 6695,
      "agg": 6696,
      "NL": 6697,
      "ĠOptical": 6698,
      "Ġdiffraction": 6699,
      "havi": 6700,
      "Ġadvance": 6701,
      "Ġreflection": 6702,
      "ropical": 6703,
      "data": 6704,
      "Ġput": 6705,
      "Ġfab": 6706,
      "Ġmm": 6707,
      "Ġconsiderable": 6708,
      "Ġdisturb": 6709,
      "Ġcompetition": 6710,
      "arity": 6711,
      "quant": 6712,
      "ĠVehic": 6713,
      "Ġlocated": 6714,
      "urban": 6715,
      "Ġadopt": 6716,
      "Ġincomp": 6717,
      "Ġdegenerate": 6718,
      "Ġexplanation": 6719,
      "Ġergodic": 6720,
      "ynchronous": 6721,
      "2008": 6722,
      "Gaussian": 6723,
      "Ġprotein": 6724,
      "Ġstart": 6725,
      "Ġmaintaining": 6726,
      "Ġviolation": 6727,
      "Ġisolated": 6728,
      "Ġpiece": 6729,
      "isim": 6730,
      "Ġbeta": 6731,
      "ĠNash": 6732,
      "ĠJoint": 6733,
      "Ġintegrable": 6734,
      "ĠEffects": 6735,
      "ford": 6736,
      "ĠFore": 6737,
      "Ġcarry": 6738,
      "GAN": 6739,
      "Ġdiscriminative": 6740,
      "cosity": 6741,
      "63": 6742,
      "Ġbud": 6743,
      "Ġfinancial": 6744,
      "ilarity": 6745,
      "51": 6746,
      "Time": 6747,
      "Ġcomes": 6748,
      "ĠBern": 6749,
      "apped": 6750,
      "GO": 6751,
      "Pl": 6752,
      "Stokes": 6753,
      "UT": 6754,
      "ilation": 6755,
      "alline": 6756,
      "Ġproducing": 6757,
      "Ġferromagnetic": 6758,
      "hard": 6759,
      "ĠUser": 6760,
      "Ġturns": 6761,
      "edical": 6762,
      "ĠStates": 6763,
      "aid": 6764,
      "temporal": 6765,
      "Ġtil": 6766,
      "ĠCR": 6767,
      "thon": 6768,
      "ĠBLEU": 6769,
      "differ": 6770,
      "ĠIdentification": 6771,
      "tral": 6772,
      "Ġutilized": 6773,
      "izers": 6774,
      "lectric": 6775,
      "Ġpulses": 6776,
      "oising": 6777,
      "Ġminimizing": 6778,
      "Ġavailability": 6779,
      "une": 6780,
      "ĠML": 6781,
      "Ġtriple": 6782,
      "ĠPlanning": 6783,
      "Ġessentially": 6784,
      "Ġattempt": 6785,
      "59": 6786,
      "Ġbrief": 6787,
      "ĠFlo": 6788,
      "Ġdefect": 6789,
      "ĠMathema": 6790,
      "PP": 6791,
      "function": 6792,
      "Ġport": 6793,
      "ĠJup": 6794,
      "Ġurban": 6795,
      "ĠDecompos": 6796,
      "Ġexperi": 6797,
      "ung": 6798,
      "Ġcomplicated": 6799,
      "Ġemerged": 6800,
      "otopy": 6801,
      "ĠKey": 6802,
      "pora": 6803,
      "Ġserve": 6804,
      "princi": 6805,
      "Cs": 6806,
      "Ġbit": 6807,
      "Ġcancer": 6808,
      "Ġremov": 6809,
      "ĠSurface": 6810,
      "Ġreceiver": 6811,
      "Ġhos": 6812,
      "Ġdevelopments": 6813,
      "Ġcarbon": 6814,
      "ĠExtensive": 6815,
      "Ġefficacy": 6816,
      "Ġarrays": 6817,
      "Ġvibr": 6818,
      "print": 6819,
      "Ġevaluations": 6820,
      "Ġanalogue": 6821,
      "Ġdiscrep": 6822,
      "Ġaddressed": 6823,
      "ĠImproving": 6824,
      "ĠCommunication": 6825,
      "doped": 6826,
      "diffusion": 6827,
      "squ": 6828,
      "Ġwor": 6829,
      "otes": 6830,
      "Ġplayers": 6831,
      "Ġappar": 6832,
      "Ġproposal": 6833,
      "istration": 6834,
      "nucle": 6835,
      "actor": 6836,
      "Ġste": 6837,
      "ĠHD": 6838,
      "turbative": 6839,
      "Ġaffected": 6840,
      "atz": 6841,
      "Ġannotated": 6842,
      "Ġhypothes": 6843,
      "ĠBehavi": 6844,
      "chem": 6845,
      "encoder": 6846,
      "Ġinduce": 6847,
      "Ġradii": 6848,
      "ĠEM": 6849,
      "ĠThree": 6850,
      "Ġplanetary": 6851,
      "spaces": 6852,
      "Ġpatch": 6853,
      "Ġinnov": 6854,
      "ĠConver": 6855,
      "ĠDiscrete": 6856,
      "ĠWeak": 6857,
      "Ġdefining": 6858,
      "Ġsearches": 6859,
      "structured": 6860,
      "dorff": 6861,
      "bs": 6862,
      "rase": 6863,
      "Ġunpre": 6864,
      "Ġinteract": 6865,
      "pagation": 6866,
      "Ġmultiplicative": 6867,
      "EL": 6868,
      "umin": 6869,
      "oids": 6870,
      "Ġsimplified": 6871,
      "Ġfiltering": 6872,
      "otics": 6873,
      "entric": 6874,
      "Ġcontexts": 6875,
      "Ġforest": 6876,
      "Ġquarks": 6877,
      "ĠLaplace": 6878,
      "direct": 6879,
      "roids": 6880,
      "amples": 6881,
      "Ġshadow": 6882,
      "84": 6883,
      "ori": 6884,
      "ĠFunctions": 6885,
      "Ġjus": 6886,
      "Ġmedi": 6887,
      "Ġadapted": 6888,
      "Ġguide": 6889,
      "Ġoccup": 6890,
      "Ġintelligent": 6891,
      "Ġencoded": 6892,
      "Ġduration": 6893,
      "ĠTa": 6894,
      "mathsc": 6895,
      "ycle": 6896,
      "mathscr": 6897,
      "step": 6898,
      "antine": 6899,
      "Ġproving": 6900,
      "infrared": 6901,
      "Ġelimin": 6902,
      "Ġoscillator": 6903,
      "oscopic": 6904,
      "ĠEdge": 6905,
      "Ġadmits": 6906,
      "Ġsymb": 6907,
      "Ġcovers": 6908,
      "ameters": 6909,
      "Ġdifferentiable": 6910,
      "ĠEmpir": 6911,
      "plasm": 6912,
      "essel": 6913,
      "Ġstronger": 6914,
      "Ġrobotic": 6915,
      "symmetry": 6916,
      "Ġnavigation": 6917,
      "ĠDuring": 6918,
      "Ġtrust": 6919,
      "rog": 6920,
      "Ġaspect": 6921,
      "ĠGamma": 6922,
      "89": 6923,
      "unov": 6924,
      "ĠCell": 6925,
      "ĠMi": 6926,
      "Ġmajority": 6927,
      "LC": 6928,
      "depth": 6929,
      "ĠCMB": 6930,
      "Ġcauses": 6931,
      "Ġdeformations": 6932,
      "ĠAmong": 6933,
      "Ġingre": 6934,
      "sol": 6935,
      "diabatic": 6936,
      "Ġoverview": 6937,
      "parts": 6938,
      "Ġrandomized": 6939,
      "Ġvertical": 6940,
      "Ġfactorization": 6941,
      "ĠSpectral": 6942,
      "Ġchaotic": 6943,
      "Ġsurveys": 6944,
      "itary": 6945,
      "uff": 6946,
      "Ġcorpora": 6947,
      "iou": 6948,
      "Ġconsistently": 6949,
      "ĠPhot": 6950,
      "turbed": 6951,
      "asi": 6952,
      "ĠPe": 6953,
      "Ġtunneling": 6954,
      "Ġseparable": 6955,
      "ĠMolecular": 6956,
      "Ġprojected": 6957,
      "Phi": 6958,
      "Ġexpos": 6959,
      "Ġexplos": 6960,
      "Ġviscosity": 6961,
      "ĠAcceler": 6962,
      "Ġclassifiers": 6963,
      "ĠSelection": 6964,
      "Ġabundance": 6965,
      "ĠSparse": 6966,
      "Ġsecret": 6967,
      "ĠMinim": 6968,
      "Ġequipped": 6969,
      "enk": 6970,
      "Ġ$$": 6971,
      "ĠPolar": 6972,
      "Ġinterfaces": 6973,
      "Ġsignificance": 6974,
      "Ġvalidity": 6975,
      "Ġleverages": 6976,
      "ivariant": 6977,
      "Cu": 6978,
      "ĠSP": 6979,
      "parametric": 6980,
      "fron": 6981,
      "phson": 6982,
      "Ġ2016": 6983,
      "ĠParticle": 6984,
      "ĠHence": 6985,
      "Ġminimization": 6986,
      "69": 6987,
      "lass": 6988,
      "ĠWeight": 6989,
      "Ġentr": 6990,
      "Ġinstrument": 6991,
      "nab": 6992,
      "069": 6993,
      "nabla": 6994,
      "Ds": 6995,
      "harmonic": 6996,
      "isition": 6997,
      "ils": 6998,
      "preserving": 6999,
      "weighted": 7000,
      "Ġslightly": 7001,
      "Ġepid": 7002,
      "theless": 7003,
      "ĠGauss": 7004,
      "ouse": 7005,
      "evertheless": 7006,
      "Ġleader": 7007,
      "gence": 7008,
      "ĠDialog": 7009,
      "Ġfollowed": 7010,
      "Ġannotations": 7011,
      "Ġsituation": 7012,
      "Ġnearest": 7013,
      "Ġflavor": 7014,
      "1910": 7015,
      "hole": 7016,
      "rab": 7017,
      "Ġwindow": 7018,
      "ĠProbabilistic": 7019,
      "ramatic": 7020,
      "ausdorff": 7021,
      "Ġtens": 7022,
      "ĠFRB": 7023,
      "Ġadmit": 7024,
      "drod": 7025,
      "MDP": 7026,
      "OR": 7027,
      "Ġcoarse": 7028,
      "Ġperception": 7029,
      "Ġactual": 7030,
      "ĠConsensus": 7031,
      "CP": 7032,
      "Ġcod": 7033,
      "Ġresid": 7034,
      "Ġaggregation": 7035,
      "oment": 7036,
      "undred": 7037,
      "Ġdeveloper": 7038,
      "61": 7039,
      "olm": 7040,
      "acters": 7041,
      "Ġ(\\": 7042,
      "Ġenvel": 7043,
      "Ġnet": 7044,
      "Ġcoal": 7045,
      "Ġsparsity": 7046,
      "Ġinver": 7047,
      "ĠNMT": 7048,
      "Ġdesirable": 7049,
      "Ġfriction": 7050,
      "\\\"{": 7051,
      "Ġnecessarily": 7052,
      "Ġswitch": 7053,
      "ville": 7054,
      "oice": 7055,
      "amond": 7056,
      "apunov": 7057,
      "Ġfake": 7058,
      "Ġfrustr": 7059,
      "Ġmolecule": 7060,
      "Ġextremal": 7061,
      "Ġdisordered": 7062,
      "organ": 7063,
      "ĠWMT": 7064,
      "Ġdeb": 7065,
      "Ġprominent": 7066,
      "Ġperiods": 7067,
      "Ġfoot": 7068,
      "nn": 7069,
      "Ġcompeting": 7070,
      "2002": 7071,
      "Ġgaps": 7072,
      "Ġsignatures": 7073,
      "ĠInspired": 7074,
      "ĠBan": 7075,
      "Ġassignment": 7076,
      "ĠKe": 7077,
      "ĠAction": 7078,
      "iii": 7079,
      "rangle": 7080,
      "Ġmargin": 7081,
      "Ġconven": 7082,
      "colation": 7083,
      "sequently": 7084,
      "Ġsolvable": 7085,
      "Ġlibr": 7086,
      "elled": 7087,
      "Ġrays": 7088,
      "Ġrepresentative": 7089,
      "Ġcomplexes": 7090,
      "Ġcognitive": 7091,
      "ĠHeter": 7092,
      "Ġque": 7093,
      "Ġperformances": 7094,
      "ĠAdv": 7095,
      "Ġleveraging": 7096,
      "ĠSL": 7097,
      "model": 7098,
      "Ġoutputs": 7099,
      "AL": 7100,
      "ĠKerr": 7101,
      "Ġaccelerated": 7102,
      "Ġdeployed": 7103,
      "ĠLyapunov": 7104,
      "care": 7105,
      "Ġgraded": 7106,
      "manifolds": 7107,
      "79": 7108,
      "Ġquench": 7109,
      "ĠContinuous": 7110,
      "Ġaccessible": 7111,
      "determin": 7112,
      "uous": 7113,
      "~\\": 7114,
      "Ġsupply": 7115,
      "Ġbiases": 7116,
      "thermal": 7117,
      "ĠError": 7118,
      "Wave": 7119,
      "\\{": 7120,
      "Ġrefinement": 7121,
      "star": 7122,
      "Ġsym": 7123,
      "Ġguid": 7124,
      "1911": 7125,
      "fol": 7126,
      "ĠTheir": 7127,
      "Ġreferred": 7128,
      "Qu": 7129,
      "SG": 7130,
      "mid": 7131,
      "Ġinvestigates": 7132,
      "elves": 7133,
      "Ġexc": 7134,
      "Ġoutside": 7135,
      "Ġgreatly": 7136,
      "Ġsuperconductor": 7137,
      "Ġfeasibility": 7138,
      "CN": 7139,
      "Ġfill": 7140,
      "Ġdramatic": 7141,
      "astr": 7142,
      "ster": 7143,
      "Ġidentities": 7144,
      "ĠUncertainty": 7145,
      "lind": 7146,
      "ystem": 7147,
      "Ġclassic": 7148,
      "lif": 7149,
      "server": 7150,
      "Ġcountries": 7151,
      ")}$": 7152,
      "ĠGravity": 7153,
      "ĠApproximation": 7154,
      "ĠProgramming": 7155,
      "ĠReconstruction": 7156,
      "Ġdielectric": 7157,
      "ij": 7158,
      "Ġpowers": 7159,
      "Ġplastic": 7160,
      "Ġconcerned": 7161,
      "ique": 7162,
      "Ġscalability": 7163,
      "Ġpreval": 7164,
      "Ġnoncommutative": 7165,
      "Ġprimes": 7166,
      "Ġdetermination": 7167,
      "*}": 7168,
      "eb": 7169,
      "Ġsite": 7170,
      "ultic": 7171,
      "Ġindicating": 7172,
      "ĠShort": 7173,
      "Ġrenew": 7174,
      "Ġresponsible": 7175,
      "tuned": 7176,
      "ĠHubble": 7177,
      "IF": 7178,
      "ĠTransport": 7179,
      "Ġgraphical": 7180,
      "Ġinstabilities": 7181,
      "Ġlifetime": 7182,
      "cr": 7183,
      "ulsion": 7184,
      "acks": 7185,
      "Ġtrivial": 7186,
      "Ġassociation": 7187,
      "ĠInterpre": 7188,
      "Ġbackward": 7189,
      "abi": 7190,
      "Ġ$\\{": 7191,
      "Ġmerger": 7192,
      "eq": 7193,
      "ĠSer": 7194,
      "ĠNa": 7195,
      "Ġmicrowave": 7196,
      "Ġchoices": 7197,
      "break": 7198,
      "Ġexcl": 7199,
      "Ġalle": 7200,
      "formed": 7201,
      "Ġcapac": 7202,
      "82": 7203,
      "ĠCNNs": 7204,
      "atif": 7205,
      "ĠImages": 7206,
      "ĠPrivacy": 7207,
      "lor": 7208,
      "Ġresolved": 7209,
      "ĠInstead": 7210,
      "Ġtransportation": 7211,
      "Transformer": 7212,
      "Ġgranular": 7213,
      "ĠSO": 7214,
      "ĠCirc": 7215,
      "ĠCooperative": 7216,
      "Ġseparated": 7217,
      "Ġattractive": 7218,
      "Ġmovement": 7219,
      "Ġimmers": 7220,
      "Ġmeaningful": 7221,
      "66": 7222,
      "Ġgiving": 7223,
      "ĠWord": 7224,
      "Ġcounterparts": 7225,
      "Ġsyntactic": 7226,
      "erior": 7227,
      "angent": 7228,
      "ogram": 7229,
      "load": 7230,
      "CF": 7231,
      "Ġutter": 7232,
      "ĠMultimodal": 7233,
      "Ġintroduction": 7234,
      "Ġaffects": 7235,
      "Ġmoderate": 7236,
      "Ġvaluable": 7237,
      "itation": 7238,
      "Ġisomorphism": 7239,
      "Ġtextual": 7240,
      "Ġresistance": 7241,
      "Ġsuggesting": 7242,
      "ĠStrate": 7243,
      "Ġoccurr": 7244,
      "Ġmorphology": 7245,
      "Ġdiagnosis": 7246,
      "beg": 7247,
      "separ": 7248,
      "itor": 7249,
      "asser": 7250,
      "ĠGW": 7251,
      "Ġneuro": 7252,
      "Ġdemonstrating": 7253,
      "ois": 7254,
      "Ġped": 7255,
      "Ġmild": 7256,
      "Ġhuge": 7257,
      "swers": 7258,
      "outh": 7259,
      "Ġclaim": 7260,
      "cedented": 7261,
      "ĠConstraints": 7262,
      "Ġlate": 7263,
      "Ġdistor": 7264,
      "Ġanalogous": 7265,
      "Ġtetr": 7266,
      "ilpotent": 7267,
      "Ġcontinuity": 7268,
      "warz": 7269,
      "bard": 7270,
      "ĠHopf": 7271,
      "Ġremote": 7272,
      "ĠArtificial": 7273,
      "ĠFeed": 7274,
      "Ġsatellite": 7275,
      "TE": 7276,
      "Ġinher": 7277,
      "Ġmanual": 7278,
      "Ġrealize": 7279,
      "Ġquickly": 7280,
      "top": 7281,
      "ĠNavier": 7282,
      "ĠElectron": 7283,
      "Ġsurvival": 7284,
      "$^": 7285,
      "ufact": 7286,
      "Ġobtaining": 7287,
      "Ġround": 7288,
      "fficiency": 7289,
      "Ġabsor": 7290,
      "Ġunprecedented": 7291,
      "begin": 7292,
      "polation": 7293,
      "Ġbases": 7294,
      "ĠReason": 7295,
      "Ġheight": 7296,
      "ĠNews": 7297,
      "PM": 7298,
      "qubit": 7299,
      "ĠDem": 7300,
      "ĠThings": 7301,
      "ĠEffective": 7302,
      "Ġconfirmed": 7303,
      "Ġlay": 7304,
      "mental": 7305,
      "ĠGL": 7306,
      "Ġtempl": 7307,
      "network": 7308,
      "Ġsole": 7309,
      "Ġpromise": 7310,
      "Ġcylind": 7311,
      "ĠTracking": 7312,
      "Ġkinds": 7313,
      "iouville": 7314,
      "LSTM": 7315,
      "Tr": 7316,
      "iev": 7317,
      "Ġtomography": 7318,
      "ĠConjecture": 7319,
      "Ġholomorphic": 7320,
      ")^": 7321,
      "ients": 7322,
      "ionization": 7323,
      "Ġunbounded": 7324,
      "ĠResp": 7325,
      "\\%$": 7326,
      "ĠBanach": 7327,
      "-)": 7328,
      "enn": 7329,
      "Ġla": 7330,
      "ĠTe": 7331,
      "Ġhundred": 7332,
      "Ġspiral": 7333,
      "Ġlogical": 7334,
      "Ġviewed": 7335,
      "ĠFormation": 7336,
      "ĠIr": 7337,
      "Ġuntil": 7338,
      "ĠVariational": 7339,
      "Ġmillion": 7340,
      "71": 7341,
      "Ġsurprising": 7342,
      "Ġencour": 7343,
      "Ġsuscep": 7344,
      "HD": 7345,
      "Ġadiabatic": 7346,
      "Ġmotiv": 7347,
      "2003": 7348,
      "Ġfluids": 7349,
      "Ġdecreases": 7350,
      "):": 7351,
      "74": 7352,
      "Res": 7353,
      "Ġdate": 7354,
      "ĠScale": 7355,
      "olet": 7356,
      "Ġindices": 7357,
      "UV": 7358,
      "sph": 7359,
      "isons": 7360,
      "Ġmir": 7361,
      "aint": 7362,
      "Ġresis": 7363,
      "tained": 7364,
      "inese": 7365,
      "Ġinduces": 7366,
      "1905": 7367,
      "Ġpopulations": 7368,
      "Ġ2015": 7369,
      "Ġadoption": 7370,
      "Ġstraightforward": 7371,
      "EB": 7372,
      "MG": 7373,
      "aul": 7374,
      "Ġwit": 7375,
      "ĠFil": 7376,
      "Ġprimarily": 7377,
      "entions": 7378,
      "ĠWeb": 7379,
      "Ġsolver": 7380,
      "Ġaugmented": 7381,
      "Ġcompanion": 7382,
      "\\`": 7383,
      "Ġthreat": 7384,
      "Ġmock": 7385,
      "Ġvary": 7386,
      "Ġantiferromagnetic": 7387,
      "Ġtreated": 7388,
      "mers": 7389,
      "Ġmigr": 7390,
      "Ġgold": 7391,
      "ĠSl": 7392,
      "geometric": 7393,
      "Ġparsing": 7394,
      "awa": 7395,
      "Ġfairness": 7396,
      "div": 7397,
      "orient": 7398,
      "Ġstand": 7399,
      "equation": 7400,
      "Ġfluxes": 7401,
      "ivariate": 7402,
      "Ġsubstrate": 7403,
      "Ġblow": 7404,
      "unch": 7405,
      "ĠDig": 7406,
      "eets": 7407,
      "word": 7408,
      "Ġmuon": 7409,
      "ĠIII": 7410,
      "lected": 7411,
      "Ġmassless": 7412,
      "spin": 7413,
      "Ġpassage": 7414,
      "Ġboost": 7415,
      "ĠNoise": 7416,
      "Ġautomorphism": 7417,
      "ya": 7418,
      "ifted": 7419,
      "Ġimper": 7420,
      "Ġrelate": 7421,
      "Ġintegrate": 7422,
      "Ġbook": 7423,
      "ĠDifferent": 7424,
      "Ġdamping": 7425,
      "He": 7426,
      "uple": 7427,
      "ĠMaxwell": 7428,
      "ĠFollow": 7429,
      "osephson": 7430,
      "Ġsupernova": 7431,
      "Ġcoming": 7432,
      "Ġjunction": 7433,
      "vitational": 7434,
      "ĠEvent": 7435,
      "ĠMotion": 7436,
      "Ġcategorical": 7437,
      "ortunately": 7438,
      "rons": 7439,
      "Ġantic": 7440,
      "ĠDynamical": 7441,
      "complete": 7442,
      "Ġserver": 7443,
      "Ġslope": 7444,
      "Ġgrain": 7445,
      "Ġbir": 7446,
      "Ġenum": 7447,
      "Ġroad": 7448,
      "Ġfunctionals": 7449,
      "1909": 7450,
      "Ġimplementations": 7451,
      "Ġgenetic": 7452,
      "Ġneighborhood": 7453,
      "ĠEmpirical": 7454,
      "Fs": 7455,
      "ĠSo": 7456,
      "iques": 7457,
      "Ġheavi": 7458,
      "Ġpopularity": 7459,
      "ĠProperties": 7460,
      "ĠAsymptotic": 7461,
      "Ġeight": 7462,
      "Ġcharges": 7463,
      "perturbative": 7464,
      "Ġarrang": 7465,
      "output": 7466,
      "Ġcoron": 7467,
      "Ġcommutative": 7468,
      "Ġfulfill": 7469,
      "Ġimplementing": 7470,
      "Ġprimordial": 7471,
      "physics": 7472,
      "icated": 7473,
      "ĠRate": 7474,
      "059": 7475,
      "Ġspacetimes": 7476,
      "tility": 7477,
      "Ġcosmology": 7478,
      "Ġconstructions": 7479,
      "ĠLattice": 7480,
      "Ġdot": 7481,
      "Ġconform": 7482,
      "akes": 7483,
      "ĠConditional": 7484,
      "Ġseparately": 7485,
      "component": 7486,
      "ĠMassive": 7487,
      "consistent": 7488,
      "$^{": 7489,
      ")=\\": 7490,
      "An": 7491,
      "imination": 7492,
      "odies": 7493,
      "Ġtruth": 7494,
      "Ġobserving": 7495,
      "jected": 7496,
      "Ġencounter": 7497,
      "ocument": 7498,
      "Ġsuperposition": 7499,
      "Ġamen": 7500,
      "Ġgrad": 7501,
      "Ġmetals": 7502,
      "ĠSmall": 7503,
      "Ġdiscretization": 7504,
      "Ġattracted": 7505,
      "sf": 7506,
      "ĠDensity": 7507,
      "ochemical": 7508,
      "ĠBoolean": 7509,
      "Ġbudget": 7510,
      "Ġreplic": 7511,
      "Ġcolumn": 7512,
      "Ġconjectured": 7513,
      "Ġpassive": 7514,
      "Ġneighbors": 7515,
      "ĠBlock": 7516,
      "Ġ$[": 7517,
      "Ġworking": 7518,
      "otstr": 7519,
      "Ġprotection": 7520,
      "Ġutilizes": 7521,
      "Ġlinked": 7522,
      "ĠPlan": 7523,
      "Ġsolely": 7524,
      "AO": 7525,
      "GM": 7526,
      "Ġoptimizing": 7527,
      "Ġpairing": 7528,
      "ighbor": 7529,
      "Ġtoric": 7530,
      "Ġpulsar": 7531,
      "Ġbaryon": 7532,
      "sided": 7533,
      "Ġconfined": 7534,
      "uclear": 7535,
      "ĠDC": 7536,
      "Ġexciton": 7537,
      "Ġhalos": 7538,
      "board": 7539,
      "Ġreturn": 7540,
      "used": 7541,
      "Ġkm": 7542,
      "Ġdisplacement": 7543,
      "Ġleak": 7544,
      "Ġanomalies": 7545,
      "Ġstatistically": 7546,
      "ĠAccess": 7547,
      "Ġreaches": 7548,
      "Ġfluctuation": 7549,
      "Ġbecoming": 7550,
      "liminary": 7551,
      "lands": 7552,
      "entang": 7553,
      "ilinear": 7554,
      "Ġshifts": 7555,
      "ĠBidirectional": 7556,
      "Ġsuperfluid": 7557,
      "Ġsupervision": 7558,
      "Ġautomata": 7559,
      "Ġcomposite": 7560,
      "brane": 7561,
      "ĠConvergence": 7562,
      "isc": 7563,
      "ĠSumm": 7564,
      "igner": 7565,
      "Ġresonances": 7566,
      "Ġfacial": 7567,
      "Ġmessages": 7568,
      "ostructures": 7569,
      "ĠDecomposition": 7570,
      "ĠLoss": 7571,
      "Ġspanning": 7572,
      "Ġasymmetry": 7573,
      "Ġarguments": 7574,
      "Ġreflect": 7575,
      "ĠMeasurements": 7576,
      "core": 7577,
      "Ġexploits": 7578,
      "Ġexplanations": 7579,
      "Ġindependence": 7580,
      "ĠUltra": 7581,
      "lig": 7582,
      "Ġsaid": 7583,
      "Ġtoday": 7584,
      "Ġatmosphere": 7585,
      "},\\": 7586,
      "Ġcro": 7587,
      "ĠHar": 7588,
      "Ġcompens": 7589,
      "Ġsquares": 7590,
      "HR": 7591,
      "selves": 7592,
      "Ġcontinuously": 7593,
      "ĠHamiltonians": 7594,
      "directed": 7595,
      "xi": 7596,
      "alks": 7597,
      "Ġcompressed": 7598,
      "Ġhead": 7599,
      "Ġbra": 7600,
      "osed": 7601,
      "Ġvs": 7602,
      "ĠDR": 7603,
      "matrix": 7604,
      "relativistic": 7605,
      "Ġexpert": 7606,
      "Ġemergent": 7607,
      ")/": 7608,
      "ON": 7609,
      "otion": 7610,
      "Ġdiscontinuous": 7611,
      "density": 7612,
      "Ġclean": 7613,
      "Ġanswers": 7614,
      "ĠFrequency": 7615,
      "Ġincident": 7616,
      "sime": 7617,
      "ĠWik": 7618,
      "ĠPolicy": 7619,
      "ĠJosephson": 7620,
      "Ġaccomp": 7621,
      "ĠParallel": 7622,
      "ĠDevelop": 7623,
      "Ġaccompan": 7624,
      "%.": 7625,
      "more": 7626,
      "antly": 7627,
      "icious": 7628,
      "Ġcharacters": 7629,
      "III": 7630,
      "Ġaxion": 7631,
      "Ġwritten": 7632,
      "biased": 7633,
      "ĠSk": 7634,
      "Ġprimitive": 7635,
      "ĠDirect": 7636,
      "Ġprojections": 7637,
      "Ġga": 7638,
      "Ġitems": 7639,
      "ĠEquation": 7640,
      "Ġcurved": 7641,
      "olev": 7642,
      "ĠChinese": 7643,
      "Ġnanopar": 7644,
      "Ġformulae": 7645,
      "Ġexpansions": 7646,
      "Ġcommonsense": 7647,
      "Ġcores": 7648,
      "EV": 7649,
      "Ġfall": 7650,
      "Ġtrading": 7651,
      "Ġcapturing": 7652,
      "Ġsearching": 7653,
      "Ġreviews": 7654,
      "Ġmesons": 7655,
      "Ġincorporates": 7656,
      "ahler": 7657,
      "manifold": 7658,
      "Ġincomplete": 7659,
      "lusions": 7660,
      "lective": 7661,
      "Ġpercolation": 7662,
      "Ġtrac": 7663,
      "Ġreality": 7664,
      "Ġstatus": 7665,
      "Ġfermionic": 7666,
      "Ġdedicated": 7667,
      "oting": 7668,
      "ĠIns": 7669,
      "ĠBel": 7670,
      "teness": 7671,
      "Ġdrift": 7672,
      "wavelength": 7673,
      "ticity": 7674,
      "ĠAbstract": 7675,
      "Ġlex": 7676,
      "Ġsuppression": 7677,
      "ĠALMA": 7678,
      "Attention": 7679,
      "dev": 7680,
      "ĠSun": 7681,
      "Ġfunctor": 7682,
      "Ġsampled": 7683,
      "ĠStructural": 7684,
      "Ġsemiconductor": 7685,
      "Ġlab": 7686,
      "orted": 7687,
      "ĠClassical": 7688,
      "Ġhistor": 7689,
      "Ġwitness": 7690,
      "Ġlensing": 7691,
      "Ġ$|": 7692,
      "ĠInf": 7693,
      "Ġwaveform": 7694,
      "Ġdevelopers": 7695,
      "Ġnested": 7696,
      "Ġalone": 7697,
      "Ġdiameter": 7698,
      "ĠPrec": 7699,
      "Ġexponents": 7700,
      "Ġ60": 7701,
      "idation": 7702,
      "Ġ198": 7703,
      "Ġlengths": 7704,
      "Ġcreation": 7705,
      "Ġchemistry": 7706,
      "Ġfibers": 7707,
      "Ġfidelity": 7708,
      "Ġmodality": 7709,
      "Ġimped": 7710,
      "Ġinsulators": 7711,
      "Ġchecking": 7712,
      "Ġabundances": 7713,
      "Ġlot": 7714,
      "Ġsymplectic": 7715,
      "Ġpriori": 7716,
      "Ġvacc": 7717,
      "Ġbif": 7718,
      "Ġbub": 7719,
      "usted": 7720,
      "ĠkeV": 7721,
      "Ġrecip": 7722,
      "Ġtrend": 7723,
      "Ġrouting": 7724,
      "ependence": 7725,
      "Ġoperational": 7726,
      "Ġlogics": 7727,
      "Ġmagneto": 7728,
      "Ġconstitu": 7729,
      "Ġever": 7730,
      "ession": 7731,
      "Ġperturbed": 7732,
      "ĠVision": 7733,
      "Ġcarrier": 7734,
      "Ġinductive": 7735,
      "fortunately": 7736,
      "Ġsolids": 7737,
      "Ġquotient": 7738,
      "Ġbusiness": 7739,
      "bb": 7740,
      "ĠBuil": 7741,
      "axial": 7742,
      "ĠUnsupervised": 7743,
      "Ġphotometry": 7744,
      "Ġcovariates": 7745,
      "Ġheavily": 7746,
      "endi": 7747,
      "ĠMet": 7748,
      "ĠReview": 7749,
      "Ġlaboratory": 7750,
      "schild": 7751,
      "icial": 7752,
      "Ġmotions": 7753,
      "Ġangles": 7754,
      "Ġyielding": 7755,
      "Ġmusic": 7756,
      "series": 7757,
      "overy": 7758,
      "erials": 7759,
      "Ġhelps": 7760,
      "Ġmergers": 7761,
      "Ġcontrollers": 7762,
      "Ġevolve": 7763,
      "simeq": 7764,
      "83": 7765,
      "yi": 7766,
      "}/": 7767,
      "Ġprop": 7768,
      "uck": 7769,
      "getic": 7770,
      "ĠOff": 7771,
      "Ġrelativity": 7772,
      "Ġinfinitely": 7773,
      "Ġexpanding": 7774,
      "asserstein": 7775,
      "Ġbatter": 7776,
      "Ġplate": 7777,
      "Ġinclusion": 7778,
      "Ġenroll": 7779,
      "Ġmonotonic": 7780,
      "ĠComplexity": 7781,
      "langle": 7782,
      "Ġtiss": 7783,
      "ats": 7784,
      "Ġadded": 7785,
      "Ġsurrounding": 7786,
      "ĠDataset": 7787,
      "ĠBet": 7788,
      "istemic": 7789,
      "Ġoverhead": 7790,
      "ĠNear": 7791,
      "ĠJan": 7792,
      "ĠSimulations": 7793,
      "Ġreaching": 7794,
      "ĠGalois": 7795,
      "Ġeconomic": 7796,
      "Ġcharacterizing": 7797,
      "Ġnucleus": 7798,
      "Ġsimpler": 7799,
      "Ġallevi": 7800,
      "ĠAx": 7801,
      "Ġexploring": 7802,
      "Ġdiseases": 7803,
      "Ġmetallicity": 7804,
      "ache": 7805,
      "Ġexpressive": 7806,
      "Ġrepeated": 7807,
      "Ġopportunities": 7808,
      "ĠSoftware": 7809,
      "Ġ.": 7810,
      "Ġpion": 7811,
      "Ġ\\,": 7812,
      "Ġposit": 7813,
      "asons": 7814,
      "uctions": 7815,
      "ĠRF": 7816,
      "obolev": 7817,
      "ĠYet": 7818,
      "Ġensembles": 7819,
      "Ġreasonable": 7820,
      "Ġacquisition": 7821,
      "ham": 7822,
      "Ġ90": 7823,
      "ĠTree": 7824,
      "AdS": 7825,
      "\\,\\": 7826,
      "figur": 7827,
      "Ġcourse": 7828,
      "Ġbits": 7829,
      "Ġtopics": 7830,
      "Ġnano": 7831,
      "ĠAutonomous": 7832,
      "Ġpreferences": 7833,
      "Ġcountable": 7834,
      "front": 7835,
      "Ġdich": 7836,
      "omechanical": 7837,
      "ĠNot": 7838,
      "Ġinterpretable": 7839,
      "gue": 7840,
      "integr": 7841,
      "abled": 7842,
      "Ġraw": 7843,
      "Ġphysically": 7844,
      "ĠAnomal": 7845,
      "ĠStability": 7846,
      "Ġthroughout": 7847,
      "shell": 7848,
      "Ġskew": 7849,
      "Ġexception": 7850,
      "Ġstation": 7851,
      "Ġspan": 7852,
      "ĠTransition": 7853,
      "Ġ40": 7854,
      "Ġinitially": 7855,
      "ĠGradient": 7856,
      "Ġbiomedical": 7857,
      "Ġgeometrical": 7858,
      "entication": 7859,
      "Ġhapp": 7860,
      "Ġvic": 7861,
      "ĠInc": 7862,
      "ĠBlo": 7863,
      "Ġmeet": 7864,
      "Ġsoliton": 7865,
      "Sp": 7866,
      "Scale": 7867,
      "Ġtelescope": 7868,
      "Ġbring": 7869,
      "Ġher": 7870,
      "Ġforming": 7871,
      "Ġmining": 7872,
      "Ġdecreasing": 7873,
      "Ġhealthcare": 7874,
      "Ġmitigate": 7875,
      "Ġsaturation": 7876,
      "Ġtax": 7877,
      "Ġpush": 7878,
      "ĠWireless": 7879,
      "Ġprep": 7880,
      "Ġhomotopy": 7881,
      "Ġfavor": 7882,
      "rot": 7883,
      "ploys": 7884,
      "ĠAlgebra": 7885,
      "GL": 7886,
      "Ġtidal": 7887,
      "Ġexotic": 7888,
      "ĠCu": 7889,
      "iling": 7890,
      "Ġvast": 7891,
      "ulties": 7892,
      "Ġspheres": 7893,
      "Ġmatches": 7894,
      "Ġgeodesic": 7895,
      "Ġinser": 7896,
      "ulsive": 7897,
      "Ġmultilayer": 7898,
      "Ġyear": 7899,
      "Ġdiffe": 7900,
      "ĠMatching": 7901,
      "NS": 7902,
      "211": 7903,
      "ibilities": 7904,
      "condition": 7905,
      "ambig": 7906,
      "ĠImaging": 7907,
      "Ġdatabases": 7908,
      "Ġglobally": 7909,
      "Ġscreening": 7910,
      "Ni": 7911,
      "Ġemploys": 7912,
      "Ġrelational": 7913,
      "Ġamb": 7914,
      "\\'{": 7915,
      "Ġcentralized": 7916,
      "Ġhadron": 7917,
      "Eng": 7918,
      "Dr": 7919,
      "Ġinhomogeneous": 7920,
      "Ġjunctions": 7921,
      "ĠEnti": 7922,
      "Ġquantized": 7923,
      "Ġnanow": 7924,
      "urc": 7925,
      "ĠSAR": 7926,
      "erson": 7927,
      "Ġtransforms": 7928,
      "ecke": 7929,
      "Ġvanish": 7930,
      "Ġmel": 7931,
      "Ġhome": 7932,
      "Ġdevelops": 7933,
      "Ġdiffuse": 7934,
      "Ġunclear": 7935,
      "Ġmonolayer": 7936,
      "Ġprescribed": 7937,
      "ĠIter": 7938,
      "dinger": 7939,
      "ĠPython": 7940,
      "ĠReasoning": 7941,
      "estim": 7942,
      "Ġunlabeled": 7943,
      "Ġkpc": 7944,
      "ĠUnfortunately": 7945,
      "Ġdifficulties": 7946,
      "Ġaugment": 7947,
      "))$": 7948,
      "Ġda": 7949,
      "ĠIsing": 7950,
      "ĠMHz": 7951,
      "Ġdisrup": 7952,
      "illimeter": 7953,
      "Ġlowest": 7954,
      "ĠSci": 7955,
      "Ġsubstit": 7956,
      "\\}$": 7957,
      "stant": 7958,
      "ĠDual": 7959,
      "Ġsubsystem": 7960,
      "isher": 7961,
      "Ġfrequently": 7962,
      "Ġadjust": 7963,
      "Ġsafe": 7964,
      "Ġdwarfs": 7965,
      "Ġmaster": 7966,
      "Ġonce": 7967,
      "ĠLabel": 7968,
      "Ġbiased": 7969,
      "Ġthemselves": 7970,
      "Ġinferred": 7971,
      "Ġamenable": 7972,
      "eper": 7973,
      "asts": 7974,
      "Ġproto": 7975,
      "ĠHel": 7976,
      "ĠNormal": 7977,
      "aviolet": 7978,
      "Ġderiving": 7979,
      "Ġscenes": 7980,
      "ĠObservatory": 7981,
      "ĠAgents": 7982,
      "ĠValue": 7983,
      "control": 7984,
      "$),": 7985,
      "eros": 7986,
      "Ġinjection": 7987,
      "Ġhear": 7988,
      "enerate": 7989,
      "ĠFine": 7990,
      "subseteq": 7991,
      "high": 7992,
      "Ġrevers": 7993,
      "eters": 7994,
      "Ġprepar": 7995,
      "Ġinterior": 7996,
      "Ġroute": 7997,
      "Ġselecting": 7998,
      "Ġdenote": 7999,
      "HO": 8000,
      "ĠBar": 8001,
      "Ġperp": 8002,
      "Ġautoregressive": 8003,
      "Ġgeometries": 8004,
      "compact": 8005,
      "Ġadjacent": 8006,
      "principles": 8007,
      "Ġoccurrence": 8008,
      "Ġreform": 8009,
      "Ġleg": 8010,
      "Ġtranspar": 8011,
      "Ġdeath": 8012,
      "excit": 8013,
      "Ġcenters": 8014,
      "ĠCalc": 8015,
      "Ġexamined": 8016,
      "leneck": 8017,
      "Ġox": 8018,
      "Ġwarp": 8019,
      "Ġbatch": 8020,
      "oweak": 8021,
      "sts": 8022,
      "ĠGames": 8023,
      "nih": 8024,
      "ĠPotential": 8025,
      "RC": 8026,
      "Ġgained": 8027,
      "Ġconsideration": 8028,
      "1906": 8029,
      "Ġrobotics": 8030,
      "ĠMeasurement": 8031,
      "SF": 8032,
      "ĠConc": 8033,
      "2019": 8034,
      "Ġintervals": 8035,
      "Ġdots": 8036,
      "Ġstudent": 8037,
      "Ġdeterminant": 8038,
      "Ġblockchain": 8039,
      "Gs": 8040,
      "Ġcus": 8041,
      "edia": 8042,
      "Ġnodal": 8043,
      "umps": 8044,
      "actional": 8045,
      "Ġ2018": 8046,
      "Ġcondensate": 8047,
      "Ġbrightness": 8048,
      "Ġaccompl": 8049,
      "Hermitian": 8050,
      "size": 8051,
      "Ġreasons": 8052,
      "Ġbodies": 8053,
      "Ġparam": 8054,
      "planetary": 8055,
      "Ġcorrectness": 8056,
      "We": 8057,
      "tle": 8058,
      "ĠTyp": 8059,
      "ĠCase": 8060,
      "Ġshed": 8061,
      "ĠExact": 8062,
      "NC": 8063,
      "Ġvisualization": 8064,
      "ĠGravitational": 8065,
      "hedral": 8066,
      "aper": 8067,
      "otimes": 8068,
      "Ġjump": 8069,
      "ĠSymmetry": 8070,
      "Ġphonons": 8071,
      "Ġcarefully": 8072,
      "))": 8073,
      "hes": 8074,
      "Ġcentr": 8075,
      "Ġchir": 8076,
      "Ġsupergravity": 8077,
      "Ġmedian": 8078,
      "Ġattempts": 8079,
      "estri": 8080,
      "ĠFL": 8081,
      "resource": 8082,
      "Ġdeviations": 8083,
      "Ġcaptioning": 8084,
      "ĠEns": 8085,
      "Ġchoose": 8086,
      "Ġpolyg": 8087,
      "Ġstrengths": 8088,
      "ĠHeterogeneous": 8089,
      "ke": 8090,
      "ĠCM": 8091,
      "Ġalter": 8092,
      "ĠZero": 8093,
      "^+$": 8094,
      "Ġdenoising": 8095,
      "Ġdeformed": 8096,
      "Ġopposite": 8097,
      "Ġeducation": 8098,
      "case": 8099,
      "ĠPO": 8100,
      "Ġproperly": 8101,
      "ĠSchwarz": 8102,
      "loc": 8103,
      "enh": 8104,
      "Ġcoronal": 8105,
      "ĠEntang": 8106,
      "orphous": 8107,
      "Ġtunable": 8108,
      "Ġbridge": 8109,
      "ĠPop": 8110,
      "Ġappe": 8111,
      "Ġsheaves": 8112,
      "Ġresolve": 8113,
      "lity": 8114,
      "Ġfix": 8115,
      "acial": 8116,
      "eyond": 8117,
      "Ġobserver": 8118,
      "Ġmanufact": 8119,
      "^{(": 8120,
      "ismic": 8121,
      "prop": 8122,
      "Ġenabled": 8123,
      "Ġvulnerable": 8124,
      "Mark": 8125,
      "Ti": 8126,
      "acies": 8127,
      "ategor": 8128,
      "Ġsupporting": 8129,
      "Ġposed": 8130,
      "Ġintegrating": 8131,
      "Ġcreating": 8132,
      "Ġexceed": 8133,
      "Ġdegeneracy": 8134,
      "Ġepoch": 8135,
      "using": 8136,
      "Ġcommerc": 8137,
      "ĠRetrieval": 8138,
      "herence": 8139,
      "Ġdepos": 8140,
      "Ġinstantaneous": 8141,
      "cast": 8142,
      "Ġrelying": 8143,
      "Ġbidirectional": 8144,
      "Ġ25": 8145,
      "inkowski": 8146,
      "Ġnucleon": 8147,
      "Ġconservative": 8148,
      "noise": 8149,
      "Ġcylindr": 8150,
      "onym": 8151,
      "ĠDist": 8152,
      "Ġcontrols": 8153,
      "Ġspecification": 8154,
      "Hellman": 8155,
      "ĠHal": 8156,
      "Ġpresenting": 8157,
      "Ġsupersymmetric": 8158,
      "ĠComputer": 8159,
      "New": 8160,
      "casting": 8161,
      "Ġtends": 8162,
      "Ġhall": 8163,
      "ĠAssuming": 8164,
      "ĠComparison": 8165,
      "ĠIntelligence": 8166,
      "length": 8167,
      "ert": 8168,
      "Ġoption": 8169,
      "Ġsubjects": 8170,
      "NO": 8171,
      "Ġstret": 8172,
      "raft": 8173,
      "ĠBas": 8174,
      "Ġactivation": 8175,
      "seq": 8176,
      "Ġincons": 8177,
      "Ġagree": 8178,
      "xygen": 8179,
      "Ġconjug": 8180,
      "ĠIV": 8181,
      "ĠGRB": 8182,
      "ĠRun": 8183,
      "ĠRGB": 8184,
      "Ġobey": 8185,
      "ĠRecommend": 8186,
      "Ġdrug": 8187,
      "Ġreached": 8188,
      "End": 8189,
      "Ġgoverned": 8190,
      "ĠExploring": 8191
    },
    "merges": [
      [
        "Ġ",
        "t"
      ],
      [
        "i",
        "n"
      ],
      [
        "Ġ",
        "a"
      ],
      [
        "o",
        "n"
      ],
      [
        "e",
        "r"
      ],
      [
        "Ġt",
        "h"
      ],
      [
        "t",
        "i"
      ],
      [
        "e",
        "n"
      ],
      [
        "r",
        "e"
      ],
      [
        "Ġ",
        "s"
      ],
      [
        "Ġth",
        "e"
      ],
      [
        "Ġ",
        "p"
      ],
      [
        "Ġ",
        "o"
      ],
      [
        "Ġ",
        "c"
      ],
      [
        "a",
        "l"
      ],
      [
        "e",
        "d"
      ],
      [
        "e",
        "s"
      ],
      [
        "o",
        "r"
      ],
      [
        "i",
        "s"
      ],
      [
        "a",
        "t"
      ],
      [
        "ti",
        "on"
      ],
      [
        "i",
        "t"
      ],
      [
        "Ġ",
        "f"
      ],
      [
        "t",
        "r"
      ],
      [
        "a",
        "r"
      ],
      [
        "Ġ",
        "e"
      ],
      [
        "Ġ",
        "in"
      ],
      [
        "in",
        "g"
      ],
      [
        "Ġo",
        "f"
      ],
      [
        "Ġa",
        "n"
      ],
      [
        "c",
        "e"
      ],
      [
        "r",
        "o"
      ],
      [
        "Ġ",
        "m"
      ],
      [
        "a",
        "n"
      ],
      [
        "Ġ",
        "d"
      ],
      [
        "Ġ",
        "w"
      ],
      [
        "Ġ",
        "re"
      ],
      [
        "i",
        "c"
      ],
      [
        "Ġan",
        "d"
      ],
      [
        "i",
        "d"
      ],
      [
        "a",
        "s"
      ],
      [
        "l",
        "e"
      ],
      [
        "en",
        "t"
      ],
      [
        "a",
        "tion"
      ],
      [
        "Ġ",
        "b"
      ],
      [
        "e",
        "l"
      ],
      [
        "a",
        "c"
      ],
      [
        "u",
        "r"
      ],
      [
        "a",
        "in"
      ],
      [
        "i",
        "m"
      ],
      [
        "Ġ",
        "n"
      ],
      [
        "Ġt",
        "o"
      ],
      [
        "i",
        "v"
      ],
      [
        "en",
        "ce"
      ],
      [
        "e",
        "t"
      ],
      [
        "o",
        "m"
      ],
      [
        "e",
        "c"
      ],
      [
        "Ġ",
        "is"
      ],
      [
        "Ġe",
        "v"
      ],
      [
        "e",
        "v"
      ],
      [
        "u",
        "s"
      ],
      [
        "Ġf",
        "or"
      ],
      [
        "o",
        "d"
      ],
      [
        "q",
        "u"
      ],
      [
        "u",
        "l"
      ],
      [
        "id",
        "ence"
      ],
      [
        "Ġ",
        "l"
      ],
      [
        "Ġev",
        "idence"
      ],
      [
        "Ġ",
        "T"
      ],
      [
        "Ġ",
        "on"
      ],
      [
        "tr",
        "i"
      ],
      [
        "o",
        "l"
      ],
      [
        "u",
        "n"
      ],
      [
        "Ġc",
        "on"
      ],
      [
        "Ġp",
        "ro"
      ],
      [
        "l",
        "y"
      ],
      [
        "Ġ",
        "h"
      ],
      [
        "Ġ",
        "g"
      ],
      [
        "x",
        "t"
      ],
      [
        "Ġ",
        "S"
      ],
      [
        "v",
        "e"
      ],
      [
        "it",
        "h"
      ],
      [
        "ev",
        "ed"
      ],
      [
        "X",
        "iv"
      ],
      [
        "tri",
        "eved"
      ],
      [
        "ti",
        "c"
      ],
      [
        "o",
        "s"
      ],
      [
        "Ġ",
        "W"
      ],
      [
        "a",
        "m"
      ],
      [
        "e",
        "xt"
      ],
      [
        "Ġe",
        "x"
      ],
      [
        "ac",
        "t"
      ],
      [
        "Ġp",
        "re"
      ],
      [
        "Ġ",
        "C"
      ],
      [
        "h",
        "e"
      ],
      [
        "o",
        "w"
      ],
      [
        "Ġ",
        "$"
      ],
      [
        "0",
        "1"
      ],
      [
        "u",
        "t"
      ],
      [
        "ro",
        "m"
      ],
      [
        "o",
        "ur"
      ],
      [
        "Ġt",
        "ext"
      ],
      [
        "Ġ",
        "["
      ],
      [
        "i",
        "g"
      ],
      [
        "Ġf",
        "rom"
      ],
      [
        "o",
        "t"
      ],
      [
        "Ġth",
        "at"
      ],
      [
        "p",
        "er"
      ],
      [
        "u",
        "c"
      ],
      [
        "Ġw",
        "ith"
      ],
      [
        "Ġ",
        "("
      ],
      [
        "Ġ",
        "L"
      ],
      [
        "i",
        "l"
      ],
      [
        "e",
        "m"
      ],
      [
        "Ġs",
        "t"
      ],
      [
        "s",
        "tr"
      ],
      [
        "our",
        "ce"
      ],
      [
        "a",
        "g"
      ],
      [
        "it",
        "e"
      ],
      [
        "s",
        "t"
      ],
      [
        "p",
        "l"
      ],
      [
        "r",
        "a"
      ],
      [
        "u",
        "m"
      ],
      [
        "it",
        "y"
      ],
      [
        "Ġ",
        "A"
      ],
      [
        "Ġw",
        "h"
      ],
      [
        "Ġth",
        "is"
      ],
      [
        "s",
        "er"
      ],
      [
        "Ġa",
        "r"
      ],
      [
        "a",
        "b"
      ],
      [
        "at",
        "e"
      ],
      [
        "Ġ",
        "v"
      ],
      [
        "Ġ",
        "I"
      ],
      [
        "u",
        "re"
      ],
      [
        "i",
        "f"
      ],
      [
        "t",
        "er"
      ],
      [
        "i",
        "z"
      ],
      [
        "Ġc",
        "om"
      ],
      [
        "Ġw",
        "e"
      ],
      [
        "es",
        "t"
      ],
      [
        "Ġ",
        "D"
      ],
      [
        "c",
        "h"
      ],
      [
        "t",
        "s"
      ],
      [
        "Ġre",
        "trieved"
      ],
      [
        "i",
        "on"
      ],
      [
        "ĠT",
        "he"
      ],
      [
        "or",
        "m"
      ],
      [
        "ĠW",
        "e"
      ],
      [
        "p",
        "h"
      ],
      [
        "Ġm",
        "od"
      ],
      [
        "Ġs",
        "y"
      ],
      [
        "t",
        "h"
      ],
      [
        "Ġa",
        "s"
      ],
      [
        "Ġa",
        "l"
      ],
      [
        "Ġ",
        "M"
      ],
      [
        "r",
        "an"
      ],
      [
        "Ġp",
        "l"
      ],
      [
        "er",
        "s"
      ],
      [
        "as",
        "k"
      ],
      [
        "Ġ",
        "us"
      ],
      [
        "s",
        "w"
      ],
      [
        "sw",
        "er"
      ],
      [
        "Ġre",
        "s"
      ],
      [
        "Ġb",
        "e"
      ],
      [
        "ation",
        "s"
      ],
      [
        "p",
        "p"
      ],
      [
        "Ġar",
        "Xiv"
      ],
      [
        "ar",
        "Xiv"
      ],
      [
        "i",
        "r"
      ],
      [
        "f",
        "orm"
      ],
      [
        "R",
        "e"
      ],
      [
        "Ġa",
        "re"
      ],
      [
        "ain",
        "ing"
      ],
      [
        "g",
        "ent"
      ],
      [
        "er",
        "n"
      ],
      [
        "Ġmod",
        "el"
      ],
      [
        "Ġ",
        "un"
      ],
      [
        "Ġcom",
        "p"
      ],
      [
        "Ġb",
        "y"
      ],
      [
        "Ġre",
        "qu"
      ],
      [
        "Ġs",
        "p"
      ],
      [
        "en",
        "s"
      ],
      [
        "ic",
        "al"
      ],
      [
        "o",
        "re"
      ],
      [
        "e",
        "ar"
      ],
      [
        "o",
        "p"
      ],
      [
        "an",
        "t"
      ],
      [
        "es",
        "s"
      ],
      [
        "Ġ",
        "E"
      ],
      [
        "Ġs",
        "u"
      ],
      [
        "g",
        "e"
      ],
      [
        "ĠI",
        "n"
      ],
      [
        "m",
        "ent"
      ],
      [
        "2",
        "1"
      ],
      [
        "ti",
        "ve"
      ],
      [
        "b",
        "str"
      ],
      [
        "Ġp",
        "ar"
      ],
      [
        "a",
        "y"
      ],
      [
        "ern",
        "el"
      ],
      [
        "tr",
        "aining"
      ],
      [
        "Ġon",
        "e"
      ],
      [
        "A",
        "gent"
      ],
      [
        "a",
        "d"
      ],
      [
        "bstr",
        "act"
      ],
      [
        "o",
        "c"
      ],
      [
        "Ġ",
        "P"
      ],
      [
        "Ġ",
        "G"
      ],
      [
        "n",
        "swer"
      ],
      [
        "tion",
        "s"
      ],
      [
        "U",
        "ser"
      ],
      [
        "Ġ",
        "|"
      ],
      [
        "or",
        "k"
      ],
      [
        "Ġrequ",
        "est"
      ],
      [
        "Ġpre",
        "training"
      ],
      [
        "K",
        "ernel"
      ],
      [
        "T",
        "ask"
      ],
      [
        "ĠL",
        "ite"
      ],
      [
        "Ġpl",
        "ain"
      ],
      [
        "A",
        "nswer"
      ],
      [
        "Re",
        "trieved"
      ],
      [
        "Agent",
        "Kernel"
      ],
      [
        "Ġn",
        "e"
      ],
      [
        "A",
        "bstract"
      ],
      [
        "en",
        "er"
      ],
      [
        "ig",
        "h"
      ],
      [
        "ec",
        "t"
      ],
      [
        "o",
        "g"
      ],
      [
        "Ġ",
        "k"
      ],
      [
        "Ġ",
        "id"
      ],
      [
        "21",
        "01"
      ],
      [
        "Ġ",
        "F"
      ],
      [
        "Ġc",
        "l"
      ],
      [
        "Ġd",
        "is"
      ],
      [
        "u",
        "d"
      ],
      [
        "ran",
        "s"
      ],
      [
        "re",
        "s"
      ],
      [
        "f",
        "f"
      ],
      [
        "at",
        "h"
      ],
      [
        "as",
        "ed"
      ],
      [
        "b",
        "le"
      ],
      [
        "e",
        "y"
      ],
[...]
