{
  "version": "1.0",
  "truncation": null,
  "padding": null,
  "added_tokens": [
    {
      "id": 0,
      "content": "<pad>",
      "single_word": false,
      "lstrip": false,
      "rstrip": false,
      "normalized": false,
      "special": true
    },
    {
      "id": 1,
      "content": "<s>",
      "single_word": false,
      "lstrip": false,
      "rstrip": false,
      "normalized": false,
      "special": true
    },
    {
      "id": 2,
      "content": "</s>",
      "single_word": false,
      "lstrip": false,
      "rstrip": false,
      "normalized": false,
      "special": true
    },
    {
      "id": 3,
      "content": "<unk>",
      "single_word": false,
      "lstrip": false,
      "rstrip": false,
      "normalized": false,
      "special": true
    },
    {
      "id": 4,
      "content": "<AK_USER>",
      "single_word": false,
      "lstrip": false,
      "rstrip": false,
      "normalized": false,
      "special": true
    },
    {
      "id": 5,
      "content": "<AK_CHAT>",
      "single_word": false,
      "lstrip": false,
      "rstrip": false,
      "normalized": false,
      "special": true
    },
    {
      "id": 6,
      "content": "<AK_THINK>",
      "single_word": false,
      "lstrip": false,
      "rstrip": false,
      "normalized": false,
      "special": true
    },
    {
      "id": 7,
      "content": "<AK_DEEP_RESEARCH>",
      "single_word": false,
      "lstrip": false,
      "rstrip": false,
      "normalized": false,
      "special": true
    },
    {
      "id": 8,
      "content": "<AK_LOOP>",
      "single_word": false,
      "lstrip": false,
      "rstrip": false,
      "normalized": false,
      "special": true
    },
    {
      "id": 9,
      "content": "<AK_PLAN>",
      "single_word": false,
      "lstrip": false,
      "rstrip": false,
      "normalized": false,
      "special": true
    },
    {
      "id": 10,
      "content": "<AK_STATE>",
      "single_word": false,
      "lstrip": false,
      "rstrip": false,
      "normalized": false,
      "special": true
    },
    {
      "id": 11,
      "content": "<AK_CONTEXT>",
      "single_word": false,
      "lstrip": false,
      "rstrip": false,
      "normalized": false,
      "special": true
    },
    {
      "id": 12,
      "content": "<AK_ACTIVE_CONTEXT>",
      "single_word": false,
      "lstrip": false,
      "rstrip": false,
      "normalized": false,
      "special": true
    },
    {
      "id": 13,
      "content": "<AK_EVIDENCE>",
      "single_word": false,
      "lstrip": false,
      "rstrip": false,
      "normalized": false,
      "special": true
    },
    {
      "id": 14,
      "content": "<AK_EVIDENCE_ID>",
      "single_word": false,
      "lstrip": false,
      "rstrip": false,
      "normalized": false,
      "special": true
    },
    {
      "id": 15,
      "content": "<AK_TITLE>",
      "single_word": false,
      "lstrip": false,
      "rstrip": false,
      "normalized": false,
      "special": true
    },
    {
      "id": 16,
      "content": "<AK_PAPER_ID>",
      "single_word": false,
      "lstrip": false,
      "rstrip": false,
      "normalized": false,
      "special": true
    },
    {
      "id": 17,
      "content": "<AK_CATEGORY>",
      "single_word": false,
      "lstrip": false,
      "rstrip": false,
      "normalized": false,
      "special": true
    },
    {
      "id": 18,
      "content": "<AK_YEAR>",
      "single_word": false,
      "lstrip": false,
      "rstrip": false,
      "normalized": false,
      "special": true
    },
    {
      "id": 19,
      "content": "<AK_ABSTRACT>",
      "single_word": false,
      "lstrip": false,
      "rstrip": false,
      "normalized": false,
      "special": true
    },
    {
      "id": 20,
      "content": "<AK_CANDIDATE>",
      "single_word": false,
      "lstrip": false,
      "rstrip": false,
      "normalized": false,
      "special": true
    },
    {
      "id": 21,
      "content": "<AK_SELECTED_PAPER>",
      "single_word": false,
      "lstrip": false,
      "rstrip": false,
      "normalized": false,
      "special": true
    },
    {
      "id": 22,
      "content": "<AK_CONTEXT_ID>",
      "single_word": false,
      "lstrip": false,
      "rstrip": false,
      "normalized": false,
      "special": true
    },
    {
      "id": 23,
      "content": "<AK_TARGET_CONTEXT>",
      "single_word": false,
      "lstrip": false,
      "rstrip": false,
      "normalized": false,
      "special": true
    },
    {
      "id": 24,
      "content": "<AK_QUERY_REWRITE>",
      "single_word": false,
      "lstrip": false,
      "rstrip": false,
      "normalized": false,
      "special": true
    },
    {
      "id": 25,
      "content": "<AK_RERANK>",
      "single_word": false,
      "lstrip": false,
      "rstrip": false,
      "normalized": false,
      "special": true
    },
    {
      "id": 26,
      "content": "<AK_ABSTRACT_RETRIEVAL>",
      "single_word": false,
      "lstrip": false,
      "rstrip": false,
      "normalized": false,
      "special": true
    },
    {
      "id": 27,
      "content": "<AK_GATHER_CONTEXT>",
      "single_word": false,
      "lstrip": false,
      "rstrip": false,
      "normalized": false,
      "special": true
    },
    {
      "id": 28,
      "content": "<AK_RESPOND>",
      "single_word": false,
      "lstrip": false,
      "rstrip": false,
      "normalized": false,
      "special": true
    },
    {
      "id": 29,
      "content": "<AK_USE_CONTEXT>",
      "single_word": false,
      "lstrip": false,
      "rstrip": false,
      "normalized": false,
      "special": true
    },
    {
      "id": 30,
      "content": "<AK_FULL_TEXT>",
      "single_word": false,
      "lstrip": false,
      "rstrip": false,
      "normalized": false,
      "special": true
    },
    {
      "id": 31,
      "content": "<AK_LOAD_FULL_TEXT>",
      "single_word": false,
      "lstrip": false,
      "rstrip": false,
      "normalized": false,
      "special": true
    },
    {
      "id": 32,
      "content": "<AK_NO_RETRIEVAL>",
      "single_word": false,
      "lstrip": false,
      "rstrip": false,
      "normalized": false,
      "special": true
    },
    {
      "id": 33,
      "content": "<AK_RETRIEVE_NEW>",
      "single_word": false,
      "lstrip": false,
      "rstrip": false,
      "normalized": false,
      "special": true
    },
    {
      "id": 34,
      "content": "<AK_RETRIEVAL_PAIR>",
      "single_word": false,
      "lstrip": false,
      "rstrip": false,
      "normalized": false,
      "special": true
    },
    {
      "id": 35,
      "content": "<AK_SUFFICIENT>",
      "single_word": false,
      "lstrip": false,
      "rstrip": false,
      "normalized": false,
      "special": true
    },
    {
      "id": 36,
      "content": "<AK_INSUFFICIENT>",
      "single_word": false,
      "lstrip": false,
      "rstrip": false,
      "normalized": false,
      "special": true
    },
    {
      "id": 37,
      "content": "<AK_ANSWER>",
      "single_word": false,
      "lstrip": false,
      "rstrip": false,
      "normalized": false,
      "special": true
    },
    {
      "id": 38,
      "content": "<AK_CITE>",
      "single_word": false,
      "lstrip": false,
      "rstrip": false,
      "normalized": false,
      "special": true
    },
    {
      "id": 39,
      "content": "<AK_RENDER>",
      "single_word": false,
      "lstrip": false,
      "rstrip": false,
      "normalized": false,
      "special": true
    },
    {
      "id": 40,
      "content": "<AK_JSON>",
      "single_word": false,
      "lstrip": false,
      "rstrip": false,
      "normalized": false,
      "special": true
    },
    {
      "id": 41,
      "content": "<AK_PROFILE>",
      "single_word": false,
      "lstrip": false,
      "rstrip": false,
      "normalized": false,
      "special": true
    },
    {
      "id": 42,
      "content": "<AK_SLOT>",
      "single_word": false,
      "lstrip": false,
      "rstrip": false,
      "normalized": false,
      "special": true
    },
    {
      "id": 43,
      "content": "<AK_SLOT_NAME>",
      "single_word": false,
      "lstrip": false,
      "rstrip": false,
      "normalized": false,
      "special": true
    },
    {
      "id": 44,
      "content": "<AK_SLOT_VALUE>",
      "single_word": false,
      "lstrip": false,
      "rstrip": false,
      "normalized": false,
      "special": true
    },
    {
      "id": 45,
      "content": "<AK_PREFERENCE>",
      "single_word": false,
      "lstrip": false,
      "rstrip": false,
      "normalized": false,
      "special": true
    },
    {
      "id": 46,
      "content": "<AK_GOAL>",
      "single_word": false,
      "lstrip": false,
      "rstrip": false,
      "normalized": false,
      "special": true
    },
    {
      "id": 47,
      "content": "<AK_DOMAIN>",
      "single_word": false,
      "lstrip": false,
      "rstrip": false,
      "normalized": false,
      "special": true
    },
    {
      "id": 48,
      "content": "<AK_TONE>",
      "single_word": false,
      "lstrip": false,
      "rstrip": false,
      "normalized": false,
      "special": true
    },
    {
      "id": 49,
      "content": "<AK_CONSTRAINT>",
      "single_word": false,
      "lstrip": false,
      "rstrip": false,
      "normalized": false,
      "special": true
    },
    {
      "id": 50,
      "content": "<AK_PRIVACY>",
      "single_word": false,
      "lstrip": false,
      "rstrip": false,
      "normalized": false,
      "special": true
    },
    {
      "id": 51,
      "content": "<AK_REMEMBER>",
      "single_word": false,
      "lstrip": false,
      "rstrip": false,
      "normalized": false,
      "special": true
    },
    {
      "id": 52,
      "content": "<AK_UPDATE_SLOT>",
      "single_word": false,
      "lstrip": false,
      "rstrip": false,
      "normalized": false,
      "special": true
    },
    {
      "id": 53,
      "content": "<AK_DELETE_SLOT>",
      "single_word": false,
      "lstrip": false,
      "rstrip": false,
      "normalized": false,
      "special": true
    },
    {
      "id": 54,
      "content": "<AK_EXTENSION>",
      "single_word": false,
      "lstrip": false,
      "rstrip": false,
      "normalized": false,
      "special": true
    },
    {
      "id": 55,
      "content": "<AK_CAPABILITY>",
      "single_word": false,
      "lstrip": false,
      "rstrip": false,
      "normalized": false,
      "special": true
    },
    {
      "id": 56,
      "content": "<AK_APPROVAL>",
      "single_word": false,
      "lstrip": false,
      "rstrip": false,
      "normalized": false,
      "special": true
    },
    {
      "id": 57,
      "content": "<AK_SAVE_MEMORY>",
      "single_word": false,
      "lstrip": false,
      "rstrip": false,
      "normalized": false,
      "special": true
    },
    {
      "id": 58,
      "content": "<AK_ASK_USER>",
      "single_word": false,
      "lstrip": false,
      "rstrip": false,
      "normalized": false,
      "special": true
    },
    {
      "id": 59,
      "content": "<AK_SOURCE_TYPE>",
      "single_word": false,
      "lstrip": false,
      "rstrip": false,
      "normalized": false,
      "special": true
    },
    {
      "id": 60,
      "content": "<AK_EXTENSION_RESULT>",
      "single_word": false,
      "lstrip": false,
      "rstrip": false,
      "normalized": false,
      "special": true
    },
    {
      "id": 61,
      "content": "<AK_INSTALLED>",
      "single_word": false,
      "lstrip": false,
      "rstrip": false,
      "normalized": false,
      "special": true
    },
    {
      "id": 62,
      "content": "<AK_DECISION>",
      "single_word": false,
      "lstrip": false,
      "rstrip": false,
      "normalized": false,
      "special": true
    },
    {
      "id": 63,
      "content": "<AK_NEED_MEMORY>",
      "single_word": false,
      "lstrip": false,
      "rstrip": false,
      "normalized": false,
      "special": true
    },
    {
      "id": 64,
      "content": "<AK_MEMORY_TYPE>",
      "single_word": false,
      "lstrip": false,
      "rstrip": false,
      "normalized": false,
      "special": true
    },
    {
      "id": 65,
      "content": "<AK_MEMORY_QUERY>",
      "single_word": false,
      "lstrip": false,
      "rstrip": false,
      "normalized": false,
      "special": true
    },
    {
      "id": 66,
      "content": "<AK_MEMORY_SLOT>",
      "single_word": false,
      "lstrip": false,
      "rstrip": false,
      "normalized": false,
      "special": true
    },
    {
      "id": 67,
      "content": "<AK_MEMORY_RESULT>",
      "single_word": false,
      "lstrip": false,
      "rstrip": false,
      "normalized": false,
      "special": true
    },
    {
      "id": 68,
      "content": "<AK_USE_MEMORY>",
      "single_word": false,
      "lstrip": false,
      "rstrip": false,
      "normalized": false,
      "special": true
    },
    {
      "id": 69,
      "content": "<AK_UNCERTAIN>",
      "single_word": false,
      "lstrip": false,
      "rstrip": false,
      "normalized": false,
      "special": true
    },
    {
      "id": 70,
      "content": "<AK_SUFFICIENT_CONTEXT>",
      "single_word": false,
      "lstrip": false,
      "rstrip": false,
      "normalized": false,
      "special": true
    },
    {
      "id": 71,
      "content": "<AK_REASON>",
      "single_word": false,
      "lstrip": false,
      "rstrip": false,
      "normalized": false,
      "special": true
    },
    {
      "id": 72,
      "content": "<AK_VERIFY>",
      "single_word": false,
      "lstrip": false,
      "rstrip": false,
      "normalized": false,
      "special": true
    },
    {
      "id": 73,
      "content": "<AK_RETRIEVE>",
      "single_word": false,
      "lstrip": false,
      "rstrip": false,
      "normalized": false,
      "special": true
    },
    {
      "id": 74,
      "content": "<AK_REFLECT>",
      "single_word": false,
      "lstrip": false,
      "rstrip": false,
      "normalized": false,
      "special": true
    },
    {
      "id": 75,
      "content": "<AK_ASK>",
      "single_word": false,
      "lstrip": false,
      "rstrip": false,
      "normalized": false,
      "special": true
    },
    {
      "id": 76,
      "content": "<AK_ABSTAIN>",
      "single_word": false,
      "lstrip": false,
      "rstrip": false,
      "normalized": false,
      "special": true
    },
    {
      "id": 77,
      "content": "<AK_RET_PAPERS>",
      "single_word": false,
      "lstrip": false,
      "rstrip": false,
      "normalized": false,
      "special": true
    },
    {
      "id": 78,
      "content": "<AK_RET_MEMORY>",
      "single_word": false,
      "lstrip": false,
      "rstrip": false,
      "normalized": false,
      "special": true
    },
    {
      "id": 79,
      "content": "<AK_RET_GRAPH>",
      "single_word": false,
      "lstrip": false,
      "rstrip": false,
      "normalized": false,
      "special": true
    },
    {
      "id": 80,
      "content": "<AK_RET_EXACT>",
      "single_word": false,
      "lstrip": false,
      "rstrip": false,
      "normalized": false,
      "special": true
    },
    {
      "id": 81,
      "content": "<AK_RET_SEMANTIC>",
      "single_word": false,
      "lstrip": false,
      "rstrip": false,
      "normalized": false,
      "special": true
    },
    {
      "id": 82,
      "content": "<AK_RET_HYBRID>",
      "single_word": false,
      "lstrip": false,
      "rstrip": false,
      "normalized": false,
      "special": true
    },
    {
      "id": 83,
      "content": "<AK_CONF_HIGH>",
      "single_word": false,
      "lstrip": false,
      "rstrip": false,
      "normalized": false,
      "special": true
    },
    {
      "id": 84,
      "content": "<AK_CONF_MEDIUM>",
      "single_word": false,
      "lstrip": false,
      "rstrip": false,
      "normalized": false,
      "special": true
    },
    {
      "id": 85,
      "content": "<AK_CONF_LOW>",
      "single_word": false,
      "lstrip": false,
      "rstrip": false,
      "normalized": false,
      "special": true
    },
    {
      "id": 86,
      "content": "<AK_OOD_QUERY>",
      "single_word": false,
      "lstrip": false,
      "rstrip": false,
      "normalized": false,
      "special": true
    },
    {
      "id": 87,
      "content": "<AK_OOD_EVIDENCE>",
      "single_word": false,
      "lstrip": false,
      "rstrip": false,
      "normalized": false,
      "special": true
    },
    {
      "id": 88,
      "content": "<AK_OOD_RESPONSE>",
      "single_word": false,
      "lstrip": false,
      "rstrip": false,
      "normalized": false,
      "special": true
    },
    {
      "id": 89,
      "content": "<AK_INSUFFICIENT_EVIDENCE>",
      "single_word": false,
      "lstrip": false,
      "rstrip": false,
      "normalized": false,
      "special": true
    },
    {
      "id": 90,
      "content": "<AK_NEEDS_VERIFICATION>",
      "single_word": false,
      "lstrip": false,
      "rstrip": false,
      "normalized": false,
      "special": true
    },
    {
      "id": 91,
      "content": "<AK_MEM_READ>",
      "single_word": false,
      "lstrip": false,
      "rstrip": false,
      "normalized": false,
      "special": true
    },
    {
      "id": 92,
      "content": "<AK_MEM_WRITE>",
      "single_word": false,
      "lstrip": false,
      "rstrip": false,
      "normalized": false,
      "special": true
    },
    {
      "id": 93,
      "content": "<AK_MEM_UPDATE>",
      "single_word": false,
      "lstrip": false,
      "rstrip": false,
      "normalized": false,
      "special": true
    },
    {
      "id": 94,
      "content": "<AK_MEM_EPISODIC>",
      "single_word": false,
      "lstrip": false,
      "rstrip": false,
      "normalized": false,
      "special": true
    },
    {
      "id": 95,
      "content": "<AK_MEM_SEMANTIC>",
      "single_word": false,
      "lstrip": false,
      "rstrip": false,
      "normalized": false,
      "special": true
    },
    {
      "id": 96,
      "content": "<AK_CHECK_FACT>",
      "single_word": false,
      "lstrip": false,
      "rstrip": false,
      "normalized": false,
      "special": true
    },
    {
      "id": 97,
      "content": "<AK_CHECK_CONSISTENCY>",
      "single_word": false,
      "lstrip": false,
      "rstrip": false,
      "normalized": false,
      "special": true
    },
    {
      "id": 98,
      "content": "<AK_CHECK_EVIDENCE>",
      "single_word": false,
      "lstrip": false,
      "rstrip": false,
      "normalized": false,
      "special": true
    },
    {
      "id": 99,
      "content": "<AK_RETRIEVE_AGAIN>",
      "single_word": false,
      "lstrip": false,
      "rstrip": false,
      "normalized": false,
      "special": true
    },
    {
      "id": 100,
      "content": "<AK_ACTION_SPACE_CODE>",
      "single_word": false,
      "lstrip": false,
      "rstrip": false,
      "normalized": false,
      "special": true
    },
    {
      "id": 101,
      "content": "<AK_ACTION_SPACE_ARTIFACT>",
      "single_word": false,
      "lstrip": false,
      "rstrip": false,
      "normalized": false,
      "special": true
    },
    {
      "id": 102,
      "content": "<AK_ACTION_SPACE_RETRIEVAL>",
      "single_word": false,
      "lstrip": false,
      "rstrip": false,
      "normalized": false,
      "special": true
    },
    {
      "id": 103,
      "content": "<AK_ACTION_SPACE_RESPOND>",
      "single_word": false,
      "lstrip": false,
      "rstrip": false,
      "normalized": false,
      "special": true
    },
    {
      "id": 104,
      "content": "<AK_STRUCTURED>",
      "single_word": false,
      "lstrip": false,
      "rstrip": false,
      "normalized": false,
      "special": true
    },
    {
      "id": 105,
      "content": "<AK_ACTION_RESPOND>",
      "single_word": false,
      "lstrip": false,
      "rstrip": false,
      "normalized": false,
      "special": true
    },
    {
      "id": 106,
      "content": "<AK_ACTION_ASK_USER>",
      "single_word": false,
      "lstrip": false,
      "rstrip": false,
      "normalized": false,
      "special": true
    },
    {
      "id": 107,
      "content": "<AK_ACTION_EXTENSION_REQUEST>",
      "single_word": false,
      "lstrip": false,
      "rstrip": false,
      "normalized": false,
      "special": true
    },
    {
      "id": 108,
      "content": "<AK_ACTION_SAVE_MEMORY>",
      "single_word": false,
      "lstrip": false,
      "rstrip": false,
      "normalized": false,
      "special": true
    },
    {
      "id": 109,
      "content": "<AK_CONTENT>",
      "single_word": false,
      "lstrip": false,
      "rstrip": false,
      "normalized": false,
      "special": true
    },
    {
      "id": 110,
      "content": "</AK_CONTENT>",
      "single_word": false,
      "lstrip": false,
      "rstrip": false,
      "normalized": false,
      "special": true
    },
    {
      "id": 111,
      "content": "<AK_TASK_TYPE>",
      "single_word": false,
      "lstrip": false,
      "rstrip": false,
      "normalized": false,
      "special": true
    },
    {
      "id": 112,
      "content": "<AK_INTENT>",
      "single_word": false,
      "lstrip": false,
      "rstrip": false,
      "normalized": false,
      "special": true
    },
    {
      "id": 113,
      "content": "<AK_FIELD>",
      "single_word": false,
      "lstrip": false,
      "rstrip": false,
      "normalized": false,
      "special": true
    },
    {
      "id": 114,
      "content": "<AK_FIELD_NAME>",
      "single_word": false,
      "lstrip": false,
      "rstrip": false,
      "normalized": false,
      "special": true
    },
    {
      "id": 115,
      "content": "<AK_FIELD_VALUE>",
      "single_word": false,
      "lstrip": false,
      "rstrip": false,
      "normalized": false,
      "special": true
    },
    {
      "id": 116,
      "content": "<AK_FIELDS>",
      "single_word": false,
      "lstrip": false,
      "rstrip": false,
      "normalized": false,
      "special": true
    },
    {
      "id": 117,
      "content": "<AK_FRESHNESS>",
      "single_word": false,
      "lstrip": false,
      "rstrip": false,
      "normalized": false,
      "special": true
    },
    {
      "id": 118,
      "content": "<AK_END>",
      "single_word": false,
      "lstrip": false,
      "rstrip": false,
      "normalized": false,
      "special": true
    },
    {
      "id": 119,
      "content": "<AK_RET_CODE>",
      "single_word": false,
      "lstrip": false,
      "rstrip": false,
      "normalized": false,
      "special": true
    },
    {
      "id": 120,
      "content": "<AK_OOD>",
      "single_word": false,
      "lstrip": false,
      "rstrip": false,
      "normalized": false,
      "special": true
    },
    {
      "id": 121,
      "content": "<AK_ARTIFACT_REPAIR>",
      "single_word": false,
      "lstrip": false,
      "rstrip": false,
      "normalized": false,
      "special": true
    },
    {
      "id": 122,
      "content": "<AK_SOURCE_INSPECT>",
      "single_word": false,
      "lstrip": false,
      "rstrip": false,
      "normalized": false,
      "special": true
    },
    {
      "id": 123,
      "content": "<AK_PATCH_BUILD>",
      "single_word": false,
      "lstrip": false,
      "rstrip": false,
      "normalized": false,
      "special": true
    },
    {
      "id": 124,
      "content": "<AK_SAFE_STOP>",
      "single_word": false,
      "lstrip": false,
      "rstrip": false,
      "normalized": false,
      "special": true
    },
    {
      "id": 125,
      "content": "<AK_SOURCE_SLOTS>",
      "single_word": false,
      "lstrip": false,
      "rstrip": false,
      "normalized": false,
      "special": true
    },
    {
      "id": 126,
      "content": "<AK_COPY_USER_SOURCE_1>",
      "single_word": false,
      "lstrip": false,
      "rstrip": false,
      "normalized": false,
      "special": true
    },
    {
      "id": 127,
      "content": "<AK_COPY_USER_SOURCE_2>",
      "single_word": false,
      "lstrip": false,
      "rstrip": false,
      "normalized": false,
      "special": true
    },
    {
      "id": 128,
      "content": "<AK_COPY_USER_SOURCE_3>",
      "single_word": false,
      "lstrip": false,
      "rstrip": false,
      "normalized": false,
      "special": true
    },
    {
      "id": 129,
      "content": "<AK_COPY_USER_SOURCE_4>",
      "single_word": false,
      "lstrip": false,
      "rstrip": false,
      "normalized": false,
      "special": true
    },
    {
      "id": 130,
      "content": "<AK_COPY_USER_SOURCE_5>",
      "single_word": false,
      "lstrip": false,
      "rstrip": false,
      "normalized": false,
      "special": true
    },
    {
      "id": 131,
      "content": "<AK_COPY_USER_SOURCE_6>",
      "single_word": false,
      "lstrip": false,
      "rstrip": false,
      "normalized": false,
      "special": true
    },
    {
      "id": 132,
      "content": "<AK_COPY_USER_SOURCE_7>",
      "single_word": false,
      "lstrip": false,
      "rstrip": false,
      "normalized": false,
      "special": true
    },
    {
      "id": 133,
      "content": "<AK_COPY_USER_SOURCE_8>",
      "single_word": false,
      "lstrip": false,
      "rstrip": false,
      "normalized": false,
      "special": true
    },
    {
      "id": 134,
      "content": "<AK_COPY_USER_SOURCE_9>",
      "single_word": false,
      "lstrip": false,
      "rstrip": false,
      "normalized": false,
      "special": true
    },
    {
      "id": 135,
      "content": "<AK_COPY_USER_SOURCE_10>",
      "single_word": false,
      "lstrip": false,
      "rstrip": false,
      "normalized": false,
      "special": true
    },
    {
      "id": 136,
      "content": "<AK_COPY_USER_SOURCE_11>",
      "single_word": false,
      "lstrip": false,
      "rstrip": false,
      "normalized": false,
      "special": true
    },
    {
      "id": 137,
      "content": "<AK_COPY_USER_SOURCE_12>",
      "single_word": false,
      "lstrip": false,
      "rstrip": false,
      "normalized": false,
      "special": true
    },
    {
      "id": 138,
      "content": "<AK_COPY_USER_SOURCE_13>",
      "single_word": false,
      "lstrip": false,
      "rstrip": false,
      "normalized": false,
      "special": true
    },
    {
      "id": 139,
      "content": "<AK_COPY_USER_SOURCE_14>",
      "single_word": false,
      "lstrip": false,
      "rstrip": false,
      "normalized": false,
      "special": true
    },
    {
      "id": 140,
      "content": "<AK_COPY_USER_SOURCE_15>",
      "single_word": false,
      "lstrip": false,
      "rstrip": false,
      "normalized": false,
      "special": true
    },
    {
      "id": 141,
      "content": "<AK_COPY_USER_SOURCE_16>",
      "single_word": false,
      "lstrip": false,
      "rstrip": false,
      "normalized": false,
      "special": true
    },
    {
      "id": 142,
      "content": "<AK_COPY_USER_SOURCE_17>",
      "single_word": false,
      "lstrip": false,
      "rstrip": false,
      "normalized": false,
      "special": true
    },
    {
      "id": 143,
      "content": "<AK_COPY_USER_SOURCE_18>",
      "single_word": false,
      "lstrip": false,
      "rstrip": false,
      "normalized": false,
      "special": true
    },
    {
      "id": 144,
      "content": "<AK_COPY_USER_SOURCE_19>",
      "single_word": false,
      "lstrip": false,
      "rstrip": false,
      "normalized": false,
      "special": true
    },
    {
      "id": 145,
      "content": "<AK_COPY_USER_SOURCE_20>",
      "single_word": false,
      "lstrip": false,
      "rstrip": false,
      "normalized": false,
      "special": true
    },
    {
      "id": 146,
      "content": "<AK_COPY_USER_SOURCE_21>",
      "single_word": false,
      "lstrip": false,
      "rstrip": false,
      "normalized": false,
      "special": true
    },
    {
      "id": 147,
      "content": "<AK_COPY_USER_SOURCE_22>",
      "single_word": false,
      "lstrip": false,
      "rstrip": false,
      "normalized": false,
      "special": true
    },
    {
      "id": 148,
      "content": "<AK_COPY_USER_SOURCE_23>",
      "single_word": false,
      "lstrip": false,
      "rstrip": false,
      "normalized": false,
      "special": true
    },
    {
      "id": 149,
      "content": "<AK_COPY_USER_SOURCE_24>",
      "single_word": false,
      "lstrip": false,
      "rstrip": false,
      "normalized": false,
      "special": true
    }
  ],
  "normalizer": null,
  "pre_tokenizer": {
    "type": "ByteLevel",
    "add_prefix_space": false,
    "trim_offsets": true,
    "use_regex": true
  },
  "post_processor": {
    "type": "TemplateProcessing",
    "single": [
      {
        "SpecialToken": {
          "id": "<s>",
          "type_id": 0
        }
      },
      {
        "Sequence": {
          "id": "A",
          "type_id": 0
        }
      },
      {
        "SpecialToken": {
          "id": "</s>",
          "type_id": 0
        }
      }
    ],
    "pair": [
      {
        "SpecialToken": {
          "id": "<s>",
          "type_id": 0
        }
      },
      {
        "Sequence": {
          "id": "A",
          "type_id": 0
        }
      },
      {
        "SpecialToken": {
          "id": "</s>",
          "type_id": 0
        }
      },
      {
        "Sequence": {
          "id": "B",
          "type_id": 1
        }
      },
      {
        "SpecialToken": {
          "id": "</s>",
          "type_id": 1
        }
      }
    ],
    "special_tokens": {
      "</s>": {
        "id": "</s>",
        "ids": [
          2
        ],
        "tokens": [
          "</s>"
        ]
      },
      "<s>": {
        "id": "<s>",
        "ids": [
          1
        ],
        "tokens": [
          "<s>"
        ]
      }
    }
  },
  "decoder": {
    "type": "ByteLevel",
    "add_prefix_space": true,
    "trim_offsets": true,
    "use_regex": true
  },
  "model": {
    "type": "BPE",
    "dropout": null,
    "unk_token": "<unk>",
    "continuing_subword_prefix": null,
    "end_of_word_suffix": null,
    "fuse_unk": false,
    "byte_fallback": false,
    "ignore_merges": false,
    "vocab": {
      "<pad>": 0,
      "<s>": 1,
      "</s>": 2,
      "<unk>": 3,
      "<AK_USER>": 4,
      "<AK_CHAT>": 5,
      "<AK_THINK>": 6,
      "<AK_DEEP_RESEARCH>": 7,
      "<AK_LOOP>": 8,
      "<AK_PLAN>": 9,
      "<AK_STATE>": 10,
      "<AK_CONTEXT>": 11,
      "<AK_ACTIVE_CONTEXT>": 12,
      "<AK_EVIDENCE>": 13,
      "<AK_EVIDENCE_ID>": 14,
      "<AK_TITLE>": 15,
      "<AK_PAPER_ID>": 16,
      "<AK_CATEGORY>": 17,
      "<AK_YEAR>": 18,
      "<AK_ABSTRACT>": 19,
      "<AK_CANDIDATE>": 20,
      "<AK_SELECTED_PAPER>": 21,
      "<AK_CONTEXT_ID>": 22,
      "<AK_TARGET_CONTEXT>": 23,
      "<AK_QUERY_REWRITE>": 24,
      "<AK_RERANK>": 25,
      "<AK_ABSTRACT_RETRIEVAL>": 26,
      "<AK_GATHER_CONTEXT>": 27,
      "<AK_RESPOND>": 28,
      "<AK_USE_CONTEXT>": 29,
      "<AK_FULL_TEXT>": 30,
      "<AK_LOAD_FULL_TEXT>": 31,
      "<AK_NO_RETRIEVAL>": 32,
      "<AK_RETRIEVE_NEW>": 33,
      "<AK_RETRIEVAL_PAIR>": 34,
      "<AK_SUFFICIENT>": 35,
      "<AK_INSUFFICIENT>": 36,
      "<AK_ANSWER>": 37,
      "<AK_CITE>": 38,
      "<AK_RENDER>": 39,
      "<AK_JSON>": 40,
      "<AK_PROFILE>": 41,
      "<AK_SLOT>": 42,
      "<AK_SLOT_NAME>": 43,
      "<AK_SLOT_VALUE>": 44,
      "<AK_PREFERENCE>": 45,
      "<AK_GOAL>": 46,
      "<AK_DOMAIN>": 47,
      "<AK_TONE>": 48,
      "<AK_CONSTRAINT>": 49,
      "<AK_PRIVACY>": 50,
      "<AK_REMEMBER>": 51,
      "<AK_UPDATE_SLOT>": 52,
      "<AK_DELETE_SLOT>": 53,
      "<AK_EXTENSION>": 54,
      "<AK_CAPABILITY>": 55,
      "<AK_APPROVAL>": 56,
      "<AK_SAVE_MEMORY>": 57,
      "<AK_ASK_USER>": 58,
      "<AK_SOURCE_TYPE>": 59,
      "<AK_EXTENSION_RESULT>": 60,
      "<AK_INSTALLED>": 61,
      "<AK_DECISION>": 62,
      "<AK_NEED_MEMORY>": 63,
      "<AK_MEMORY_TYPE>": 64,
      "<AK_MEMORY_QUERY>": 65,
      "<AK_MEMORY_SLOT>": 66,
      "<AK_MEMORY_RESULT>": 67,
      "<AK_USE_MEMORY>": 68,
      "<AK_UNCERTAIN>": 69,
      "<AK_SUFFICIENT_CONTEXT>": 70,
      "<AK_REASON>": 71,
      "<AK_VERIFY>": 72,
      "<AK_RETRIEVE>": 73,
      "<AK_REFLECT>": 74,
      "<AK_ASK>": 75,
      "<AK_ABSTAIN>": 76,
      "<AK_RET_PAPERS>": 77,
      "<AK_RET_MEMORY>": 78,
      "<AK_RET_GRAPH>": 79,
      "<AK_RET_EXACT>": 80,
      "<AK_RET_SEMANTIC>": 81,
      "<AK_RET_HYBRID>": 82,
      "<AK_CONF_HIGH>": 83,
      "<AK_CONF_MEDIUM>": 84,
      "<AK_CONF_LOW>": 85,
      "<AK_OOD_QUERY>": 86,
      "<AK_OOD_EVIDENCE>": 87,
      "<AK_OOD_RESPONSE>": 88,
      "<AK_INSUFFICIENT_EVIDENCE>": 89,
      "<AK_NEEDS_VERIFICATION>": 90,
      "<AK_MEM_READ>": 91,
      "<AK_MEM_WRITE>": 92,
      "<AK_MEM_UPDATE>": 93,
      "<AK_MEM_EPISODIC>": 94,
      "<AK_MEM_SEMANTIC>": 95,
      "<AK_CHECK_FACT>": 96,
      "<AK_CHECK_CONSISTENCY>": 97,
      "<AK_CHECK_EVIDENCE>": 98,
      "<AK_RETRIEVE_AGAIN>": 99,
      "<AK_ACTION_SPACE_CODE>": 100,
      "<AK_ACTION_SPACE_ARTIFACT>": 101,
      "<AK_ACTION_SPACE_RETRIEVAL>": 102,
      "<AK_ACTION_SPACE_RESPOND>": 103,
      "<AK_STRUCTURED>": 104,
      "<AK_ACTION_RESPOND>": 105,
      "<AK_ACTION_ASK_USER>": 106,
      "<AK_ACTION_EXTENSION_REQUEST>": 107,
      "<AK_ACTION_SAVE_MEMORY>": 108,
      "<AK_CONTENT>": 109,
      "</AK_CONTENT>": 110,
      "<AK_TASK_TYPE>": 111,
      "<AK_INTENT>": 112,
      "<AK_FIELD>": 113,
      "<AK_FIELD_NAME>": 114,
      "<AK_FIELD_VALUE>": 115,
      "<AK_FIELDS>": 116,
      "<AK_FRESHNESS>": 117,
      "<AK_END>": 118,
      "<AK_RET_CODE>": 119,
      "<AK_OOD>": 120,
      "<AK_ARTIFACT_REPAIR>": 121,
      "<AK_SOURCE_INSPECT>": 122,
      "<AK_PATCH_BUILD>": 123,
      "<AK_SAFE_STOP>": 124,
      "<AK_SOURCE_SLOTS>": 125,
      "<AK_COPY_USER_SOURCE_1>": 126,
      "<AK_COPY_USER_SOURCE_2>": 127,
      "<AK_COPY_USER_SOURCE_3>": 128,
      "<AK_COPY_USER_SOURCE_4>": 129,
      "<AK_COPY_USER_SOURCE_5>": 130,
      "<AK_COPY_USER_SOURCE_6>": 131,
      "<AK_COPY_USER_SOURCE_7>": 132,
      "<AK_COPY_USER_SOURCE_8>": 133,
      "<AK_COPY_USER_SOURCE_9>": 134,
      "<AK_COPY_USER_SOURCE_10>": 135,
      "<AK_COPY_USER_SOURCE_11>": 136,
      "<AK_COPY_USER_SOURCE_12>": 137,
      "<AK_COPY_USER_SOURCE_13>": 138,
      "<AK_COPY_USER_SOURCE_14>": 139,
      "<AK_COPY_USER_SOURCE_15>": 140,
      "<AK_COPY_USER_SOURCE_16>": 141,
      "<AK_COPY_USER_SOURCE_17>": 142,
      "<AK_COPY_USER_SOURCE_18>": 143,
      "<AK_COPY_USER_SOURCE_19>": 144,
      "<AK_COPY_USER_SOURCE_20>": 145,
      "<AK_COPY_USER_SOURCE_21>": 146,
      "<AK_COPY_USER_SOURCE_22>": 147,
      "<AK_COPY_USER_SOURCE_23>": 148,
      "<AK_COPY_USER_SOURCE_24>": 149,
      "!": 150,
      "\"": 151,
      "#": 152,
      "$": 153,
      "%": 154,
      "&": 155,
      "'": 156,
      "(": 157,
      ")": 158,
      "*": 159,
      "+": 160,
      ",": 161,
      "-": 162,
      ".": 163,
      "/": 164,
      "0": 165,
      "1": 166,
      "2": 167,
      "3": 168,
      "4": 169,
      "5": 170,
      "6": 171,
      "7": 172,
      "8": 173,
      "9": 174,
      ":": 175,
      ";": 176,
      "<": 177,
      "=": 178,
      ">": 179,
      "?": 180,
      "@": 181,
      "A": 182,
      "B": 183,
      "C": 184,
      "D": 185,
      "E": 186,
      "F": 187,
      "G": 188,
      "H": 189,
      "I": 190,
      "J": 191,
      "K": 192,
      "L": 193,
      "M": 194,
      "N": 195,
      "O": 196,
      "P": 197,
      "Q": 198,
      "R": 199,
      "S": 200,
      "T": 201,
      "U": 202,
      "V": 203,
      "W": 204,
      "X": 205,
      "Y": 206,
      "Z": 207,
      "[": 208,
      "\\": 209,
      "]": 210,
      "^": 211,
      "_": 212,
      "`": 213,
      "a": 214,
      "b": 215,
      "c": 216,
      "d": 217,
      "e": 218,
      "f": 219,
      "g": 220,
      "h": 221,
      "i": 222,
      "j": 223,
      "k": 224,
      "l": 225,
      "m": 226,
      "n": 227,
      "o": 228,
      "p": 229,
      "q": 230,
      "r": 231,
      "s": 232,
      "t": 233,
      "u": 234,
      "v": 235,
      "w": 236,
      "x": 237,
      "y": 238,
      "z": 239,
      "{": 240,
      "|": 241,
      "}": 242,
      "~": 243,
      "¡": 244,
      "¢": 245,
      "£": 246,
      "¤": 247,
      "¥": 248,
      "¦": 249,
      "§": 250,
      "¨": 251,
      "©": 252,
      "ª": 253,
      "«": 254,
      "¬": 255,
      "®": 256,
      "¯": 257,
      "°": 258,
      "±": 259,
      "²": 260,
      "³": 261,
      "´": 262,
      "µ": 263,
      "¶": 264,
      "·": 265,
      "¸": 266,
      "¹": 267,
      "º": 268,
      "»": 269,
      "¼": 270,
      "½": 271,
      "¾": 272,
      "¿": 273,
      "Â": 274,
      "Ã": 275,
      "Ä": 276,
      "Å": 277,
      "Æ": 278,
      "Ç": 279,
      "È": 280,
      "Ê": 281,
      "Ë": 282,
      "Ì": 283,
      "Î": 284,
      "Ï": 285,
      "Ð": 286,
      "Ñ": 287,
      "Õ": 288,
      "Ö": 289,
      "×": 290,
      "Ø": 291,
      "Ù": 292,
      "à": 293,
      "á": 294,
      "â": 295,
      "ã": 296,
      "ä": 297,
      "å": 298,
      "æ": 299,
      "ç": 300,
      "è": 301,
      "é": 302,
      "ê": 303,
      "ë": 304,
      "ì": 305,
      "í": 306,
      "î": 307,
      "ï": 308,
      "ð": 309,
      "ĉ": 310,
      "Ċ": 311,
      "ě": 312,
      "Ġ": 313,
      "Ģ": 314,
      "ģ": 315,
      "Ĥ": 316,
      "ĥ": 317,
      "Ħ": 318,
      "ħ": 319,
      "Ĩ": 320,
      "ĩ": 321,
      "Ī": 322,
      "ī": 323,
      "Ĭ": 324,
      "ĭ": 325,
      "Į": 326,
      "į": 327,
      "İ": 328,
      "ı": 329,
      "Ĳ": 330,
      "ĳ": 331,
      "Ĵ": 332,
      "ĵ": 333,
      "Ķ": 334,
      "ķ": 335,
      "ĸ": 336,
      "Ĺ": 337,
      "ĺ": 338,
      "Ļ": 339,
      "ļ": 340,
      "Ľ": 341,
      "ľ": 342,
      "Ŀ": 343,
      "ŀ": 344,
      "Ł": 345,
      "ł": 346,
      "Ń": 347,
      "Ġt": 348,
      "Ġa": 349,
      "on": 350,
      "re": 351,
      "er": 352,
      "en": 353,
      "Ġth": 354,
      "AK": 355,
      "ti": 356,
      "in": 357,
      "Ġp": 358,
      "Ġc": 359,
      "or": 360,
      "Ġthe": 361,
      "te": 362,
      "le": 363,
      "is": 364,
      "Ġs": 365,
      "ent": 366,
      "la": 367,
      "Ġ<": 368,
      "al": 369,
      "ON": 370,
      "tion": 371,
      "Ġf": 372,
      "ol": 373,
      "xt": 374,
      "ur": 375,
      "ve": 376,
      "Ġu": 377,
      "Ġre": 378,
      "Ġin": 379,
      "ce": 380,
      "Ġw": 381,
      "se": 382,
      "TE": 383,
      "ar": 384,
      "Ġcon": 385,
      "st": 386,
      "gent": 387,
      "nd": 388,
      "ch": 389,
      "Ġn": 390,
      "Ġ[": 391,
      "Ġb": 392,
      "it": 393,
      "ct": 394,
      "ted": 395,
      "at": 396,
      "et": 397,
      "ction": 398,
      "Ġfor": 399,
      "ser": 400,
      "ri": 401,
      "Ġe": 402,
      "ap": 403,
      "Ġd": 404,
      "ic": 405,
      "Ġand": 406,
      "sk": 407,
      "]]": 408,
      "an": 409,
      "Ġ[[": 410,
      "ĠS": 411,
      "ou": 412,
      "aper": 413,
      "Ġpaper": 414,
      "NT": 415,
      "RE": 416,
      "urn": 417,
      "ro": 418,
      "LO": 419,
      "LOT": 420,
      "SLOT": 421,
      "CON": 422,
      "CONTE": 423,
      "Ġm": 424,
      "ss": 425,
      "CT": 426,
      "ers": 427,
      "lo": 428,
      "Ġo": 429,
      "mp": 430,
      "XT": 431,
      "ai": 432,
      "ing": 433,
      "Ġuser": 434,
      "tive": 435,
      "ext": 436,
      "text": 437,
      "ra": 438,
      "ru": 439,
      "ly": 440,
      "ble": 441,
      "he": 442,
      "Ġis": 443,
      "Ġthis": 444,
      "Ġon": 445,
      "ctive": 446,
      "ck": 447,
      "es": 448,
      "Ġun": 449,
      "ed": 450,
      "vi": 451,
      "Ġto": 452,
      "Ġagent": 453,
      "qu": 454,
      "CTI": 455,
      "Ġpla": 456,
      "ACTI": 457,
      "olic": 458,
      "]],": 459,
      "olicy": 460,
      "ion": 461,
      "Ġcontext": 462,
      "ĠP": 463,
      "old": 464,
      ">=": 465,
      "Ġof": 466,
      "Ġpolicy": 467,
      "Ġor": 468,
      "vai": 469,
      "vaila": 470,
      "vailable": 471,
      "Ġturn": 472,
      "ask": 473,
      "hold": 474,
      "Ġl": 475,
      "Ġplace": 476,
      "AS": 477,
      "holders": 478,
      "Ġplaceholders": 479,
      "ta": 480,
      "arch": 481,
      "ĠT": 482,
      "NA": 483,
      "ME": 484,
      "NAME": 485,
      "Ġno": 486,
      "ĠD": 487,
      "Ġactive": 488,
      "ig": 489,
      "Ġinst": 490,
      "ĠA": 491,
      "search": 492,
      "ĠI": 493,
      "Ġco": 494,
      "ruction": 495,
      "ith": 496,
      "Ret": 497,
      "ĠC": 498,
      "Ġask": 499,
      "Ġab": 500,
      "Ġwith": 501,
      "Ġtext": 502,
      "RES": 503,
      "red": 504,
      "OND": 505,
      "RESP": 506,
      "RESPOND": 507,
      "CONTEXT": 508,
      "cted": 509,
      "Ġinstruction": 510,
      "CONTENT": 511,
      "ation": 512,
      "Ġcont": 513,
      "Ġonly": 514,
      "il": 515,
      "ele": 516,
      "Ġex": 517,
      "ts": 518,
      "Ġresearch": 519,
      "Use": 520,
      "Ġthat": 521,
      "Ġas": 522,
      "elected": 523,
      "Ġwh": 524,
      "tale": 525,
      "am": 526,
      "val": 527,
      "Ġlis": 528,
      "VE": 529,
      "GE": 530,
      "AGE": 531,
      "Agent": 532,
      "ACTIVE": 533,
      "AGENT": 534,
      "est": 535,
      "RC": 536,
      "Ġlisted": 537,
      "SO": 538,
      "RCE": 539,
      "URCE": 540,
      "SOURCE": 541,
      "Ġare": 542,
      "ut": 543,
      "ens": 544,
      "ore": 545,
      "Ġh": 546,
      "TEXT": 547,
      "ave": 548,
      "ata": 549,
      "Ġnot": 550,
      "ay": 551,
      "ASK": 552,
      "ew": 553,
      "Ġsu": 554,
      "ef": 555,
      "nt": 556,
      "TASK": 557,
      "out": 558,
      "act": 559,
      "Ġy": 560,
      "sp": 561,
      "ĠR": 562,
      "cket": 563,
      "Ġcomp": 564,
      "ĠE": 565,
      "ension": 566,
      "Ġby": 567,
      "ary": 568,
      "UE": 569,
      "end": 570,
      "Ġpro": 571,
      "ence": 572,
      "Ġtask": 573,
      "AL": 574,
      "un": 575,
      "if": 576,
      "VAL": 577,
      "VALUE": 578,
      "FI": 579,
      "Ġdata": 580,
      "ocket": 581,
      "ĠJ": 582,
      "Pal": 583,
      "ocketPal": 584,
      "ond": 585,
      "vid": 586,
      "ract": 587,
      "Ġinv": 588,
      "Ġrequ": 589,
      "Ġit": 590,
      "our": 591,
      "Ġla": 592,
      "Ġint": 593,
      "ĠDo": 594,
      "as": 595,
      "aved": 596,
      "mple": 597,
      "ĠPocketPal": 598,
      "Ġaction": 599,
      "efore": 600,
      "Ġbe": 601,
      "rect": 602,
      "mary": 603,
      "Return": 604,
      "ĠU": 605,
      "rent": 606,
      "Ġwhen": 607,
      "LE": 608,
      "RO": 609,
      "PRO": 610,
      "SE": 611,
      "FILE": 612,
      "PROFILE": 613,
      "ill": 614,
      "ample": 615,
      "ĠF": 616,
      "rie": 617,
      "ST": 618,
      "Ġcur": 619,
      "tic": 620,
      "SER": 621,
      "USER": 622,
      "ng": 623,
      "Ġabout": 624,
      "AT": 625,
      "IN": 626,
      "one": 627,
      "Ġg": 628,
      "Ġwe": 629,
      "con": 630,
      "Ġcurrent": 631,
      "TY": 632,
      "ment": 633,
      "Ġslo": 634,
      "Ġresp": 635,
      "Ġexample": 636,
      "The": 637,
      "Ġnam": 638,
      "lass": 639,
      "Ġrequest": 640,
      "agent": 641,
      "ured": 642,
      "rieval": 643,
      "ND": 644,
      "Ġwill": 645,
      "</": 646,
      "PE": 647,
      "Ġ</": 648,
      "CH": 649,
      "ĠM": 650,
      "ate": 651,
      "RU": 652,
      "RED": 653,
      "ACTION": 654,
      "CTU": 655,
      "END": 656,
      "STRU": 657,
      "TYPE": 658,
      "CHAT": 659,
      "CTURED": 660,
      "STRUCTURED": 661,
      "om": 662,
      "extension": 663,
      "AD": 664,
      "de": 665,
      "ist": 666,
      "DE": 667,
      "Ġpri": 668,
      "TEM": 669,
      "SON": 670,
      "less": 671,
      "INE": 672,
      "ĠJSON": 673,
      "LINE": 674,
      "REAS": 675,
      "ADLINE": 676,
      "REASON": 677,
      "ITEM": 678,
      "DEADLINE": 679,
      "ver": 680,
      "ec": 681,
      "ove": 682,
      "ul": 683,
      "Ġcompact": 684,
      "view": 685,
      "Ġcor": 686,
      "lated": 687,
      "ĠUser": 688,
      "Ġthey": 689,
      "Ġ-": 690,
      "Ġan": 691,
      "Ġslots": 692,
      "Ġunless": 693,
      "ir": 694,
      "vidence": 695,
      "Ġsuch": 696,
      "Ġaut": 697,
      "Ġasks": 698,
      "Ġevidence": 699,
      "Ġinvent": 700,
      "Ġselected": 701,
      "ool": 702,
      "Ġcontract": 703,
      "fig": 704,
      "Ġavailable": 705,
      "pp": 706,
      "Ġcontent": 707,
      "Ġyou": 708,
      "Ġname": 709,
      "Ġstale": 710,
      "Ġunre": 711,
      "ad": 712,
      "Ġcorrect": 713,
      "day": 714,
      "ĠSaved": 715,
      "um": 716,
      "]].": 717,
      "Ġprimary": 718,
      "'s": 719,
      "ting": 720,
      "Ġauto": 721,
      "Ġrespond": 722,
      "]:": 723,
      "Action": 724,
      "Tool": 725,
      "Retrieval": 726,
      "before": 727,
      "extensions": 728,
      "ĠStale": 729,
      "config": 730,
      "Ġnone": 731,
      "Ġabove": 732,
      "Ġunrelated": 733,
      "configured": 734,
      "unch": 735,
      "Ġuna": 736,
      "ĠSelected": 737,
      "Ġunavailable": 738,
      "Available": 739,
      "ag": 740,
      "ource": 741,
      "ity": 742,
      "ase": 743,
      "ĠThe": 744,
      "rite": 745,
      "ĠH": 746,
      "Ġ(": 747,
      "th": 748,
      "Ġ1": 749,
      "ance": 750,
      "el": 751,
      "Ġsend": 752,
      "Ġi": 753,
      "Ġreview": 754,
      "ow": 755,
      "Ġlaunch": 756,
      "Ġ=": 757,
      "Ġ\"": 758,
      "Ġst": 759,
      "ĠW": 760,
      "ise": 761,
      "Ġme": 762,
      "fe": 763,
      "ĠB": 764,
      "--": 765,
      "Ġ\\": 766,
      "li": 767,
      "ke": 768,
      "Ġlo": 769,
      "ant": 770,
      "Ġsource": 771,
      "Ġconc": 772,
      "ired": 773,
      "Ġext": 774,
      "ine": 775,
      "Ġ$": 776,
      "requ": 777,
      "ĠL": 778,
      "ect": 779,
      "ran": 780,
      "**": 781,
      "lock": 782,
      "eed": 783,
      "cal": 784,
      "Ġapp": 785,
      "im": 786,
      "ld": 787,
      "igh": 788,
      "Ġde": 789,
      "Ġintent": 790,
      "lassif": 791,
      "Ġ2": 792,
      "Ġal": 793,
      "Ġconcise": 794,
      "ci": 795,
      "rue": 796,
      "per": 797,
      "ssion": 798,
      "âĢ": 799,
      "Ġblock": 800,
      "tem": 801,
      "write": 802,
      "ort": 803,
      "orm": 804,
      "\":": 805,
      "ould": 806,
      "ĠRe": 807,
      "ure": 808,
      "iz": 809,
      "us": 810,
      "ĠTh": 811,
      "os": 812,
      "od": 813,
      "ject": 814,
      "HI": 815,
      "ys": 816,
      "active": 817,
      "id": 818,
      "ail": 819,
      "Ġma": 820,
      "Ġse": 821,
      "rom": 822,
      "fir": 823,
      "ud": 824,
      "required": 825,
      "HINT": 826,
      "low": 827,
      "Ġneed": 828,
      "Ġle": 829,
      "Ġweb": 830,
      "ns": 831,
      "ĠAgent": 832,
      "Ġappro": 833,
      "ical": 834,
      "Ġblocked": 835,
      "Ġinto": 836,
      "ust": 837,
      "ĠO": 838,
      "vers": 839,
      "og": 840,
      "rans": 841,
      "ĠN": 842,
      "tes": 843,
      "true": 844,
      "Ġsh": 845,
      "row": 846,
      "Ġfrom": 847,
      "ice": 848,
      "Ġfin": 849,
      "ses": 850,
      "ĠIn": 851,
      "bject": 852,
      "op": 853,
      "Ġv": 854,
      "Ġdi": 855,
      "Ġch": 856,
      "Ġ#": 857,
      "Ġret": 858,
      "ign": 859,
      "ĠG": 860,
      "Ġhe": 861,
      "fession": 862,
      "fessional": 863,
      "ord": 864,
      "Ġone": 865,
      "enti": 866,
      "ĠCon": 867,
      "lease": 868,
      "led": 869,
      "ks": 870,
      "ge": 871,
      "ight": 872,
      "ĠY": 873,
      "oice": 874,
      "able": 875,
      "mail": 876,
      "Ġup": 877,
      "Ġat": 878,
      "Ġcan": 879,
      "rewrite": 880,
      "ile": 881,
      "res": 882,
      "Ġextension": 883,
      "ula": 884,
      "ter": 885,
      "Ġ'": 886,
      "ac": 887,
      "mor": 888,
      "wer": 889,
      "age": 890,
      "Ġlocal": 891,
      "riday": 892,
      "Ġuse": 893,
      "ot": 894,
      "00": 895,
      "Ġqu": 896,
      "ĠPro": 897,
      "ues": 898,
      "lassify": 899,
      "ĠRew": 900,
      "ssist": 901,
      "ard": 902,
      "Ġconvers": 903,
      "Ġinvoice": 904,
      "nal": 905,
      "Ġdo": 906,
      "ma": 907,
      "mat": 908,
      "ssistant": 909,
      "form": 910,
      "ven": 911,
      "ll": 912,
      "----": 913,
      "du": 914,
      "ransla": 915,
      "rep": 916,
      "ab": 917,
      "tions": 918,
      "inst": 919,
      "ach": 920,
      "Ġen": 921,
      "Ġhave": 922,
      "Ġsp": 923,
      "Ġsaved": 924,
      "list": 925,
      "int": 926,
      "user": 927,
      "Ġbefore": 928,
      "ies": 929,
      "ason": 930,
      "ca": 931,
      "Ġyour": 932,
      "gh": 933,
      "tems": 934,
      "Ġapproval": 935,
      "ff": 936,
      "we": 937,
      "ations": 938,
      "cklist": 939,
      "entic": 940,
      "ĠFin": 941,
      "Ġimp": 942,
      "ative": 943,
      "ack": 944,
      "ĠExt": 945,
      "mm": 946,
      "\",": 947,
      "Ġres": 948,
      "first": 949,
      "ous": 950,
      "lic": 951,
      "olog": 952,
      "di": 953,
      "ning": 954,
      "ĠYou": 955,
      "ĠFriday": 956,
      "teg": 957,
      "Ġdirect": 958,
      "Ġ**": 959,
      "ĠDe": 960,
      "ĠExtract": 961,
      "Ġad": 962,
      "ari": 963,
      "Ġtomor": 964,
      "Ġtomorrow": 965,
      "ruct": 966,
      "Ġdec": 967,
      "Ġ{": 968,
      "ision": 969,
      "Ġinstal": 970,
      "Ġprovid": 971,
      "Ġout": 972,
      "Ġclass": 973,
      "Ġar": 974,
      "ummary": 975,
      "asoning": 976,
      "ual": 977,
      "ound": 978,
      "ue": 979,
      "ĠK": 980,
      "ich": 981,
      "air": 982,
      "lient": 983,
      "Ġdis": 984,
      "ne": 985,
      "ates": 986,
      "cri": 987,
      "pla": 988,
      "Ġfinance": 989,
      "Ġbu": 990,
      "Ġag": 991,
      "las": 992,
      "ron": 993,
      "ĠQ": 994,
      "ha": 995,
      "ip": 996,
      "Ġwas": 997,
      "Ġinc": 998,
      "eth": 999,
      "Ġ3": 1000,
      "ep": 1001,
      "put": 1002,
      "ild": 1003,
      "very": 1004,
      "Ġhow": 1005,
      "Ġemail": 1006,
      "ier": 1007,
      "ork": 1008,
      "hat": 1009,
      "',": 1010,
      "ati": 1011,
      "EL": 1012,
      "Ġcode": 1013,
      "Ġbut": 1014,
      "ize": 1015,
      "Ġdes": 1016,
      "FIEL": 1017,
      "FIELD": 1018,
      "Ġinstalled": 1019,
      "Ġnotes": 1020,
      "Ġmy": 1021,
      "Ġmo": 1022,
      "all": 1023,
      "Ġman": 1024,
      "Ġpo": 1025,
      "Ġj": 1026,
      "tical": 1027,
      "ive": 1028,
      "Ġclient": 1029,
      "Ġx": 1030,
      "Ġprofessional": 1031,
      "light": 1032,
      "Ġdirectly": 1033,
      "Ġpar": 1034,
      "Ġ0": 1035,
      "iti": 1036,
      "Ġte": 1037,
      "lasses": 1038,
      "##": 1039,
      "Ġwhich": 1040,
      "ial": 1041,
      "ility": 1042,
      "erm": 1043,
      ":**": 1044,
      "ery": 1045,
      "Ġexp": 1046,
      "ix": 1047,
      "are": 1048,
      "son": 1049,
      "and": 1050,
      "âĢĻ": 1051,
      "Ġmat": 1052,
      "iter": 1053,
      "Ġrep": 1054,
      "action": 1055,
      "Ġrec": 1056,
      "rac": 1057,
      "unction": 1058,
      "Ġk": 1059,
      "ĠâĢ": 1060,
      "Ġ+": 1061,
      "ĠTest": 1062,
      "Ġmore": 1063,
      "ult": 1064,
      "ome": 1065,
      "acy": 1066,
      "ris": 1067,
      "repair": 1068,
      "get": 1069,
      "Ġfact": 1070,
      "line": 1071,
      "ulle": 1072,
      "Ġdecision": 1073,
      "mo": 1074,
      "su": 1075,
      "ollow": 1076,
      "Ġthere": 1077,
      "me": 1078,
      "ish": 1079,
      "Ġac": 1080,
      "raction": 1081,
      "Ġhas": 1082,
      "Ġstruct": 1083,
      "Flight": 1084,
      "ĠTestFlight": 1085,
      "lassifier": 1086,
      "class": 1087,
      "nswer": 1088,
      "ments": 1089,
      "ĠIf": 1090,
      "ren": 1091,
      "ty": 1092,
      "firm": 1093,
      "Ġ`": 1094,
      "use": 1095,
      "ces": 1096,
      "bel": 1097,
      "ory": 1098,
      "ĠV": 1099,
      "Ġassistant": 1100,
      "Ġsta": 1101,
      "Ġif": 1102,
      "No": 1103,
      "lu": 1104,
      "ption": 1105,
      "Ġall": 1106,
      "reser": 1107,
      "Ġans": 1108,
      "cess": 1109,
      "Ġconversation": 1110,
      "ok": 1111,
      "Ġli": 1112,
      "ĠRec": 1113,
      "Ġso": 1114,
      "ber": 1115,
      "back": 1116,
      "resp": 1117,
      "Ġprovided": 1118,
      "instruction": 1119,
      "Ġbulle": 1120,
      "ry": 1121,
      "wn": 1122,
      "Ġru": 1123,
      "Ġsearch": 1124,
      "Ġche": 1125,
      "respond": 1126,
      "cu": 1127,
      "ysis": 1128,
      "Ġexper": 1129,
      "Ġpa": 1130,
      "chn": 1131,
      "ough": 1132,
      "urs": 1133,
      "ated": 1134,
      "ĠRewrite": 1135,
      "json": 1136,
      "ĠEx": 1137,
      "20": 1138,
      "Ġtra": 1139,
      "Ġretrieval": 1140,
      "ors": 1141,
      "pri": 1142,
      "ree": 1143,
      "gal": 1144,
      "Ġrespon": 1145,
      "ific": 1146,
      "ĠThis": 1147,
      "Ġbuild": 1148,
      "summary": 1149,
      "Ġmake": 1150,
      "Ġreturn": 1151,
      "ĠSt": 1152,
      "riter": 1153,
      "Ġrequired": 1154,
      "Ġval": 1155,
      "Ġrewrite": 1156,
      "pos": 1157,
      "ear": 1158,
      "havi": 1159,
      "ved": 1160,
      "omp": 1161,
      "extraction": 1162,
      "ind": 1163,
      "Ġro": 1164,
      "ther": 1165,
      "ose": 1166,
      "Ġbet": 1167,
      "Ġlabel": 1168,
      "oc": 1169,
      "Ġsec": 1170,
      "ĠHi": 1171,
      "udget": 1172,
      "Ġformat": 1173,
      "Ġconfirm": 1174,
      "tional": 1175,
      "==": 1176,
      "Ġstructured": 1177,
      "ĠProfessional": 1178,
      "Ġgo": 1179,
      "yle": 1180,
      "che": 1181,
      "ĠRecent": 1182,
      "havior": 1183,
      "ystem": 1184,
      "Ġprof": 1185,
      "..": 1186,
      "items": 1187,
      "Ġsign": 1188,
      "Ġdates": 1189,
      "Ġbullets": 1190,
      "Ġcould": 1191,
      "ational": 1192,
      "Ġper": 1193,
      "Ġ4": 1194,
      "Answer": 1195,
      "iven": 1196,
      "ernal": 1197,
      "ame": 1198,
      "Ġtoday": 1199,
      "Ġtheir": 1200,
      "ents": 1201,
      "\",\"": 1202,
      "Ġneeds": 1203,
      "Ġbo": 1204,
      "Ġconver": 1205,
      "Ġresponse": 1206,
      "Ġfunction": 1207,
      "Ġ20": 1208,
      "nder": 1209,
      "fy": 1210,
      "Ġour": 1211,
      "Ġmust": 1212,
      "Ġnames": 1213,
      "mb": 1214,
      "ursday": 1215,
      "ĠDev": 1216,
      "Ġdef": 1217,
      "gin": 1218,
      "entence": 1219,
      "endor": 1220,
      "},": 1221,
      "Ġbehavior": 1222,
      "ĠRewriter": 1223,
      "ves": 1224,
      "Ġ&": 1225,
      "tep": 1226,
      "Ġwork": 1227,
      "ĠAd": 1228,
      "ĠReview": 1229,
      "ĠPreser": 1230,
      "ub": 1231,
      "Ġplease": 1232,
      "Ġques": 1233,
      "urity": 1234,
      "king": 1235,
      "lp": 1236,
      "ĠAnal": 1237,
      "formation": 1238,
      "Ġbudget": 1239,
      "))": 1240,
      "Ġinter": 1241,
      "Ġany": 1242,
      "\":\"": 1243,
      "ĠKe": 1244,
      "ving": 1245,
      "ution": 1246,
      "pro": 1247,
      "les": 1248,
      "Ġnp": 1249,
      "ĠSp": 1250,
      "lin": 1251,
      "cription": 1252,
      "Ġcol": 1253,
      "vacy": 1254,
      "style": 1255,
      "ults": 1256,
      "Ġra": 1257,
      "Ġoutput": 1258,
      "ĠPreserve": 1259,
      "web": 1260,
      "Ġtim": 1261,
      "so": 1262,
      "Ġlike": 1263,
      "sing": 1264,
      "ĠDes": 1265,
      "ite": 1266,
      "Ġpre": 1267,
      "ĠThursday": 1268,
      "Ġexternal": 1269,
      "vel": 1270,
      "no": 1271,
      "Ġgiven": 1272,
      "--------": 1273,
      "Ġbro": 1274,
      "Ġprofile": 1275,
      "oh": 1276,
      "now": 1277,
      "yp": 1278,
      "Ġown": 1279,
      "Ġ5": 1280,
      "ranslate": 1281,
      "ability": 1282,
      "Ġhelp": 1283,
      "tain": 1284,
      "Ġconversion": 1285,
      "here": 1286,
      "ural": 1287,
      "ft": 1288,
      "risks": 1289,
      "Ġfix": 1290,
      "Ġcompati": 1291,
      "Ġwhat": 1292,
      "Ġits": 1293,
      "ranslation": 1294,
      "tin": 1295,
      ").": 1296,
      "ĠKeep": 1297,
      "local": 1298,
      "Ġeach": 1299,
      "Ġconverted": 1300,
      "Ġcompatible": 1301,
      "Ġrecent": 1302,
      "checklist": 1303,
      "Ġshould": 1304,
      "Ġlegal": 1305,
      "Ġextensions": 1306,
      "),": 1307,
      "privacy": 1308,
      "agentic": 1309,
      "PocketPal": 1310,
      "Ġagentic": 1311,
      "Ġnum": 1312,
      "Ġph": 1313,
      "ark": 1314,
      "Ġr": 1315,
      "Ġanswer": 1316,
      "Ġunder": 1317,
      "ĠEm": 1318,
      "subject": 1319,
      "ener": 1320,
      "ollowing": 1321,
      "ition": 1322,
      "Ġline": 1323,
      "yn": 1324,
      "its": 1325,
      "cial": 1326,
      "Ġconfirmation": 1327,
      "}{": 1328,
      "tim": 1329,
      "nter": 1330,
      "Ġfacts": 1331,
      "date": 1332,
      "rateg": 1333,
      "ĠIt": 1334,
      "ley": 1335,
      "arize": 1336,
      "Ġpropos": 1337,
      ".\"": 1338,
      "cy": 1339,
      "ĠEn": 1340,
      "Ġ*": 1341,
      "Ġrelease": 1342,
      "):": 1343,
      "ĠEmail": 1344,
      "ide": 1345,
      "ric": 1346,
      "ĠText": 1347,
      "ĠWe": 1348,
      "Ġquestion": 1349,
      "Ġwell": 1350,
      "ordan": 1351,
      "ential": 1352,
      "ĠAnalysis": 1353,
      "Ġslot": 1354,
      "ating": 1355,
      "Ġexact": 1356,
      "classify": 1357,
      "Ġmor": 1358,
      "ology": 1359,
      "ain": 1360,
      "ays": 1361,
      "Ġid": 1362,
      "Ġam": 1363,
      "Ġdesign": 1364,
      "ics": 1365,
      "Ġwould": 1366,
      "Ġlin": 1367,
      "Ġvendor": 1368,
      "ĠWhat": 1369,
      "Ġcomm": 1370,
      "ohn": 1371,
      "rap": 1372,
      "NS": 1373,
      "Ġproposal": 1374,
      "ethod": 1375,
      "frac": 1376,
      "ong": 1377,
      "Ġreg": 1378,
      "Ġ:": 1379,
      "oun": 1380,
      "Ġmay": 1381,
      "arper": 1382,
      "lake": 1383,
      "ges": 1384,
      "onday": 1385,
      "asey": 1386,
      "Ġinformation": 1387,
      "pt": 1388,
      "ĠReturn": 1389,
      "alth": 1390,
      "load": 1391,
      "Ġstep": 1392,
      "omm": 1393,
      "ular": 1394,
      "Ġshe": 1395,
      "ace": 1396,
      "ank": 1397,
      "ĠFinal": 1398,
      "velo": 1399,
      "Ġsentence": 1400,
      "ote": 1401,
      "Ġimport": 1402,
      "reasoning": 1403,
      "Ġalso": 1404,
      "cause": 1405,
      "art": 1406,
      "des": 1407,
      "Ġbelow": 1408,
      "Ġbecause": 1409,
      "Ġspec": 1410,
      "Ġpr": 1411,
      "Ġclasses": 1412,
      "ia": 1413,
      "Ġbroad": 1414,
      "Ġmorning": 1415,
      "Ġreasoning": 1416,
      "lex": 1417,
      "In": 1418,
      "Ġsti": 1419,
      "ath": 1420,
      "Ġreport": 1421,
      "Ġthese": 1422,
      "$$": 1423,
      "ĠSu": 1424,
      "Ġclassify": 1425,
      "ĠHe": 1426,
      "200": 1427,
      "Ġ$$": 1428,
      "Ġsecurity": 1429,
      "ĠSe": 1430,
      "Ġnew": 1431,
      "lar": 1432,
      "Ġcons": 1433,
      "Ġbeen": 1434,
      "ological": 1435,
      "Ġknow": 1436,
      "ĠMonday": 1437,
      "Ġne": 1438,
      "Ġstud": 1439,
      "fic": 1440,
      "hen": 1441,
      "request": 1442,
      "sh": 1443,
      "ĠLa": 1444,
      "Ġresults": 1445,
      "ms": 1446,
      "duc": 1447,
      "wo": 1448,
      "cip": 1449,
      "Ġsome": 1450,
      "Ġpol": 1451,
      "Ġdif": 1452,
      "True": 1453,
      "feren": 1454,
      "ulti": 1455,
      "Ġthen": 1456,
      "uesday": 1457,
      "Ġplan": 1458,
      "Ġwhere": 1459,
      "ures": 1460,
      "Ġsub": 1461,
      "Ġexpert": 1462,
      "ization": 1463,
      "Ġtime": 1464,
      "raph": 1465,
      "Ġ|": 1466,
      "velop": 1467,
      "Ġupdate": 1468,
      "ression": 1469,
      "nes": 1470,
      "ĠClassify": 1471,
      "ĠHow": 1472,
      "ful": 1473,
      "Ġop": 1474,
      "ĠJordan": 1475,
      "__": 1476,
      "lev": 1477,
      "hed": 1478,
      "ering": 1479,
      "Ġsupp": 1480,
      "ex": 1481,
      "Ġstill": 1482,
      "Ġsch": 1483,
      "Ġdeck": 1484,
      "Ġed": 1485,
      "rib": 1486,
      "lot": 1487,
      "ĠTuesday": 1488,
      "ĠClasses": 1489,
      "Ġclassifier": 1490,
      "ĠClassifier": 1491,
      "ode": 1492,
      "Ġonline": 1493,
      "ĠDescription": 1494,
      "Ġover": 1495,
      "Text": 1496,
      "itable": 1497,
      "til": 1498,
      "ced": 1499,
      "Ġequ": 1500,
      "ĠEng": 1501,
      "ION": 1502,
      "Ġupload": 1503,
      "eedback": 1504,
      "Ġword": 1505
    },
    "merges": [
      [
        "Ġ",
        "t"
      ],
      [
        "Ġ",
        "a"
      ],
      [
        "o",
        "n"
      ],
      [
        "r",
        "e"
      ],
      [
        "e",
        "r"
      ],
      [
        "e",
        "n"
      ],
      [
        "Ġt",
        "h"
      ],
      [
        "A",
        "K"
      ],
      [
        "t",
        "i"
      ],
      [
        "i",
        "n"
      ],
      [
        "Ġ",
        "p"
      ],
      [
        "Ġ",
        "c"
      ],
      [
        "o",
        "r"
      ],
      [
        "Ġth",
        "e"
      ],
      [
        "t",
        "e"
      ],
      [
        "l",
        "e"
      ],
      [
        "i",
        "s"
      ],
      [
        "Ġ",
        "s"
      ],
      [
        "en",
        "t"
      ],
      [
        "l",
        "a"
      ],
      [
        "Ġ",
        "<"
      ],
      [
        "a",
        "l"
      ],
      [
        "O",
        "N"
      ],
      [
        "ti",
        "on"
      ],
      [
        "Ġ",
        "f"
      ],
      [
        "o",
        "l"
      ],
      [
        "x",
        "t"
      ],
      [
        "u",
        "r"
      ],
      [
        "v",
        "e"
      ],
      [
        "Ġ",
        "u"
      ],
      [
        "Ġ",
        "re"
      ],
      [
        "Ġ",
        "in"
      ],
      [
        "c",
        "e"
      ],
      [
        "Ġ",
        "w"
      ],
      [
        "s",
        "e"
      ],
      [
        "T",
        "E"
      ],
      [
        "a",
        "r"
      ],
      [
        "Ġc",
        "on"
      ],
      [
        "s",
        "t"
      ],
      [
        "g",
        "ent"
      ],
      [
        "n",
        "d"
      ],
      [
        "c",
        "h"
      ],
      [
        "Ġ",
        "n"
      ],
      [
        "Ġ",
        "["
      ],
      [
        "Ġ",
        "b"
      ],
      [
        "i",
        "t"
      ],
      [
        "c",
        "t"
      ],
      [
        "te",
        "d"
      ],
      [
        "a",
        "t"
      ],
      [
        "e",
        "t"
      ],
      [
        "c",
        "tion"
      ],
      [
        "Ġf",
        "or"
      ],
      [
        "s",
        "er"
      ],
      [
        "r",
        "i"
      ],
      [
        "Ġ",
        "e"
      ],
      [
        "a",
        "p"
      ],
      [
        "Ġ",
        "d"
      ],
      [
        "i",
        "c"
      ],
      [
        "Ġa",
        "nd"
      ],
      [
        "s",
        "k"
      ],
      [
        "]",
        "]"
      ],
      [
        "a",
        "n"
      ],
      [
        "Ġ[",
        "["
      ],
      [
        "Ġ",
        "S"
      ],
      [
        "o",
        "u"
      ],
      [
        "ap",
        "er"
      ],
      [
        "Ġp",
        "aper"
      ],
      [
        "N",
        "T"
      ],
      [
        "R",
        "E"
      ],
      [
        "ur",
        "n"
      ],
      [
        "r",
        "o"
      ],
      [
        "L",
        "O"
      ],
      [
        "LO",
        "T"
      ],
      [
        "S",
        "LOT"
      ],
      [
        "C",
        "ON"
      ],
      [
        "CON",
        "TE"
      ],
      [
        "Ġ",
        "m"
      ],
      [
        "s",
        "s"
      ],
      [
        "C",
        "T"
      ],
      [
        "er",
        "s"
      ],
      [
        "l",
        "o"
      ],
      [
        "Ġ",
        "o"
      ],
      [
        "m",
        "p"
      ],
      [
        "X",
        "T"
      ],
      [
        "a",
        "i"
      ],
      [
        "in",
        "g"
      ],
      [
        "Ġu",
        "ser"
      ],
      [
        "ti",
        "ve"
      ],
      [
        "e",
        "xt"
      ],
      [
        "te",
        "xt"
      ],
      [
        "r",
        "a"
      ],
      [
        "r",
        "u"
      ],
      [
        "l",
        "y"
      ],
      [
        "b",
        "le"
      ],
      [
        "h",
        "e"
      ],
      [
        "Ġ",
        "is"
      ],
      [
        "Ġth",
        "is"
      ],
      [
        "Ġ",
        "on"
      ],
      [
        "c",
        "tive"
      ],
      [
        "c",
        "k"
      ],
      [
        "e",
        "s"
      ],
      [
        "Ġu",
        "n"
      ],
      [
        "e",
        "d"
      ],
      [
        "v",
        "i"
      ],
      [
        "Ġt",
        "o"
      ],
      [
        "Ġa",
        "gent"
      ],
      [
        "q",
        "u"
      ],
      [
        "CT",
        "I"
      ],
      [
        "Ġp",
        "la"
      ],
      [
        "A",
        "CTI"
      ],
      [
        "ol",
        "ic"
      ],
      [
        "]]",
        ","
      ],
      [
        "olic",
        "y"
      ],
      [
        "i",
        "on"
      ],
      [
        "Ġcon",
        "text"
      ],
      [
        "Ġ",
        "P"
      ],
      [
        "ol",
        "d"
      ],
      [
        ">",
        "="
      ],
      [
        "Ġo",
        "f"
      ],
      [
        "Ġp",
        "olicy"
      ],
      [
        "Ġ",
        "or"
      ],
      [
        "v",
        "ai"
      ],
      [
        "vai",
        "la"
      ],
      [
        "vaila",
        "ble"
      ],
      [
        "Ġt",
        "urn"
      ],
      [
        "a",
        "sk"
      ],
      [
        "h",
        "old"
      ],
      [
        "Ġ",
        "l"
      ],
      [
        "Ġpla",
        "ce"
      ],
      [
        "A",
        "S"
      ],
      [
        "hold",
        "ers"
      ],
      [
        "Ġplace",
        "holders"
      ],
      [
        "t",
        "a"
      ],
      [
        "ar",
        "ch"
      ],
      [
        "Ġ",
        "T"
      ],
      [
        "N",
        "A"
      ],
      [
        "M",
        "E"
      ],
      [
        "NA",
        "ME"
      ],
      [
        "Ġn",
        "o"
      ],
      [
        "Ġ",
        "D"
      ],
      [
        "Ġa",
        "ctive"
      ],
      [
        "i",
        "g"
      ],
      [
        "Ġin",
        "st"
      ],
      [
        "Ġ",
        "A"
      ],
      [
        "se",
        "arch"
      ],
      [
        "Ġ",
        "I"
      ],
      [
        "Ġc",
        "o"
      ],
      [
        "ru",
        "ction"
      ],
      [
        "it",
        "h"
      ],
      [
        "R",
        "et"
      ],
      [
        "Ġ",
        "C"
      ],
      [
        "Ġa",
        "sk"
      ],
      [
        "Ġa",
        "b"
      ],
      [
        "Ġw",
        "ith"
      ],
      [
        "Ġt",
        "ext"
      ],
      [
        "RE",
        "S"
      ],
      [
        "re",
        "d"
      ],
      [
        "ON",
        "D"
      ],
      [
        "RES",
        "P"
      ],
      [
        "RESP",
        "OND"
      ],
      [
        "CONTE",
        "XT"
      ],
      [
        "c",
        "ted"
      ],
      [
        "Ġinst",
        "ruction"
      ],
      [
        "CONTE",
        "NT"
      ],
      [
        "a",
        "tion"
      ],
      [
        "Ġcon",
        "t"
      ],
      [
        "Ġon",
        "ly"
      ],
      [
        "i",
        "l"
      ],
      [
        "e",
        "le"
      ],
      [
        "Ġe",
        "x"
      ],
      [
        "t",
        "s"
      ],
      [
        "Ġre",
        "search"
      ],
      [
        "U",
        "se"
      ],
      [
        "Ġth",
        "at"
      ],
      [
        "Ġa",
        "s"
      ],
      [
        "ele",
        "cted"
      ],
      [
        "Ġw",
        "h"
      ],
      [
        "ta",
        "le"
      ],
      [
        "a",
        "m"
      ],
      [
        "v",
        "al"
      ],
      [
        "Ġl",
        "is"
      ],
      [
        "V",
        "E"
      ],
      [
        "G",
        "E"
      ],
      [
        "A",
        "GE"
      ],
      [
        "A",
        "gent"
      ],
      [
        "ACTI",
        "VE"
      ],
      [
        "AGE",
        "NT"
      ],
      [
        "e",
        "st"
      ],
      [
        "R",
        "C"
      ],
      [
        "Ġlis",
        "ted"
      ],
      [
        "S",
        "O"
      ],
      [
        "RC",
        "E"
      ],
      [
        "U",
        "RCE"
      ],
      [
        "SO",
        "URCE"
      ],
      [
        "Ġa",
        "re"
      ],
      [
        "u",
        "t"
      ],
      [
        "en",
        "s"
      ],
      [
        "o",
        "re"
      ],
      [
        "Ġ",
        "h"
      ],
      [
        "TE",
        "XT"
      ],
      [
        "a",
        "ve"
      ],
      [
        "at",
        "a"
      ],
      [
        "Ġno",
        "t"
      ],
      [
        "a",
        "y"
      ],
      [
        "AS",
        "K"
      ],
      [
        "e",
        "w"
      ],
      [
        "Ġs",
        "u"
      ],
      [
        "e",
        "f"
      ],
      [
        "n",
        "t"
      ],
      [
        "T",
        "ASK"
      ],
      [
        "ou",
        "t"
      ],
      [
        "a",
        "ct"
      ],
      [
        "Ġ",
        "y"
      ],
      [
        "s",
        "p"
      ],
      [
        "Ġ",
        "R"
      ],
      [
        "ck",
        "et"
      ],
      [
        "Ġco",
        "mp"
      ],
      [
        "Ġ",
        "E"
      ],
      [
        "ens",
        "ion"
      ],
      [
        "Ġb",
        "y"
      ],
      [
        "ar",
        "y"
      ],
      [
        "U",
        "E"
      ],
      [
        "en",
        "d"
      ],
      [
        "Ġp",
        "ro"
      ],
      [
        "en",
        "ce"
      ],
      [
        "Ġt",
        "ask"
      ],
      [
        "A",
        "L"
      ],
      [
        "u",
        "n"
      ],
      [
        "i",
        "f"
      ],
      [
        "V",
        "AL"
      ],
      [
        "VAL",
        "UE"
      ],
      [
        "F",
        "I"
      ],
      [
        "Ġd",
        "ata"
      ],
      [
        "o",
        "cket"
      ],
      [
        "Ġ",
        "J"
      ],
      [
        "P",
        "al"
      ],
      [
        "ocket",
        "Pal"
      ],
      [
        "on",
        "d"
      ],
      [
        "vi",
        "d"
      ],
      [
        "ra",
        "ct"
      ],
      [
        "Ġin",
        "v"
      ],
      [
        "Ġre",
        "qu"
      ],
      [
        "Ġ",
        "it"
      ],
      [
        "o",
        "ur"
      ],
      [
        "Ġ",
        "la"
      ],
      [
        "Ġin",
        "t"
      ],
      [
        "ĠD",
        "o"
      ],
      [
        "a",
        "s"
      ],
      [
        "ave",
        "d"
      ],
      [
        "mp",
        "le"
      ],
      [
        "ĠP",
        "ocketPal"
      ],
      [
        "Ġa",
        "ction"
      ],
      [
        "ef",
        "ore"
      ],
      [
        "Ġb",
        "e"
      ],
      [
        "re",
        "ct"
      ],
      [
        "m",
        "ary"
      ],
      [
        "Ret",
        "urn"
      ],
      [
        "Ġ",
        "U"
      ],
      [
        "re",
        "nt"
      ],
      [
        "Ġwh",
        "en"
      ],
      [
        "L",
        "E"
      ],
      [
        "R",
        "O"
      ],
      [
        "P",
        "RO"
      ],
      [
        "S",
        "E"
      ],
      [
        "FI",
        "LE"
      ],
      [
        "PRO",
        "FILE"
      ],
      [
        "il",
        "l"
      ],
      [
        "a",
        "mple"
      ],
      [
        "Ġ",
        "F"
      ],
      [
        "ri",
        "e"
      ],
      [
        "S",
        "T"
      ],
      [
        "Ġc",
        "ur"
      ],
      [
        "ti",
        "c"
      ],
      [
        "SE",
        "R"
      ],
      [
        "U",
        "SER"
      ],
      [
        "n",
        "g"
      ],
      [
        "Ġab",
        "out"
      ],
      [
        "A",
        "T"
      ],
      [
        "I",
        "N"
      ],
      [
        "on",
        "e"
      ],
      [
        "Ġ",
        "g"
      ],
      [
        "Ġw",
        "e"
      ],
      [
        "c",
        "on"
      ],
      [
        "Ġcur",
        "rent"
      ],
      [
        "T",
        "Y"
      ],
      [
        "m",
        "ent"
      ],
      [
        "Ġs",
        "lo"
      ],
      [
        "Ġre",
        "sp"
      ],
      [
        "Ġex",
        "ample"
      ],
      [
        "T",
        "he"
      ],
      [
        "Ġn",
        "am"
      ],
      [
        "la",
        "ss"
      ],
      [
        "Ġrequ",
        "est"
      ],
      [
        "a",
        "gent"
      ],
      [
        "u",
        "red"
      ],
      [
        "rie",
        "val"
      ],
      [
        "N",
        "D"
      ],
      [
        "Ġw",
        "ill"
      ],
      [
        "<",
        "/"
      ],
      [
        "P",
        "E"
      ],
      [
        "Ġ<",
        "/"
      ],
      [
        "C",
        "H"
      ],
      [
        "Ġ",
        "M"
      ],
      [
        "a",
        "te"
      ],
      [
        "R",
        "U"
      ],
      [
        "RE",
        "D"
      ],
      [
        "ACTI",
        "ON"
      ],
      [
        "CT",
        "U"
      ],
      [
        "E",
        "ND"
      ],
      [
        "ST",
        "RU"
      ],
      [
        "TY",
        "PE"
      ],
      [
        "CH",
        "AT"
      ],
      [
        "CTU",
        "RED"
      ],
      [
        "STRU",
        "CTURED"
      ],
      [
        "o",
        "m"
      ],
      [
        "ext",
        "ension"
      ],
      [
        "A",
        "D"
      ],
      [
        "d",
        "e"
      ],
      [
        "is",
        "t"
      ],
      [
        "D",
        "E"
      ],
      [
        "Ġp",
        "ri"
      ],
      [
        "TE",
        "M"
      ],
      [
        "S",
        "ON"
      ],
      [
        "le",
        "ss"
      ],
      [
        "IN",
        "E"
      ],
      [
        "ĠJ",
        "SON"
      ],
      [
        "L",
        "INE"
      ],
      [
        "RE",
        "AS"
      ],
      [
        "AD",
        "LINE"
      ],
      [
        "REAS",
        "ON"
      ],
      [
        "I",
        "TEM"
      ],
      [
        "DE",
        "ADLINE"
      ],
      [
        "v",
        "er"
      ],
      [
        "e",
        "c"
      ],
      [
        "o",
        "ve"
      ],
      [
        "u",
        "l"
      ],
      [
        "Ġcomp",
        "act"
      ],
      [
        "vi",
        "ew"
      ],
      [
        "Ġc",
        "or"
      ],
      [
        "la",
        "ted"
      ],
      [
        "ĠU",
        "ser"
      ],
      [
        "Ġthe",
        "y"
      ],
      [
        "Ġ",
        "-"
      ],
      [
        "Ġa",
        "n"
      ],
      [
        "Ġslo",
        "ts"
      ],
      [
        "Ġun",
        "less"
      ],
      [
        "i",
        "r"
      ],
      [
        "vid",
        "ence"
      ],
      [
        "Ġsu",
        "ch"
      ],
      [
        "Ġa",
        "ut"
      ],
      [
        "Ġask",
        "s"
      ],
      [
        "Ġe",
        "vidence"
      ],
      [
        "Ġinv",
        "ent"
      ],
      [
        "Ġs",
        "elected"
      ],
      [
        "o",
        "ol"
      ],
      [
        "Ġcont",
        "ract"
      ],
      [
        "f",
        "ig"
      ],
      [
        "Ġa",
        "vailable"
      ],
      [
        "p",
        "p"
      ],
      [
        "Ġcont",
        "ent"
      ],
      [
        "Ġy",
        "ou"
      ],
      [
        "Ġnam",
        "e"
      ],
      [
        "Ġs",
        "tale"
      ],
      [
        "Ġun",
        "re"
      ],
      [
        "a",
        "d"
      ],
      [
        "Ġcor",
        "rect"
      ],
      [
        "d",
        "ay"
      ],
      [
        "ĠS",
        "aved"
      ],
      [
        "u",
        "m"
      ],
      [
        "]]",
        "."
      ],
      [
        "Ġpri",
        "mary"
      ],
      [
        "'",
        "s"
      ],
      [
        "ti",
        "ng"
      ],
      [
        "Ġaut",
        "o"
      ],
      [
        "Ġresp",
        "ond"
      ],
      [
        "]",
        ":"
      ],
      [
        "A",
        "ction"
      ],
      [
        "T",
        "ool"
      ],
      [
        "Ret",
        "rieval"
      ],
      [
        "b",
        "efore"
      ],
      [
        "extension",
        "s"
      ],
      [
        "ĠS",
        "tale"
      ],
      [
        "con",
        "fig"
      ],
      [
        "Ġn",
        "one"
      ],
      [
        "Ġab",
        "ove"
      ],
      [
        "Ġunre",
        "lated"
      ],
      [
        "config",
        "ured"
      ],
      [
        "un",
        "ch"
      ],
      [
        "Ġun",
        "a"
      ],
      [
        "ĠS",
        "elected"
      ],
      [
        "Ġuna",
        "vailable"
      ],
      [
        "A",
        "vailable"
      ],
      [
        "a",
        "g"
      ],
      [
        "our",
        "ce"
      ],
      [
        "it",
        "y"
      ],
      [
        "a",
        "se"
      ],
      [
        "ĠT",
        "he"
      ],
      [
        "ri",
        "te"
      ],
      [
        "Ġ",
        "H"
      ],
      [
        "Ġ",
        "("
      ],
      [
        "t",
        "h"
      ],
      [
        "Ġ",
        "1"
      ],
      [
        "an",
        "ce"
      ],
      [
        "e",
        "l"
      ],
      [
        "Ġs",
        "end"
      ],
      [
        "Ġ",
        "i"
      ],
      [
        "Ġre",
        "view"
      ],
      [
        "o",
        "w"
      ],
      [
        "Ġla",
        "unch"
      ],
      [
        "Ġ",
        "="
      ],
      [
        "Ġ",
        "\""
      ],
      [
        "Ġs",
        "t"
      ],
      [
        "Ġ",
        "W"
      ],
      [
        "is",
        "e"
      ],
      [
        "Ġm",
        "e"
      ],
      [
        "f",
        "e"
      ],
      [
        "Ġ",
        "B"
      ],
      [
        "-",
        "-"
      ],
      [
        "Ġ",
        "\\"
      ],
      [
        "l",
        "i"
      ],
      [
        "k",
        "e"
      ],
      [
        "Ġ",
        "lo"
      ],
      [
        "an",
        "t"
      ],
      [
        "Ġs",
        "ource"
      ],
      [
        "Ġcon",
        "c"
      ],
      [
        "i",
        "red"
      ],
      [
        "Ġe",
        "xt"
      ],
      [
        "in",
        "e"
      ],
      [
        "Ġ",
        "$"
      ],
      [
        "re",
        "qu"
      ],
      [
        "Ġ",
        "L"
      ],
      [
        "e",
        "ct"
      ],
      [
        "r",
        "an"
      ],
      [
        "*",
        "*"
      ],
      [
        "lo",
        "ck"
      ],
      [
        "e",
        "ed"
      ],
      [
        "c",
        "al"
      ],
      [
        "Ġa",
        "pp"
      ],
      [
        "i",
        "m"
      ],
      [
        "l",
        "d"
      ],
      [
        "ig",
        "h"
      ],
      [
        "Ġd",
        "e"
      ],
      [
        "Ġint",
        "ent"
      ],
      [
        "lass",
        "if"
      ],
      [
        "Ġ",
        "2"
      ],
      [
        "Ġa",
        "l"
      ],
      [
        "Ġconc",
        "ise"
      ],
      [
        "c",
        "i"
      ],
      [
        "ru",
        "e"
      ],
      [
        "p",
        "er"
      ],
      [
        "ss",
        "ion"
      ],
      [
        "â",
        "Ģ"
      ],
      [
        "Ġb",
        "lock"
      ],
      [
        "te",
        "m"
      ],
      [
        "w",
        "rite"
      ],
      [
        "or",
        "t"
      ],
      [
        "or",
        "m"
      ],
      [
        "\"",
        ":"
      ],
      [
        "ou",
        "ld"
      ],
      [
        "ĠR",
        "e"
      ],
      [
        "u",
        "re"
      ],
      [
        "i",
        "z"
      ],
      [
        "u",
        "s"
      ],
      [
        "ĠT",
        "h"
      ],
      [
        "o",
        "s"
      ],
      [
        "o",
        "d"
      ],
      [
        "j",
        "ect"
      ],
      [
        "H",
        "I"
      ],
      [
        "y",
        "s"
      ],
      [
        "a",
        "ctive"
      ],
      [
        "i",
        "d"
      ],
      [
        "ai",
        "l"
      ],
      [
        "Ġm",
        "a"
      ],
      [
        "Ġs",
        "e"
      ],
      [
        "ro",
        "m"
      ],
      [
        "f",
        "ir"
      ],
      [
        "u",
        "d"
      ],
      [
        "requ",
        "ired"
      ],
      [
        "HI",
        "NT"
      ],
      [
        "lo",
        "w"
      ],
      [
        "Ġn",
        "eed"
      ],
      [
        "Ġ",
        "le"
      ],
      [
        "Ġwe",
        "b"
      ],
      [
        "n",
        "s"
      ],
      [
        "ĠA",
        "gent"
      ],
      [
        "Ġapp",
        "ro"
      ],
      [
        "ic",
        "al"
      ],
      [
        "Ġblock",
        "ed"
      ],
      [
        "Ġint",
        "o"
      ],
      [
        "u",
        "st"
      ],
      [
        "Ġ",
        "O"
      ],
      [
        "v",
        "ers"
      ],
      [
        "o",
        "g"
      ],
      [
        "ran",
        "s"
      ],
      [
        "Ġ",
        "N"
      ],
      [
        "te",
        "s"
      ],
      [
        "t",
        "rue"
      ],
      [
        "Ġs",
        "h"
      ],
      [
        "ro",
        "w"
      ],
      [
        "Ġf",
        "rom"
      ],
      [
        "i",
        "ce"
      ],
      [
        "Ġf",
        "in"
      ],
      [
        "se",
        "s"
      ],
      [
        "ĠI",
        "n"
      ],
      [
        "b",
        "ject"
      ],
      [
        "o",
        "p"
      ],
      [
        "Ġ",
        "v"
      ],
      [
        "Ġd",
        "i"
      ],
      [
        "Ġc",
        "h"
      ],
      [
        "Ġ",
        "#"
      ],
      [
        "Ġre",
        "t"
      ],
      [
        "ig",
        "n"
      ],
      [
        "Ġ",
        "G"
      ],
      [
        "Ġ",
        "he"
      ],
      [
        "fe",
        "ssion"
      ],
      [
        "fession",
        "al"
      ],
      [
        "or",
        "d"
      ],
      [
        "Ġon",
        "e"
      ],
      [
        "en",
        "ti"
      ],
      [
        "ĠC",
        "on"
      ],
      [
        "le",
        "ase"
      ],
      [
        "le",
        "d"
      ],
      [
        "k",
        "s"
      ],
      [
        "g",
        "e"
      ],
      [
        "igh",
        "t"
      ],
      [
        "Ġ",
        "Y"
      ],
      [
        "o",
        "ice"
      ],
      [
        "a",
        "ble"
      ],
      [
        "m",
        "ail"
      ],
      [
        "Ġu",
        "p"
      ],
      [
        "Ġa",
        "t"
      ],
      [
        "Ġc",
        "an"
      ],
      [
        "re",
        "write"
      ],
      [
        "i",
        "le"
      ],
      [
        "re",
        "s"
      ],
      [
        "Ġext",
        "ension"
      ],
      [
        "u",
        "la"
      ],
      [
        "t",
        "er"
      ],
      [
        "Ġ",
        "'"
      ],
      [
        "a",
        "c"
      ],
      [
        "m",
        "or"
      ],
      [
        "w",
        "er"
      ],
      [
        "ag",
        "e"
      ],
      [
        "Ġlo",
        "cal"
      ],
      [
        "ri",
        "day"
      ],
      [
        "Ġu",
        "se"
      ],
      [
        "o",
        "t"
      ],
      [
        "0",
        "0"
      ],
      [
        "Ġ",
        "qu"
      ],
      [
        "ĠP",
        "ro"
      ],
      [
        "u",
        "es"
      ],
      [
        "lassif",
        "y"
      ],
      [
        "ĠR",
        "ew"
      ],
      [
        "ss",
        "ist"
      ],
      [
        "ar",
        "d"
      ],
      [
        "Ġcon",
        "vers"
      ],
      [
        "Ġinv",
        "oice"
      ],
      [
        "n",
        "al"
      ],
      [
        "Ġd",
        "o"
      ],
      [
        "m",
        "a"
      ],
      [
        "m",
        "at"
      ],
      [
        "ssist",
        "ant"
      ],
      [
        "f",
        "orm"
      ],
      [
        "v",
        "en"
      ],
      [
        "l",
        "l"
      ],
      [
        "--",
        "--"
      ],
      [
        "d",
        "u"
      ],
      [
        "rans",
        "la"
      ],
      [
        "re",
        "p"
      ],
      [
        "a",
        "b"
      ],
      [
        "tion",
        "s"
      ],
      [
        "in",
        "st"
      ],
      [
        "a",
        "ch"
      ],
      [
        "Ġ",
        "en"
      ],
      [
        "Ġh",
        "ave"
      ],
      [
        "Ġs",
        "p"
      ],
      [
        "Ġs",
        "aved"
      ],
      [
        "l",
        "ist"
      ],
      [
        "in",
        "t"
      ],
      [
        "u",
        "ser"
      ],
      [
        "Ġb",
        "efore"
      ],
      [
        "i",
        "es"
      ],
      [
        "as",
        "on"
      ],
      [
        "c",
        "a"
      ],
      [
        "Ġy",
        "our"
      ],
      [
        "g",
        "h"
      ],
      [
        "tem",
        "s"
      ],
      [
        "Ġappro",
        "val"
      ],
      [
        "f",
        "f"
      ],
      [
        "w",
        "e"
      ],
      [
        "ation",
        "s"
      ],
      [
        "ck",
        "list"
      ],
      [
        "en",
        "tic"
      ],
      [
        "ĠF",
        "in"
      ],
      [
        "Ġi",
        "mp"
      ],
      [
        "a",
        "tive"
      ],
      [
        "a",
        "ck"
      ],
      [
        "ĠE",
        "xt"
      ],
      [
        "m",
        "m"
      ],
      [
        "\"",
        ","
      ],
      [
        "Ġre",
        "s"
      ],
      [
        "fir",
        "st"
      ],
      [
        "ou",
        "s"
      ],
      [
        "l",
        "ic"
      ],
      [
        "ol",
        "og"
      ],
      [
        "d",
        "i"
      ],
      [
        "n",
        "ing"
      ],
      [
        "ĠY",
        "ou"
      ],
      [
        "ĠF",
        "riday"
      ],
      [
        "te",
        "g"
      ],
      [
        "Ġdi",
        "rect"
      ],
      [
        "Ġ",
        "**"
      ],
      [
        "ĠD",
        "e"
      ],
      [
        "ĠExt",
        "ract"
      ],
      [
        "Ġa",
        "d"
      ],
      [
        "ar",
        "i"
      ],
      [
        "Ġto",
        "mor"
      ],
      [
        "Ġtomor",
        "row"
      ],
      [
        "ru",
        "ct"
      ],
      [
        "Ġd",
        "ec"
      ],
      [
        "Ġ",
        "{"
      ],
      [
        "is",
        "ion"
      ],
      [
        "Ġinst",
        "al"
      ],
      [
        "Ġpro",
        "vid"
      ],
      [
        "Ġ",
        "out"
      ],
      [
        "Ġc",
        "lass"
      ],
      [
        "Ġa",
        "r"
      ],
      [
        "um",
        "mary"
      ],
      [
        "ason",
        "ing"
      ],
      [
        "u",
        "al"
      ],
      [
        "ou",
        "nd"
      ],
      [
        "u",
        "e"
      ],
      [
        "Ġ",
        "K"
      ],
      [
        "i",
        "ch"
      ],
      [
        "ai",
        "r"
      ],
      [
        "li",
        "ent"
      ],
      [
        "Ġd",
        "is"
      ],
      [
        "n",
        "e"
      ],
      [
        "ate",
        "s"
      ],
      [
        "c",
        "ri"
      ],
      [
        "p",
        "la"
      ],
      [
        "Ġfin",
        "ance"
      ],
      [
        "Ġb",
        "u"
      ],
      [
        "Ġa",
        "g"
      ],
      [
        "la",
        "s"
      ],
      [
        "r",
        "on"
      ],
      [
        "Ġ",
        "Q"
      ],
      [
        "h",
        "a"
      ],
      [
        "i",
        "p"
      ],
      [
        "Ġw",
        "as"
      ],
      [
        "Ġin",
        "c"
      ],
      [
        "et",
        "h"
      ],
      [
        "Ġ",
        "3"
      ],
      [
        "e",
        "p"
      ],
      [
        "p",
        "ut"
      ],
      [
        "il",
        "d"
      ],
      [
        "ver",
        "y"
      ],
      [
        "Ġh",
        "ow"
      ],
      [
        "Ġe",
        "mail"
      ],
      [
        "i",
        "er"
      ],
      [
        "or",
        "k"
      ],
      [
        "h",
        "at"
      ],
      [
        "'",
        ","
      ],
      [
        "a",
        "ti"
      ],
      [
        "E",
        "L"
      ],
      [
        "Ġco",
        "de"
      ],
      [
        "Ġb",
        "ut"
      ],
      [
        "iz",
        "e"
      ],
      [
        "Ġd",
        "es"
      ],
      [
        "FI",
        "EL"
      ],
      [
        "FIEL",
        "D"
      ],
      [
        "Ġinstal",
        "led"
      ],
      [
        "Ġno",
        "tes"
      ],
      [
        "Ġm",
        "y"
      ],
      [
        "Ġm",
        "o"
      ],
      [
        "al",
        "l"
      ],
      [
        "Ġm",
        "an"
      ],
      [
        "Ġp",
        "o"
      ],
      [
        "Ġ",
        "j"
      ],
      [
        "tic",
        "al"
      ],
      [
        "i",
        "ve"
      ],
      [
        "Ġc",
        "lient"
      ],
      [
        "Ġ",
        "x"
      ],
      [
        "Ġpro",
        "fessional"
      ],
      [
        "l",
        "ight"
      ],
      [
        "Ġdirect",
        "ly"
      ],
      [
        "Ġp",
        "ar"
      ],
      [
        "Ġ",
        "0"
      ],
      [
        "i",
        "ti"
      ],
      [
        "Ġt",
        "e"
      ],
      [
        "las",
        "ses"
      ],
      [
        "#",
        "#"
      ],
      [
        "Ġwh",
        "ich"
      ],
      [
        "i",
        "al"
      ],
      [
        "il",
        "ity"
      ],
      [
        "er",
        "m"
      ],
      [
        ":",
        "**"
      ],
      [
        "er",
        "y"
      ],
      [
        "Ġex",
        "p"
      ],
      [
        "i",
        "x"
      ],
      [
        "a",
        "re"
      ],
      [
        "s",
        "on"
      ],
      [
        "a",
        "nd"
      ],
      [
        "âĢ",
        "Ļ"
      ],
      [
        "Ġm",
        "at"
      ],
      [
        "it",
        "er"
      ],
      [
        "Ġre",
        "p"
      ],
      [
        "a",
        "ction"
      ],
      [
        "Ġre",
        "c"
      ],
      [
        "ra",
        "c"
      ],
      [
        "un",
        "ction"
      ],
      [
        "Ġ",
        "k"
      ],
      [
        "Ġ",
        "âĢ"
      ],
      [
        "Ġ",
        "+"
      ],
      [
        "ĠT",
        "est"
      ],
      [
        "Ġm",
        "ore"
      ],
      [
        "ul",
        "t"
      ],
      [
        "om",
        "e"
      ],
      [
        "ac",
        "y"
      ],
      [
        "r",
        "is"
      ],
      [
        "rep",
        "air"
      ],
      [
        "g",
        "et"
      ],
      [
        "Ġf",
        "act"
      ],
      [
        "l",
        "ine"
      ],
      [
        "ul",
        "le"
      ],
      [
        "Ġdec",
        "ision"
      ],
      [
        "m",
        "o"
      ],
      [
        "s",
        "u"
      ],
      [
        "ol",
        "low"
      ],
      [
        "Ġthe",
        "re"
      ],
      [
        "m",
        "e"
      ],
      [
        "is",
        "h"
      ],
      [
        "Ġa",
        "c"
      ],
      [
        "ra",
        "ction"
      ],
      [
        "Ġh",
        "as"
      ],
      [
        "Ġst",
        "ruct"
      ],
      [
        "F",
        "light"
      ],
      [
        "ĠTest",
        "Flight"
      ],
      [
        "lassif",
        "ier"
      ],
      [
        "c",
        "lass"
      ],
      [
        "ns",
        "wer"
      ],
      [
        "ment",
        "s"
      ],
      [
        "ĠI",
        "f"
      ],
      [
        "re",
        "n"
      ],
      [
        "t",
        "y"
      ],
      [
        "fir",
        "m"
      ],
      [
        "Ġ",
        "`"
      ],
      [
        "u",
        "se"
      ],
      [
        "ce",
        "s"
      ],
      [
        "b",
        "el"
      ],
      [
        "or",
        "y"
      ],
      [
        "Ġ",
        "V"
      ],
      [
        "Ġa",
        "ssistant"
      ],
      [
        "Ġs",
        "ta"
      ],
      [
        "Ġ",
        "if"
      ],
      [
        "N",
        "o"
      ],
      [
        "l",
        "u"
      ],
      [
        "p",
        "tion"
      ],
      [
        "Ġal",
        "l"
      ],
      [
        "re",
        "ser"
      ],
      [
        "Ġan",
        "s"
      ],
      [
        "ce",
        "ss"
      ],
      [
        "Ġconvers",
        "ation"
      ],
      [
        "o",
        "k"
      ],
      [
        "Ġl",
        "i"
      ],
      [
        "ĠR",
        "ec"
      ],
      [
        "Ġs",
        "o"
      ],
      [
        "b",
        "er"
      ],
      [
        "b",
        "ack"
      ],
      [
        "re",
        "sp"
      ],
      [
        "Ġprovid",
        "ed"
      ],
      [
        "inst",
        "ruction"
      ],
      [
        "Ġb",
        "ulle"
      ],
      [
        "r",
        "y"
      ],
      [
        "w",
        "n"
      ],
      [
        "Ġ",
        "ru"
      ],
      [
        "Ġse",
        "arch"
      ],
      [
        "Ġc",
        "he"
      ],
      [
        "resp",
        "ond"
      ],
      [
        "c",
        "u"
      ],
      [
        "ys",
        "is"
      ],
      [
        "Ġex",
        "per"
      ],
      [
        "Ġp",
        "a"
      ],
      [
        "ch",
        "n"
      ],
      [
        "ou",
        "gh"
      ],
      [
        "ur",
        "s"
      ],
      [
        "a",
        "ted"
      ],
      [
        "ĠRew",
        "rite"
      ],
      [
        "j",
        "son"
      ],
      [
        "ĠE",
        "x"
      ],
      [
        "2",
        "0"
      ],
      [
        "Ġt",
        "ra"
      ],
      [
        "Ġret",
        "rieval"
      ],
      [
        "or",
        "s"
      ],
      [
        "p",
        "ri"
      ],
      [
        "re",
        "e"
      ],
      [
        "g",
        "al"
      ],
      [
        "Ġresp",
        "on"
      ],
      [
        "if",
        "ic"
      ],
      [
        "ĠTh",
        "is"
      ],
      [
        "Ġbu",
        "ild"
      ],
      [
        "s",
        "ummary"
      ],
      [
        "Ġma",
        "ke"
      ],
      [
        "Ġret",
        "urn"
      ],
      [
        "ĠS",
        "t"
      ],
      [
        "r",
        "iter"
      ],
      [
        "Ġrequ",
        "ired"
      ],
      [
        "Ġ",
        "val"
      ],
      [
        "Ġre",
        "write"
      ],
      [
        "p",
        "os"
      ],
      [
        "e",
        "ar"
      ],
      [
        "ha",
        "vi"
      ],
      [
        "ve",
        "d"
      ],
      [
        "o",
        "mp"
      ],
      [
        "ext",
        "raction"
      ],
      [
        "in",
        "d"
      ],
      [
        "Ġ",
        "ro"
      ],
      [
        "th",
        "er"
      ],
      [
        "o",
        "se"
      ],
      [
        "Ġb",
        "et"
      ],
      [
        "Ġla",
        "bel"
      ],
      [
        "o",
        "c"
      ],
      [
        "Ġs",
        "ec"
      ],
      [
        "ĠH",
        "i"
      ],
      [
        "ud",
        "get"
      ],
      [
        "Ġfor",
        "mat"
      ],
      [
        "Ġcon",
        "firm"
      ],
      [
        "tion",
        "al"
      ],
      [
        "=",
        "="
      ],
      [
        "Ġstruct",
        "ured"
      ],
      [
        "ĠPro",
        "fessional"
      ],
      [
        "Ġg",
        "o"
      ],
      [
        "y",
        "le"
      ],
      [
        "ch",
        "e"
      ],
      [
        "ĠRec",
        "ent"
      ],
      [
        "havi",
        "or"
      ],
      [
        "ys",
        "tem"
      ],
      [
        "Ġpro",
        "f"
      ],
      [
        ".",
        "."
      ],
      [
        "i",
        "tems"
      ],
      [
        "Ġs",
        "ign"
      ],
      [
        "Ġd",
        "ates"
      ],
      [
        "Ġbulle",
        "ts"
      ],
      [
        "Ġc",
        "ould"
      ],
      [
        "ation",
        "al"
      ],
      [
        "Ġp",
        "er"
      ],
      [
        "Ġ",
        "4"
      ],
      [
        "A",
        "nswer"
      ],
      [
        "i",
        "ven"
      ],
      [
        "er",
        "nal"
      ],
      [
        "am",
        "e"
      ],
      [
        "Ġto",
        "day"
      ],
      [
        "Ġthe",
        "ir"
      ],
      [
        "ent",
        "s"
      ],
      [
        "\",",
        "\""
      ],
      [
        "Ġneed",
        "s"
      ],
      [
        "Ġb",
        "o"
      ],
      [
        "Ġcon",
        "ver"
      ],
      [
        "Ġrespon",
        "se"
      ],
      [
        "Ġf",
        "unction"
      ],
      [
        "Ġ2",
        "0"
      ],
      [
        "nd",
        "er"
      ],
      [
        "f",
        "y"
      ],
      [
        "Ġo",
        "ur"
      ],
      [
        "Ġm",
        "ust"
      ],
      [
        "Ġnam",
        "es"
      ],
      [
        "m",
        "b"
      ],
      [
        "urs",
        "day"
      ],
      [
        "ĠDe",
        "v"
      ],
      [
        "Ġd",
        "ef"
      ],
      [
        "g",
        "in"
      ],
      [
        "ent",
        "ence"
      ],
      [
        "end",
        "or"
      ],
      [
        "}",
        ","
      ],
      [
        "Ġbe",
        "havior"
      ],
      [
        "ĠRew",
        "riter"
      ],
      [
        "ve",
        "s"
      ],
      [
        "Ġ",
        "&"
      ],
      [
        "te",
        "p"
      ],
      [
        "Ġw",
        "ork"
      ],
      [
        "ĠA",
        "d"
      ],
      [
        "ĠRe",
        "view"
      ],
      [
        "ĠP",
        "reser"
      ],
      [
        "u",
        "b"
      ],
      [
        "Ġp",
        "lease"
      ],
      [
        "Ġqu",
        "es"
      ],
      [
        "ur",
        "ity"
      ],
      [
        "k",
        "ing"
      ],
      [
        "l",
        "p"
      ],
      [
        "ĠA",
        "nal"
      ],
      [
        "form",
        "ation"
      ],
      [
        "Ġb",
        "udget"
      ],
      [
        ")",
        ")"
      ],
      [
        "Ġint",
        "er"
      ],
      [
        "Ġan",
        "y"
      ],
      [
        "\":",
        "\""
      ],
      [
        "ĠK",
        "e"
      ],
      [
        "v",
        "ing"
      ],
      [
        "u",
        "tion"
      ],
      [
        "p",
        "ro"
      ],
      [
        "le",
        "s"
      ],
      [
        "Ġn",
        "p"
      ],
      [
        "ĠS",
        "p"
      ],
      [
        "l",
        "in"
      ],
      [
        "cri",
        "ption"
      ],
      [
        "Ġc",
        "ol"
      ],
      [
        "v",
        "acy"
      ],
      [
        "st",
        "yle"
      ],
      [
        "ul",
        "ts"
      ],
      [
        "Ġ",
        "ra"
      ],
      [
        "Ġout",
        "put"
      ],
      [
        "ĠPreser",
        "ve"
      ],
      [
        "we",
        "b"
      ],
      [
        "Ġt",
        "im"
      ],
      [
        "s",
        "o"
      ],
      [
        "Ġli",
        "ke"
      ],
      [
        "s",
        "ing"
      ],
      [
        "ĠD",
        "es"
      ],
      [
        "i",
        "te"
      ],
      [
        "Ġp",
        "re"
      ],
      [
        "ĠTh",
        "ursday"
      ],
      [
        "Ġext",
        "ernal"
      ],
      [
        "ve",
        "l"
      ],
      [
        "n",
        "o"
      ],
      [
        "Ġg",
        "iven"
      ],
      [
        "----",
        "----"
      ],
      [
        "Ġb",
        "ro"
      ],
      [
        "Ġprof",
        "ile"
      ],
      [
        "o",
        "h"
      ],
      [
        "n",
        "ow"
      ],
      [
        "y",
        "p"
      ],
      [
        "Ġo",
        "wn"
      ],
      [
        "Ġ",
        "5"
      ],
      [
        "ransla",
        "te"
      ],
      [
        "ab",
        "ility"
      ],
      [
        "Ġhe",
        "lp"
      ],
      [
        "ta",
        "in"
      ],
      [
        "Ġconvers",
        "ion"
      ],
      [
        "he",
        "re"
      ],
      [
        "ur",
        "al"
      ],
      [
        "f",
        "t"
      ],
      [
        "ris",
        "ks"
      ],
      [
        "Ġf",
        "ix"
      ],
      [
        "Ġcomp",
        "ati"
      ],
      [
        "Ġwh",
        "at"
      ],
      [
        "Ġit",
        "s"
      ],
      [
        "ransla",
        "tion"
      ],
      [
        "ti",
        "n"
      ],
      [
        ")",
        "."
      ],
      [
        "ĠKe",
        "ep"
      ],
      [
        "lo",
        "cal"
      ],
      [
        "Ġe",
        "ach"
      ],
      [
        "Ġconver",
        "ted"
      ],
      [
        "Ġcompati",
        "ble"
      ],
      [
        "Ġrec",
        "ent"
      ],
      [
        "che",
        "cklist"
      ],
      [
        "Ġsh",
        "ould"
      ],
      [
        "Ġle",
        "gal"
      ],
      [
        "Ġextension",
        "s"
      ],
      [
        ")",
        ","
      ],
      [
        "pri",
        "vacy"
      ],
      [
        "ag",
        "entic"
      ],
      [
        "P",
        "ocketPal"
      ],
      [
        "Ġag",
        "entic"
      ],
      [
        "Ġn",
        "um"
      ],
      [
        "Ġp",
        "h"
      ],
      [
        "ar",
        "k"
      ],
      [
        "Ġ",
        "r"
      ],
      [
        "Ġans",
        "wer"
      ],
      [
        "Ġu",
        "nder"
      ],
      [
        "ĠE",
        "m"
      ],
      [
        "su",
        "bject"
      ],
      [
        "en",
        "er"
      ],
      [
        "ollow",
        "ing"
      ],
      [
        "i",
        "tion"
      ],
      [
        "Ġl",
        "ine"
      ],
      [
        "y",
        "n"
      ],
      [
        "it",
        "s"
      ],
      [
        "ci",
        "al"
      ],
      [
        "Ġconfirm",
        "ation"
      ],
      [
        "}",
        "{"
      ],
      [
        "ti",
        "m"
      ],
      [
        "nt",
        "er"
      ],
      [
        "Ġfact",
        "s"
      ],
      [
        "d",
        "ate"
      ],
      [
        "ra",
        "teg"
      ],
      [
        "ĠI",
        "t"
      ],
      [
        "le",
        "y"
      ],
      [
        "ar",
        "ize"
      ],
      [
        "Ġpro",
        "pos"
      ],
      [
        ".",
        "\""
      ],
      [
        "c",
        "y"
      ],
      [
        "ĠE",
        "n"
      ],
      [
        "Ġ",
        "*"
      ],
      [
        "Ġre",
        "lease"
      ],
      [
        ")",
        ":"
      ],
      [
        "ĠE",
        "mail"
      ],
      [
        "i",
        "de"
      ],
      [
        "ri",
        "c"
      ],
      [
        "ĠT",
        "ext"
      ],
      [
        "ĠW",
        "e"
      ],
      [
        "Ġques",
        "tion"
      ],
      [
        "Ġwe",
        "ll"
      ],
      [
        "ord",
        "an"
      ],
      [
        "enti",
        "al"
      ],
      [
        "ĠAnal",
        "ysis"
      ],
      [
        "Ġslo",
        "t"
      ],
      [
        "a",
        "ting"
      ],
      [
        "Ġex",
        "act"
      ],
      [
        "c",
        "lassify"
      ],
      [
        "Ġm",
        "or"
      ],
      [
        "olog",
        "y"
      ],
      [
        "a",
        "in"
      ],
      [
        "ay",
        "s"
      ],
      [
        "Ġi",
        "d"
      ],
      [
        "Ġa",
        "m"
      ],
      [
        "Ġdes",
        "ign"
      ],
      [
        "ic",
        "s"
      ],
      [
        "Ġw",
        "ould"
      ],
      [
        "Ġl",
        "in"
      ],
      [
        "Ġv",
        "endor"
      ],
      [
        "ĠW",
        "hat"
      ],
      [
        "Ġco",
        "mm"
      ],
      [
        "oh",
        "n"
      ],
      [
        "r",
        "ap"
      ],
      [
        "N",
        "S"
      ],
      [
        "Ġpropos",
        "al"
      ],
      [
        "eth",
        "od"
      ],
      [
        "f",
        "rac"
      ],
      [
        "on",
        "g"
      ],
      [
        "Ġre",
        "g"
      ],
      [
        "Ġ",
        ":"
      ],
      [
        "ou",
        "n"
      ],
      [
        "Ġm",
        "ay"
      ],
      [
        "ar",
        "per"
      ],
      [
        "la",
        "ke"
      ],
      [
        "g",
        "es"
      ],
      [
        "ond",
        "ay"
      ],
      [
        "ase",
        "y"
      ],
      [
        "Ġin",
        "formation"
      ],
      [
        "p",
        "t"
      ],
      [
        "Ġ",
        "Return"
      ],
      [
        "al",
        "th"
      ],
      [
        "lo",
        "ad"
      ],
      [
        "Ġs",
        "tep"
      ],
      [
        "om",
        "m"
      ],
      [
        "ula",
        "r"
      ],
      [
        "Ġs",
        "he"
      ],
      [
        "a",
        "ce"
      ],
      [
        "an",
        "k"
      ],
      [
        "ĠFin",
        "al"
      ],
      [
        "ve",
        "lo"
      ],
      [
        "Ġs",
        "entence"
      ],
      [
        "o",
        "te"
      ],
      [
        "Ġimp",
        "ort"
      ],
      [
        "re",
        "asoning"
      ],
      [
        "Ġal",
        "so"
      ],
      [
        "ca",
        "use"
      ],
      [
        "ar",
        "t"
      ],
      [
        "d",
        "es"
      ],
      [
        "Ġbe",
        "low"
      ],
      [
        "Ġbe",
        "cause"
      ],
      [
        "Ġsp",
        "ec"
      ],
      [
        "Ġp",
        "r"
      ],
      [
        "Ġc",
        "lasses"
      ],
      [
        "i",
        "a"
      ],
      [
        "Ġbro",
        "ad"
      ],
      [
        "Ġmor",
        "ning"
      ],
      [
        "Ġre",
        "asoning"
      ],
      [
        "le",
        "x"
      ],
      [
        "I",
        "n"
      ],
      [
        "Ġs",
        "ti"
      ],
      [
        "at",
        "h"
      ],
      [
        "Ġrep",
        "ort"
      ],
      [
        "Ġthe",
        "se"
      ],
      [
        "$",
        "$"
      ],
      [
        "ĠS",
        "u"
      ],
      [
        "Ġc",
        "lassify"
      ],
      [
        "ĠH",
        "e"
      ],
      [
        "2",
        "00"
      ],
      [
        "Ġ$",
        "$"
      ],
      [
        "Ġsec",
        "urity"
      ],
      [
        "ĠS",
        "e"
      ],
      [
        "Ġn",
        "ew"
      ],
      [
        "la",
        "r"
      ],
      [
        "Ġcon",
        "s"
      ],
      [
        "Ġbe",
        "en"
      ],
      [
        "olog",
        "ical"
      ],
      [
        "Ġk",
        "now"
      ],
      [
        "ĠM",
        "onday"
      ],
      [
        "Ġn",
        "e"
      ],
      [
        "Ġst",
        "ud"
      ],
      [
        "f",
        "ic"
      ],
      [
        "h",
        "en"
      ],
      [
        "requ",
        "est"
      ],
      [
        "s",
        "h"
      ],
      [
        "ĠL",
        "a"
      ],
      [
        "Ġres",
        "ults"
      ],
      [
        "m",
        "s"
      ],
      [
        "du",
        "c"
      ],
      [
        "w",
        "o"
      ],
      [
        "ci",
        "p"
      ],
      [
        "Ġs",
        "ome"
      ],
      [
        "Ġp",
        "ol"
      ],
      [
        "Ġd",
        "if"
      ],
      [
        "T",
        "rue"
      ],
      [
        "fe",
        "ren"
      ],
      [
        "ul",
        "ti"
      ],
      [
        "Ġth",
        "en"
      ],
      [
        "ues",
        "day"
      ],
      [
        "Ġpla",
        "n"
      ],
      [
        "Ġw",
        "here"
      ],
      [
        "ure",
        "s"
      ],
      [
        "Ġsu",
        "b"
      ],
      [
        "Ġexper",
        "t"
      ],
      [
        "iz",
        "ation"
      ],
      [
        "Ġtim",
        "e"
      ],
      [
        "rap",
        "h"
      ],
      [
        "Ġ",
        "|"
      ],
      [
        "velo",
        "p"
      ],
      [
        "Ġup",
        "date"
      ],
      [
        "re",
        "ssion"
      ],
      [
        "n",
        "es"
      ],
      [
        "ĠC",
        "lassify"
      ],
      [
        "ĠH",
        "ow"
      ],
      [
        "f",
        "ul"
      ],
      [
        "Ġo",
        "p"
      ],
      [
        "ĠJ",
        "ordan"
      ],
      [
        "_",
        "_"
      ],
      [
        "le",
        "v"
      ],
      [
        "he",
        "d"
      ],
      [
        "er",
        "ing"
      ],
      [
        "Ġsu",
        "pp"
      ],
      [
        "e",
        "x"
      ],
      [
        "Ġsti",
        "ll"
      ],
      [
        "Ġs",
        "ch"
      ],
      [
        "Ġde",
        "ck"
      ],
      [
        "Ġe",
        "d"
      ],
      [
        "ri",
        "b"
      ],
      [
        "lo",
        "t"
      ],
      [
        "ĠT",
        "uesday"
      ],
      [
        "ĠC",
        "lasses"
      ],
      [
        "Ġc",
        "lassifier"
      ],
      [
        "ĠC",
        "lassifier"
      ],
      [
        "o",
        "de"
      ],
      [
        "Ġon",
        "line"
      ],
      [
        "ĠDes",
        "cription"
      ],
      [
        "Ġo",
        "ver"
      ],
      [
        "T",
        "ext"
      ],
      [
        "it",
        "able"
      ],
      [
        "ti",
        "l"
      ],
      [
        "ce",
        "d"
      ],
      [
        "Ġe",
        "qu"
      ],
      [
        "ĠE",
        "ng"
      ],
      [
        "I",
        "ON"
      ],
      [
        "Ġup",
        "load"
      ],
      [
        "eed",
        "back"
      ],
      [
        "Ġw",
        "ord"
      ]
    ]
  }
}